#version: 0.2 - Trained by `huggingface/tokenizers`
i n
e r
Ġ t
Ġ s
Ġ c
o n
e s
a n
o r
Ġ f
a r
a l
e n
Ġ a
Ġ p
Ġ b
r e
a t
Ġ d
e d
Ġ m
o u
Ġ w
in g
i s
Ġt o
i t
Ġ in
i c
Ġ h
Ġ o
i l
r o
s t
l e
i on
r a
Ġ g
Ġf or
e l
o l
Ġ n
a c
Ġ l
u r
Ġ re
er s
u s
a s
en t
u n
e t
i g
a y
o m
Ġo f
Ġ r
i d
Ġs t
an d
a m
t h
Ġ e
es t
v er
Ġt h
i r
c h
t er
a d
Ġc h
c t
Ġ on
i m
Ġd e
o w
e w
o t
o s
t s
il l
r i
al l
ou r
v e
at ion
Ġ k
a k
ou n
Ġ v
c e
u l
g e
Ġ j
u st
ic e
p p
Ġs e
Ġc on
ig h
ac k
Ġth e
Ġo ver
Ġs h
a b
Ġp ro
o o
Ġa t
u m
i a
q u
d s
u p
e ar
i es
i an
Ġb e
or t
o p
Ġa s
u t
Ġp l
at e
a st
Ġa f
m an
Ġ le
c k
it h
es s
ou t
a in
l d
m ent
Ġc l
ust r
Ġs p
is t
ol ice
Ġ un
Ġw ith
d er
Ġe x
en s
e m
i re
in e
Ġ ro
Ġc om
ar k
n s
u d
Ġc o
ustr al
Ġaf ter
a p
at h
ou s
i e
ay s
i v
b er
n e
s h
a g
Ġ ra
or e
i f
Ġw or
en d
e ct
el l
it y
Ġ ar
Ġ and
a il
Ġn ew
an s
igh t
o v
g ed
an t
Ġ up
Ġ y
u g
k s
a v
Ġof f
Ġr es
ic t
u re
Ġa b
l and
Ġp r
is s
c c
Ġb l
an g
l y
Ġ out
oun c
Ġ 2
v i
ar t
ar d
u b
Ġ 1
Ġh e
Ġf in
ro m
Ġt ra
Ġw in
ct ion
Ġ qu
o b
p ort
i ve
a ge
il d
id e
i p
Ġs ays
Ġw ar
Ġch ar
vi ew
g h
Ġ al
Ġa ustral
Ġf rom
Ġf l
e e
r y
Ġc ar
Ġb y
Ġa g
ac h
Ġin d
en ce
is h
oo d
a f
o c
a w
o g
p olice
ak e
ol d
Ġd is
us h
p l
ow n
ion s
al s
ar m
Ġd r
on g
id ent
o ver
Ġ an
Ġcon t
Ġc r
u e
Ġa d
or s
Ġpl an
c l
as e
ounc il
Ġb ack
Ġp olice
c on
Ġ is
et s
ro w
it s
o d
Ġm an
oun d
Ġf ac
Ġc ra
our t
p s
re e
Ġ us
Ġk ill
at er
on e
Ġb r
Ġat t
ou gh
o ol
Ġo p
m er
f or
k e
Ġs c
ear s
n ing
o ck
Ġs u
ov t
Ġre c
Ġa cc
as s
am p
Ġt r
Ġw h
as h
om e
s e
Ġg r
Ġc all
0 0
g es
ne y
t o
in d
Ġn ot
ter view
ic k
un d
Ġwor k
Ġa pp
Ġf ire
Ġ ur
y d
ou th
d e
re at
Ġc an
ol l
o st
p it
is e
Ġm ur
Ġc ourt
i al
ar e
a ir
Ġcom m
Ġs ch
Ġm in
ar y
n ew
us s
it ion
f f
ul t
c er
Ġle ad
ur n
Ġp re
Ġ en
Ġde ath
al th
an ce
at t
Ġex p
im s
Ġt e
Ġb o
Ġag ain
Ġv ict
Ġcra sh
or th
at es
ig n
Ġh igh
Ġt ri
v est
Ġs er
u es
Ġh el
yd ney
t y
b r
in s
Ġm ay
m p
b e
Ġn e
Ġre t
Ġe le
Ġatt ack
Ġde f
Ġb an
Ġs ur
Ġd own
in terview
a ustral
q ld
Ġm ark
s a
or y
Ġin to
Ġ2 0
a ve
t on
ou ld
in a
b an
ul l
s w
Ġ im
Ġf ir
Ġf r
um p
Ġm ore
Ġm e
en c
Ġf arm
Ġun der
g et
Ġw ater
ing s
Ġc or
Ġaustral ia
Ġpro t
Ġcom p
over n
os pit
Ġb re
Ġagain st
oun t
ac t
Ġse e
ent s
Ġmur der
Ġm iss
b our
us ed
th e
Ġchar ged
al e
b l
Ġb oo
it ic
Ġc ouncil
on s
o ot
Ġw e
Ġc ent
Ġs l
Ġg u
Ġh ous
ow er
Ġm ar
j ect
in k
or d
Ġw ill
ation s
i b
t e
ak es
h e
c om
Ġch ild
Ġj ail
Ġd ri
im e
Ġj o
Ġcl a
p er
Ġhe alth
Ġin vest
overn ment
a x
z e
u c
on t
ospit al
y s
Ġd ay
Ġw om
is m
Ġre port
ur al
Ġcon f
p t
ation al
d ay
Ġco ast
it e
Ġcl os
Ġw a
is es
p r
Ġsp e
Ġcon s
Ġre m
Ġp ar
Ġl aw
er n
Ġt est
Ġsch ool
ot t
p e
os s
r est
m s
p h
igh ts
i ra
ir us
n ed
in es
Ġser v
Ġb us
w o
Ġab out
is ts
g ra
er al
is ter
Ġs w
le y
v el
Ġg o
l ic
at s
Ġs et
Ġf ound
f ire
Ġt our
Ġs ydney
Ġd o
Ġele ction
Ġt al
Ġsu pp
Ġh ospital
Ġst r
Ġa m
Ġaustral ian
en ds
Ġ20 1
Ġp er
g er
l i
ath er
as man
Ġop en
ic es
Ġg ovt
ac e
Ġa ir
Ġf und
Ġse x
ou p
w a
and s
Ġl i
Ġn orth
Ġj ob
Ġs outh
an ge
Ġkill ed
e ens
Ġboo st
c o
Ġh ome
Ġn o
Ġhel p
th er
Ġs m
Ġp ol
Ġd el
on es
Ġb u
am il
Ġst ud
ab or
Ġn sw
Ġde ad
om b
i er
av irus
at ch
Ġcont in
el bour
us p
Ġth reat
on avirus
Ġt er
w ay
in ess
an ts
Ġ or
c ouncil
us e
Ġro ad
Ġdr ug
ic h
m in
ira q
Ġin ter
i x
a pp
Ġsh ow
Ġ qld
Ġm o
Ġwor ld
Ġc up
Ġre g
Ġfac e
g ovt
Ġd ies
e f
if e
elbour ne
Ġur ged
is on
Ġacc used
Ġw est
oo k
Ġar rest
Ġcall s
eens land
l es
w e
e x
u ts
g r
Ġinvest ig
w or
Ġg overnment
el a
Ġre f
p ro
Ġg ra
d u
r es
Ġwin s
b y
ough t
ub lic
b le
Ġl a
Ġg et
c re
b o
Ġh it
l l
Ġp ay
at ed
Ġprot est
Ġde al
iv es
Ġs a
Ġd es
am e
Ġm ed
ns w
Ġy ear
Ġc amp
Ġin qu
le ar
Ġr i
Ġcla ims
Ġp h
Ġf ight
Ġs usp
or ts
Ġfir st
c es
ig en
el s
Ġp e
all y
ie f
igen ous
Ġt ake
in t
r ic
Ġst e
Ġp o
w n
Ġcon cer
s p
a h
u ck
ct or
Ġan n
ur y
Ġin j
il e
Ġb ush
s s
it t
Ġtri al
Ġs af
Ġp art
Ġg row
Ġg re
i pp
ab le
Ġc ro
Ġh op
att le
Ġde c
r en
Ġm on
Ġd et
ear ch
Ġe v
ur es
i el
Ġd en
pp os
Ġpl ay
Ġc ould
f l
w ar
ab b
Ġf all
Ġ all
Ġmiss ing
Ġtal ks
Ġcent re
Ġmark et
Ġpr es
c or
ident s
Ġc ase
Ġfin al
b ack
Ġhous e
Ġv i
is ion
Ġfund ing
am es
ela ide
y cl
austral ian
re d
Ġc a
p ar
ud get
c an
Ġas sa
Ġex t
Ġhe ad
Ġw el
Ġg old
w h
Ġde b
Ġc ap
Ġ 3
Ġ iraq
Ġp ower
Ġp ark
ber ra
ak s
d r
Ġb ar
' s
Ġr un
ee p
Ġh un
v ers
g y
Ġ end
Ġt ax
Ġcons id
Ġr ise
v ict
Ġh ar
Ġc ount
w in
Ġon e
Ġde m
ist an
Ġgr oup
ur s
Ġs y
Ġne ed
Ġst ri
Ġd am
Ġb ra
Ġm ill
Ġf e
Ġp ush
Ġb ro
g l
Ġbus iness
Ġch ang
f t
ect ed
ain s
is ed
st r
i z
m iss
Ġst ill
Ġre p
Ġb ill
e y
Ġa ct
Ġsupp ort
v es
un ch
Ġpl ans
ustr y
Ġoff ic
Ġwork ers
is ban
Ġp le
Ġd ra
w om
od y
c ur
Ġ ir
Ġchar ges
o y
Ġassa ult
Ġ it
Ġs ent
a z
Ġsee k
it ies
Ġdis c
on d
Ġco st
amil y
ic al
Ġcr itic
Ġre le
il ty
as on
Ġy ears
o k
Ġtra in
Ġre ject
il le
ro l
Ġal le
ir y
n t
Ġr est
Ġst or
Ġt ar
Ġfl ood
isban e
un ity
Ġg l
u k
Ġmin ister
ot e
Ġb ig
Ġnew s
Ġm elbourne
Ġind ustry
ion al
ure d
g al
Ġc e
i k
c ar
n o
Ġg ets
ug h
Ġas s
Ġf un
Ġm ine
am s
Ġrec ord
Ġgu ilty
er t
et y
Ġjail ed
iv ers
ppos ition
Ġpro be
an k
Ġbe g
Ġl os
Ġs n
Ġl and
Ġt asman
Ġch ange
Ġb omb
m ed
Ġchang es
Ġme et
g re
Ġre l
Ġapp e
Ġb udget
Ġre view
he ad
Ġc ut
Ġsh oot
Ġst ar
enc y
ar ch
Ġ ed
Ġ z
m ore
at al
Ġm il
id s
vel op
Ġt akes
i as
Ġt im
Ġf ish
ra y
Ġr is
Ġs ay
Ġqu eensland
r or
n er
Ġret urn
Ġcor onavirus
Ġt wo
ic s
Ġch ina
r ist
t ing
Ġd ar
Ġlaw s
up er
n ational
Ġex pl
Ġh er
Ġb ur
Ġqu est
Ġe ar
Ġcount ry
Ġto p
austral ia
Ġdef ends
Ġs o
Ġh as
c ast
Ġback s
d own
i ous
Ġe ast
ol og
ed eral
Ġinqu iry
as es
Ġis land
a i
cur ity
Ġvict or
s on
Ġserv ice
al d
Ġwom an
c ap
Ġw ee
ut ure
am ed
Ġr ul
Ġh ave
con d
at ing
Ġt ime
Ġst ate
Ġp ri
Ġbre ak
af f
Ġind igenous
Ġfarm ers
Ġd ou
Ġv is
Ġarrest ed
Ġb id
ut e
an c
Ġa ction
Ġwar ning
Ġri ver
i ent
s c
ark s
Ġ 4
Ġe m
Ġar e
n g
ment s
or n
b ar
if ic
Ġf ail
Ġs k
Ġf ears
Ġsh ort
Ġh our
c all
l er
v en
wom an
op s
Ġfac es
con om
w ard
Ġvi ol
ig in
Ġcar e
m a
ow s
Ġch ief
for mer
um b
ad s
Ġur ges
Ġh ear
et er
Ġp m
Ġa head
i j
Ġ 5
Ġse arch
Ġim p
ra ct
ap an
Ġad elaide
Ġp ublic
ad e
ir d
Ġro b
Ġw ants
Ġc uts
Ġcontin ues
Ġa c
Ġpro m
l ine
Ġb ut
Ġla unch
Ġp ort
ab c
ian s
n ess
Ġjob s
a ign
Ġf uture
Ġst re
ell s
Ġres c
el y
Ġn ational
ang er
end ed
u th
Ġappe al
Ġr ural
t r
Ġl o
all en
Ġth r
oc al
il ity
Ġ ant
Ġh ill
Ġn ear
Ġse ason
i o
m e
a ze
Ġk n
am ent
l ing
en n
et t
Ġh its
Ġn t
Ġsaf ety
n r
Ġk ore
as ed
ag ue
Ġapp ro
Ġfin d
ent ion
Ġab use
iel d
iv al
Ġden ies
Ġc ol
Ġde velop
ud d
Ġf amily
Ġp at
Ġwar ns
Ġh old
Ġ es
am b
Ġre ve
Ġwe ather
t wo
Ġco al
Ġg un
m ar
Ġl ife
s ydney
h ip
Ġconcer ns
re w
Ġf atal
Ġbr isbane
Ġpol itic
Ġcamp aign
Ġtr ans
y l
Ġm ake
ur ing
Ġs ol
ak istan
ir l
Ġbl ack
f arm
Ġalle ged
Ġre d
Ġcomm iss
Ġpr ice
p os
Ġe conom
Ġfun ds
Ġto ld
a ul
Ġper th
Ġdec ision
ut ion
Ġreject s
Ġs ub
b all
Ġ iss
Ġm or
it ed
Ġg en
op le
c ome
Ġcon d
Ġd ro
Ġres p
Ġc lear
us es
v id
Ġst abb
Ġpres ident
im ate
i ed
Ġpro f
m ark
er y
Ġra il
Ġcommiss ion
Ġt ur
u al
Ġshoot ing
Ġwee k
Ġf ree
oo ds
at or
Ġt it
Ġd og
Ġtr ump
am a
Ġs uper
Ġo wn
Ġcomm unity
gh an
Ġpro ject
Ġst ation
Ġt urn
f ir
ab y
m ier
Ġlead ers
o ther
Ġb et
g land
Ġpr ison
Ġc oll
Ġp ost
Ġm em
Ġpr ices
Ġann ounc
Ġs al
an y
li ament
Ġse curity
Ġres idents
Ġcan berra
Ġsee ks
ad y
m as
e p
Ġch allen
Ġm ov
le t
Ġl abor
r ural
Ġt ro
o pp
g o
Ġter ror
h n
on ald
it al
Ġcl ub
u el
f er
g a
Ġch e
Ġpr ess
an n
Ġh om
ig ns
Ġra in
i ke
an e
d o
y al
Ġg as
Ġ1 9
r al
pit e
i um
Ġspe aks
Ġin cre
oun g
Ġdr ought
Ġviol ence
Ġar t
es e
Ġin terview
Ġinj ured
Ġad v
Ġpe ople
ra in
u ge
em e
Ġh ot
t asman
Ġpol ic
Ġse cond
Ġh is
Ġban k
Ġth an
Ġhous ing
Ġdri ver
Ġw ont
Ġmo ve
Ġserv ices
h ow
av es
v ing
Ġle ague
Ġvict ims
ag es
Ġin s
Ġf ar
Ġm p
Ġf our
wor k
uss ie
it ch
n es
Ġr ate
Ġres earch
Ġbu ild
k en
Ġst art
vict or
Ġro ck
l abor
Ġh ol
h ol
Ġcl ash
at ive
Ġch rist
ra el
Ġp ass
w ater
Ġb ail
com es
Ġre v
ines e
Ġconsid er
id ay
Ġstri ke
Ġh and
Ġs ale
op e
i ers
Ġf oot
one y
Ġre b
Ġs en
al k
ent al
Ġcontin ue
Ġtra de
Ġst aff
Ġgre en
Ġris k
Ġchar ge
Ġpart y
Ġthr ough
c ent
u it
Ġs um
ar es
Ġmin ing
Ġdes pite
Ġs old
Ġe mer
for m
Ġl ong
ak ing
Ġf re
le br
Ġoff er
Ġl ive
Ġreg ional
Ġattack s
Ġa p
Ġst and
Ġth ree
is is
b ush
g ency
Ġm en
Ġl oss
Ġtra ck
Ġa id
Ġv ote
Ġl if
Ġtar get
2 0
Ġp ut
id ence
Ġl ook
Ġ 7
Ġstud y
Ġp oll
Ġpar liament
s outh
Ġb en
Ġpro gra
Ġlead er
Ġ ent
Ġk eep
Ġc ycl
Ġbush fire
h am
Ġbeg ins
uth or
Ġh ur
Ġh on
Ġb ody
m y
Ġmay or
Ġprot ect
Ġbl ast
Ġwh o
b ull
Ġf ra
Ġcr isis
t ain
ct ors
ch ina
Ġc ity
cor onavirus
et h
Ġbe ach
ick et
Ġsch eme
Ġpl ant
Ġr ates
Ġo pposition
Ġk e
Ġbe h
Ġte en
Ġm akes
al i
Ġbl aze
m en
Ġwom en
Ġdisc uss
Ġfor e
Ġacc ident
Ġstor m
c ourt
er e
ip s
Ġc row
Ġclos e
g ing
Ġv al
Ġtit le
u ro
yl um
Ġchild ren
Ġt as
b s
Ġce lebr
Ġo ld
Ġ 6
Ġkill s
Ġd uring
Ġbe at
Ġkore a
r is
Ġfl u
Ġte am
b re
Ġg irl
Ġinvestig ate
Ġdel ay
Ġl ink
Ġw all
Ġc le
Ġco ach
ac ific
Ġ q
Ġ1 0
Ġfin ds
ve y
v ille
te en
o es
Ġdeb ate
Ġm er
Ġop er
Ġh ost
b ro
Ġdar win
Ġtour ism
t as
Ġs ign
Ġconf ir
Ġrul es
Ġ el
n orth
Ġl ight
Ġtasman ia
Ġp al
Ġm c
Ġw as
Ġprogra m
igin al
Ġcla im
ob art
b us
Ġf ood
Ġcl imate
r up
m on
Ġmil it
Ġb attle
ra d
Ġh al
Ġstud ents
y er
Ġf oc
Ġrest r
Ġant i
Ġsh ould
Ġco vid
v ed
f ore
Ġin v
Ġh ow
o os
ar ds
l a
ac c
Ġa v
st em
a el
Ġf est
Ġf il
Ġw ay
Ġpro pos
Ġm us
Ġhop es
ot s
pl oy
on y
Ġun ion
Ġvictor ia
Ġto ll
Ġple ads
Ġcra ck
Ġra ce
Ġ 8
Ġexp ected
Ġto w
Ġhigh l
Ġf ederal
Ġte ach
y o
Ġcan cer
Ġm a
Ġst op
Ġsh are
oll ar
Ġo ly
d ing
b a
c ess
Ġsent enc
Ġli ber
Ġg ood
Ġsp arks
Ġam id
Ġes cap
Ġt reat
Ġpolic y
v ir
k ely
Ġh ist
Ġbe ing
ast er
Ġmark ets
Ġl ab
Ġpro mp
o int
Ġshow s
er gy
Ġoly mp
Ġair port
str u
Ġplan e
Ġannounc es
Ġ er
Ġfor ce
un ion
f ight
Ġconsid ers
Ġvict ory
Ġhun t
at ors
Ġus e
v ic
e c
ers on
Ġstabb ing
ri es
Ġro yal
Ġmed ia
t ion
ig ers
r it
Ġc am
p re
Ġb oss
Ġaf ghan
Ġsp r
cast le
w ood
uc lear
ib le
Ġcont rol
Ġvict im
u ed
l ed
Ġg e
Ġre ady
id ge
pp ed
Ġhigh way
Ġvis it
Ġc attle
ic ide
m al
ich ael
Ġsy stem
c y
Ġst ay
f r
Ġwar ned
Ġd om
Ġm ot
ones ia
Ġin t
b on
Ġto o
Ġl ocal
ur ch
war ds
qu eensland
Ġbo y
ell ing
j o
s er
s en
Ġra c
ous ands
Ġdevelop ment
Ġaf l
Ġle gal
Ġsur v
Ġm al
air y
st and
Ġmill ion
Ġdr um
Ġ its
and id
Ġch amp
Ġab c
em ber
Ġw ant
Ġs ite
farm ers
c ed
Ġb or
st er
Ġpro du
Ġle g
Ġe y
Ġdeath s
Ġre ach
ock s
Ġs qu
es h
ig r
Ġcr ime
Ġd ollar
Ġcomp any
Ġ '
Ġtr uck
Ġbo at
Ġrestr ict
Ġfest ival
w est
Ġm atch
uc ation
m ur
g ers
Ġp en
Ġen gland
Ġfin ed
g an
em pt
p m
Ġwel comes
it ish
Ġj ust
Ġaf f
Ġchallen ge
s ch
g overnment
d ra
ous e
Ġd av
Ġh ears
Ġa ward
Ġp et
Ġde p
Ġrec over
Ġemer gency
Ġcro ss
Ġt re
can berra
Ġquest ions
Ġb ay
le ct
Ġgr and
ul ation
Ġpro ble
Ġmeet ing
Ġsh ot
st ud
Ġdis p
c ol
ur ns
p ublic
Ġpl ed
x t
Ġj apan
Ġimp act
n a
Ġd on
Ġfr ont
Ġ ang
in ation
oo ks
Ġpre mier
Ġspe ed
d ict
Ġn uclear
Ġde cl
Ġp akistan
Ġb ul
Ġle ave
00 0
ag er
c r
ail s
Ġm id
Ġb ash
ast e
Ġchrist mas
Ġdr ink
Ġmur ray
Ġo il
Ġfir es
Ġwin d
c ycl
olog y
Ġw ild
Ġresp on
Ġop ens
ect s
Ġy outh
Ġrele ase
om s
Ġjo hn
Ġin f
Ġr uss
Ġup gra
Ġto wn
v al
Ġad m
Ġle aves
min ister
Ġinvestig ation
c a
Ġo b
for d
Ġl ist
Ġn amed
ri an
if f
Ġquest ion
Ġim pro
Ġcle an
ro ss
Ġind ia
Ġh um
m elbourne
Ġas ylum
f ul
ind igenous
Ġstre et
row n
op h
d en
ch ild
ab ies
Ġl ow
m ay
Ġinter est
it ions
ri b
Ġrep orts
Ġele ct
o on
Ġaf ric
Ġhighl ights
Ġqu ar
Ġt ough
ul ts
Ġc andid
Ġv ol
b t
Ġb ir
Ġf ear
Ġen ergy
Ġlead s
Ġspe c
Ġy oung
o pposition
end ing
Ġf ly
gre ens
Ġsh ip
Ġbe fore
im b
ff ic
Ġdra w
it ness
Ġro ll
he alth
Ġas h
Ġp os
Ġr ally
Ġl ine
s un
ic ks
n ers
Ġoff ers
it ing
Ġg ives
Ġra id
Ġv ic
f ish
Ġh obart
af l
Ġmar ch
Ġmov es
Ġresc ue
j or
Ġfor ces
al y
Ġbeh ind
ree k
Ġv ot
Ġlos es
cc er
av y
g est
e at
Ġpre par
Ġl ock
Ġd est
ens ion
ri ver
Ġcont ract
com m
Ġp uts
id es
Ġlos e
in ce
Ġsum m
t ra
umb ers
Ġthe ir
Ġoffic er
Ġrestrict ions
el f
Ġp acific
ab ility
Ġm y
Ġw atch
d onald
Ġsp ot
ess ion
Ġrele ased
le ction
Ġro w
Ġfall s
t le
Ġmon th
el ine
Ġn ight
vir on
Ġ 9
Ġar ri
Ġp ra
ist r
Ġfoc us
Ġgrow ers
Ġp il
l ess
Ġb all
Ġd ump
Ġtrain ing
s m
Ġfac ing
Ġb aby
ant as
m ber
Ġreve als
Ġ2 00
Ġ1 2
en ch
m c
Ġag ree
viron ment
Ġg ames
Ġl im
Ġ1 5
Ġear ly
Ġc ust
g old
Ġconf ident
ou ts
Ġm ental
gr and
h igh
Ġm oney
Ġn et
ult ure
Ġn umbers
Ġthreat en
Ġprom ises
Ġl ooks
Ġs ave
b ul
k es
it es
st ra
ud ge
ij i
un t
re t
Ġbet ter
th ree
uss ies
w all
Ġrob ber
re ds
Ġdri vers
Ġtro ops
Ġinqu est
ol en
it z
ug by
Ġc ur
Ġdri ving
Ġdem and
s u
Ġdrug s
qu e
p al
Ġr ound
Ġcent ral
Ġhon our
Ġgo es
Ġt ells
Ġw ed
Ġdef ence
a ust
Ġa ust
Ġr en
enc es
Ġse a
Ġab b
Ġed ucation
m ing
Ġra pe
il s
ad d
Ġref uge
f ederal
Ġiss ues
Ġsent ence
Ġb el
os e
Ġ1 00
Ġret urns
Ġa uthor
Ġg iv
Ġcom e
Ġstr ug
Ġm ass
Ġprof it
ors e
Ġinj ury
j apan
Ġjo in
Ġs un
th ers
Ġm ust
Ġl ank
Ġnorth ern
Ġfor mer
Ġdel ays
app y
Ġav o
ille gal
er man
Ġr ights
Ġs igns
Ġf ive
Ġbuild ing
Ġen ds
tasman ian
Ġhun ter
y ing
Ġ uk
Ġm ount
Ġs ix
co hol
ones ian
Ġneed ed
Ġf uel
Ġf ix
l am
g u
Ġab or
s earch
Ġincre ase
bus iness
Ġgrow th
Ġj un
d is
l in
ri al
Ġp ng
Ġle vel
Ġl ast
Ġne xt
nr l
Ġpro per
ugh ter
le e
r on
Ġb ag
Ġre ce
on er
res idents
b ur
in ts
ic a
wor ld
Ġp op
im ber
Ġdam age
Ġcycl one
Ġd ire
Ġstr ong
ob al
is rael
ide o
ak er
nr n
n et
p ng
ad elaide
um ps
Ġm ag
r udd
Ġrem ains
st e
b ers
i ence
d ar
Ġt ack
Ġe uro
qu est
Ġc ases
Ġpromp ts
Ġbo ard
Ġschool s
Ġsu cc
Ġadm its
Ġv s
Ġclos ure
mark et
Ġdou ble
Ġs av
Ġhop e
u ary
Ġp ull
Ġpress ure
Ġy ou
ang ar
Ġsal es
Ġp oss
r ig
Ġw oes
at a
ounc ill
our n
Ġsaf e
fight ers
sh ip
est ic
b ra
and al
Ġmilit ary
Ġj ul
ag ed
ugh t
a ussie
Ġc al
Ġgr ant
ou l
Ġreve al
ra p
Ġdisp ute
Ġp ack
b or
g le
Ġsm ith
Ġjo ins
Ġg reat
bre ak
b ig
Ġcoll ap
Ġsentenc ed
ac u
Ġth ird
Ġs ack
Ġd i
Ġfor est
a ur
gre en
Ġg ame
ig o
Ġr ises
s ur
Ġshort age
Ġwork er
l o
Ġf er
Ġwel come
Ġex port
r uss
Ġcl ass
Ġp an
Ġpri v
Ġpe ace
a u
ient ists
Ġabor iginal
Ġsp ort
fir es
Ġb est
Ġdis miss
dr ess
f ears
st or
Ġrespon se
Ġn z
s y
in ter
it or
Ġh ard
per th
Ġw aste
Ġ201 5
f our
Ġ ze
Ġbor der
Ġm is
Ġs oc
Ġch inese
m at
ch ar
Ġwest ern
ir es
ver y
el stra
Ġf oll
Ġk ey
Ġlaunch es
grand stand
og s
am i
is ing
oun ce
Ġsl ams
Ġtow ns
ger y
Ġdet ention
f ield
c le
c ra
Ġ1 1
Ġben ef
ig er
h er
nes day
ans ion
af e
Ġb as
Ġfac t
Ġor der
k ing
in ks
Ġcr icket
Ġche ck
Ġa way
anc ial
ed s
ain t
Ġfl ag
pl ace
l ight
t our
o le
ues day
Ġs ing
b b
w orth
Ġsh ares
Ġcl in
may or
Ġpolitic al
Ġhot el
Ġfra ud
Ġm ichael
Ġev acu
Ġs ought
ke y
o h
Ġm ac
or k
Ġb urn
ow ns
Ġeconom y
Ġdo ctor
Ġn r
Ġ ve
an ces
Ġr ugby
ri a
Ġroad s
Ġcost s
t est
a ed
Ġatt empt
Ġte ch
Ġze al
Ġhom es
ar ra
Ġan other
Ġwh at
Ġsu icide
Ġval ley
el ess
Ġun ve
Ġli kely
Ġev idence
Ġw r
k er
w ell
Ġsucc ess
Ġinter national
Ġfr iday
Ġdro p
ew ell
Ġb ow
Ġupgra de
or ds
Ġhur t
and ed
l aw
ash es
ill ard
ro y
Ġre al
n ab
Ġa ged
Ġhel ps
Ġfail s
Ġprotect ion
in o
Ġs ug
Ġre op
st ate
Ġc ab
Ġthreat ens
ation als
Ġcar bon
a id
ce pt
Ġaustral ias
en e
t urn
w l
an a
Ġst age
Ġde v
f all
g ets
il ipp
ug ust
Ġtri b
Ġfore ign
s o
Ġeconom ic
Ġcam er
i ams
re g
ed er
end igo
Ġs ets
en der
m o
Ġin c
Ġbeg in
re port
urs day
Ġp ast
Ġfil m
pp er
Ġcrash es
Ġpush es
Ġtasman ian
Ġwh ite
Ġexp ansion
at ter
Ġw alk
Ġterror ism
Ġzeal and
Ġ x
ou ps
ivers ity
Ġsu ff
b u
Ġown ers
Ġexp er
Ġm ans
g un
Ġcom pl
Ġma jor
Ġhar vest
id er
Ġdis e
Ġsex ual
ang ers
h ouse
Ġcomm itt
Ġabb ott
Ġprotest s
Ġl ob
Ġa ugust
if t
Ġfish ing
Ġplan ning
Ġ i
Ġst olen
Ġprotest ers
rup tion
Ġal cohol
Ġk ids
h ns
land s
Ġman age
Ġn ame
Ġdo ctors
Ġd iv
Ġph ot
Ġt w
Ġf ig
li ber
Ġfl oods
Ġkill ing
Ġbu y
ct ure
Ġsen ate
cl os
Ġad dress
Ġp ot
p ower
Ġsp ark
Ġbo om
u ra
ac y
Ġclos es
Ġacc ess
th ousands
Ġo pp
Ġn urs
Ġ201 4
sch ool
b ury
i ents
Ġl iv
ond on
Ġ illegal
Ġl at
ain ts
rew s
Ġin sp
Ġgiv en
Ġcon vict
Ġs il
con cer
p c
c os
c are
y a
d d
in al
al ing
amil ies
Ġbre ach
Ġas k
h old
Ġt igers
fir st
or ter
i ation
Ġhist ory
un ities
Ġse cre
Ġd anger
Ġfin als
co al
Ġrem ain
Ġan im
z ac
Ġ ill
f amily
Ġcrack down
o ff
Ġv ideo
ut y
Ġup d
Ġtrans port
Ġnew castle
Ġhel d
Ġcritic al
Ġop t
Ġchamp ion
p akistan
Ġp ap
Ġb ans
om m
wh at
ow ing
Ġbr idge
Ġbl ues
it ive
Ġfor m
wor ks
Ġc reek
Ġsh ire
Ġplan ned
Ġn ow
Ġk ing
or ge
ire d
Ġ $
Ġconfir ms
Ġbir th
in et
Ġaustralian s
Ġen vironment
h ar
Ġ1 4
Ġhe at
Ġneed s
victor ian
i als
Ġmem or
em ic
Ġhum an
it age
d uc
Ġp ip
Ġleaders hip
Ġh aw
ch inese
Ġpo int
Ġdel i
Ġun ited
Ġcond itions
Ġ u
Ġdis app
Ġsc ott
Ġtri p
ploy ment
or ic
Ġl oc
ex t
Ġtreat ment
Ġbl amed
Ġa ussie
Ġfir m
Ġdise ase
Ġ ident
Ġnr l
Ġd airy
ill s
Ġtest s
Ġse c
Ġdou bt
Ġhear ing
er ence
Ġb ull
g ar
Ġro le
und reds
Ġl ic
un te
Ġch urch
br isbane
Ġtar gets
Ġce o
Ġg ive
ourn al
er ing
Ġkill er
Ġsur gery
Ġsqu ad
Ġqu its
Ġtim es
Ġf ull
Ġac ross
p et
Ġolymp ic
p ass
l ds
Ġb ik
Ġoff ice
fl ood
Ġmus ic
Ġse es
Ġout back
Ġter m
gl ing
Ġlank a
st on
miss ing
Ġsouth ern
Ġth at
Ġact iv
Ġsurv iv
ep end
Ġgr oups
ic an
rit ory
d es
ar s
Ġcan c
Ġsw im
ipp ed
victor ia
Ġsold iers
Ġsh e
Ġstud ent
Ġs on
ro g
Ġdav id
Ġm ade
Ġrec ords
Ġw al
Ġres ults
Ġser ies
Ġdri ve
al ys
Ġtra vel
Ġph one
ain ed
Ġimpro ve
l ocal
w s
ain e
er v
Ġex ec
Ġr u
v ention
b urn
ock ey
Ġhigh er
Ġm et
un der
i or
Ġse pt
ra m
b el
c s
Ġl ake
ian t
Ġwith dra
os ion
Ġpro cess
Ġv acc
Ġw ine
se a
Ġcomp et
Ġs an
Ġmed ical
Ġb ad
Ġdom estic
ack ay
Ġclear ed
Ġb ri
Ġplay ers
s ol
Ġ2 5
gr ess
Ġhead s
Ġ 0
Ġm ost
Ġgra in
k i
Ġv ows
Ġ ic
Ġf o
Ġc red
Ġa mer
b est
l ad
ccer oos
r ison
Ġca ught
Ġmot or
b ass
Ġbro ken
Ġturn bull
az a
Ġse m
l ines
y an
Ġc ast
Ġm ps
Ġe ff
Ġresc ued
Ġj ack
Ġrev amp
stru ction
Ġr ich
Ġret ire
n am
Ġy et
Ġconf erence
Ġfin ancial
pl an
ipp s
Ġ if
m or
Ġcol le
Ġc ash
Ġmar ri
Ġmanage ment
Ġup s
Ġal ice
Ġcandid ate
Ġ est
Ġre form
Ġt v
Ġtack le
b ook
ag les
Ġind onesia
Ġne g
Ġsh ar
Ġf ri
Ġd ays
Ġk id
ri ors
miss ions
Ġis rael
Ġste p
Ġap olog
Ġash es
Ġc our
Ġf ur
Ġrel ief
Ġsusp ended
Ġstar s
how ard
Ġke en
ust rial
Ġsur f
Ġrecover y
Ġproper ty
Ġthe ft
Ġcap t
t op
st it
og n
h un
Ġbre aks
g ent
Ġ201 6
Ġv an
call s
Ġir an
Ġle t
p ol
v ent
Ġhear t
Ġd er
ber t
ipps land
Ġpled ges
Ġra d
Ġdo es
Ġtur ns
imber ley
Ġescap e
t ies
ee ps
Ġa x
Ġa ud
Ġa wa
Ġdog s
oun ds
Ġdra g
Ġtim or
imb ab
Ġafghan istan
Ġwith out
Ġsusp ect
Ġmon day
Ġ3 0
d av
v in
Ġd ig
Ġw itness
Ġseek ers
Ġmer ger
w ill
Ġcollap se
Ġa wards
ind ia
Ġconcer ned
d em
Ġres um
Ġt ree
Ġy our
Ġlink ed
Ġr udd
Ġle ar
Ġ1 3
Ġsh ut
Ġc ow
Ġd ie
Ġvictor ian
b and
Ġlif t
Ġ1 8
Ġafric a
n z
Ġp eter
Ġon line
Ġcor ruption
Ġbro ad
m igr
Ġl ower
Ġqu al
Ġar my
d le
Ġ ver
Ġbl ock
f act
Ġgre ens
er ve
ol a
Ġth is
Ġch ase
for ts
Ġcom ments
Ġfarm er
Ġrobber y
ir an
Ġor igin
Ġalle g
Ġal ert
Ġmo ther
Ġgl obal
Ġsn ow
Ġc it
Ġc oun
str ong
d og
Ġ1 6
Ġdeb t
u ff
Ġus ed
Ġinvest ment
Ġrec ogn
re am
st one
pre mier
Ġre du
h d
Ġsupp ly
Ġwar n
Ġp orn
ell y
Ġpre p
Ġa ims
Ġcr im
air ns
s l
Ġst ra
Ġout break
Ġdis aster
Ġsur vey
Ġsoc ial
est in
ist ers
Ġs im
Ġb ali
Ġl ost
ell ed
Ġren ew
Ġh am
Ġposs ible
Ġe p
Ġt ipped
for ce
Ġsh ark
Ġc oup
and er
Ġca use
Ġ2 4
Ġconf idence
l ie
Ġb ird
du ct
Ġc atch
Ġw ould
ur ance
Ġ5 0
Ġliber al
hns on
Ġs am
y r
Ġgr ound
gy pt
f are
Ġt uesday
Ġrem ov
Ġm ess
Ġbe ef
y n
Ġsusp ected
Ġg all
Ġgen eral
Ġsept ember
Ġtal k
t a
Ġtake over
a ussies
Ġs ell
Ġ ord
Ġcust ody
Ġlook ing
w ild
re m
Ġg ay
ld ogs
Ġlat est
imbab we
Ġsp ill
min ing
Ġwed nesday
Ġf a
Ġfig ures
Ġbo x
Ġra ises
Ġdisc over
Ġr ight
Ġpolitic s
Ġstri kes
Ġspr ings
Ġch air
Ġle ft
h ope
Ġd ue
Ġb att
Ġbash ing
s n
Ġfr ench
d on
y oung
ri e
em p
Ġcro p
x ic
Ġo ct
abb ott
Ġth ursday
if y
br itish
Ġher itage
Ġdiscuss es
Ġt un
pro test
ell o
Ġse iz
Ġqu ake
Ġexp ert
Ġagree ment
Ġbra wl
Ġcab inet
clos er
Ġe ase
Ġfl ight
ilipp ines
at ers
Ġjul y
Ġear th
Ġd a
Ġco ver
alys is
e as
Ġt ry
Ġin fl
Ġh or
ix ed
Ġmarri age
Ġexp orts
der ly
Ġre ef
Ġse ctor
qu ar
Ġunder way
Ġcond em
ouncill or
Ġwom ens
bo ys
Ġbill ion
comm unity
o ber
in c
an ium
Ġtra ding
stud y
v y
ur er
Ġe f
Ġoffic ers
Ġprep are
d ers
Ġle ak
Ġj ournal
ber g
Ġra p
Ġcouncil s
nab is
Ġef forts
oint ed
Ġjun e
Ġpar ents
ad a
ri o
Ġprodu ction
bl ed
Ġ ice
Ġ outs
Ġfore cast
Ġl og
Ġproble ms
Ġun i
we alth
Ġsecre t
g as
art ment
Ġbr itish
Ġcomp ens
ch rist
Ġb er
Ġpat ients
k n
w i
Ġsh eep
best os
ish op
Ġhal f
Ġc ard
Ġm cc
Ġl ands
Ġpen al
Ġthe y
Ġst ands
on cos
Ġw ool
ark e
Ġbr ings
un g
Ġsh ock
ar a
en g
en ing
Ġteach ers
de f
b ell
it i
as ing
Ġboo k
Ġlaw yer
Ġtech n
d river
Ġp ool
g n
stor m
Ġwor ries
Ġan zac
Ġdem ands
Ġfoot ball
Ġhar bour
Ġcelebr ates
Ġd ata
Ġall ow
lam ic
Ġj ames
b h
Ġa pr
Ġd oc
Ġask ed
ow ers
Ġse at
Ġsp ace
Ġfin ish
ind onesia
Ġpre dict
Ġsur ge
q antas
dr ought
ch ange
ans w
Ġwill iams
ut es
al le
Ġiraq i
Ġfor um
res earch
en gland
at o
Ġor gan
Ġg ang
Ġo vers
opp ing
Ġp ub
Ġsur pr
Ġsol ar
Ġbr ing
i ro
Ġs ome
Ġm os
Ġh orse
Ġ1 7
Ġsy ria
ve mber
Ġv ill
Ġproble m
Ġind ustrial
Ġl ondon
Ġbl ue
Ġca uses
ro ck
Ġind ian
Ġass ist
id ers
Ġfin ance
Ġrac ing
f a
Ġf amilies
ext ended
Ġres ign
Ġfr ance
ang lad
Ġapr il
o ke
Ġl ate
Ġban ned
in j
Ġoct ober
anglad esh
qu ake
Ġboost s
Ġh appy
u ction
Ġstar ts
Ġwel fare
iel ds
Ġt sun
Ġw ell
ic ious
c row
d i
z il
pr ess
Ġc op
ch er
Ġtest ing
Ġtour ist
Ġli ke
Ġno vember
Ġplay er
ul ar
Ġavo id
Ġmemor ial
Ġbe ats
og ra
Ġquar ter
Ġal p
Ġw rap
Ġcro c
Ġflood ing
Ġsp ending
Ġm od
Ġcr u
Ġsl ow
se c
wh y
ro vers
Ġh all
Ġt ight
il es
Ġfor ced
or es
Ġhom eless
Ġalleg ations
s uper
Ġd row
Ġs at
sh ire
Ġl ess
ent ial
Ġwh y
Ġw il
e lection
in vest
w is
oo per
Ġrec omm
Ġiss ue
dar win
Ġf ans
Ġpro b
Ġbl ow
hd ad
Ġb al
Ġk eeps
Ġo ppos
Ġg erman
Ġb ust
Ġmonth s
ob ama
Ġ201 3
Ġcap tain
ed ing
oc r
tr ump
i ze
ak en
Ġm igr
Ġter ritory
Ġg aza
Ġtsun ami
Ġ answ
Ġg ar
a uthor
Ġf air
av ing
Ġreb els
Ġdar ling
Ġhol ds
Ġprepar es
ogra ph
y ers
Ġf ast
Ġstr ate
our ces
Ġqu iz
te ach
bo y
Ġisland s
um ber
att ie
Ġweek end
p air
Ġteach er
sc ott
Ġc reat
Ġre act
Ġsm all
Ġrep orter
back s
med ia
Ġs ri
o f
p ay
ud e
Ġloss es
Ġinc ident
f ive
h aw
v an
al p
Ġw ife
Ġc iv
c ro
Ġwork ing
s es
Ġl ar
Ġe qu
Ġdelay ed
ult ural
ef ul
Ġcritic ism
g in
t igers
Ġind epend
ra stru
Ġsc are
Ġme at
p ush
Ġf ather
ar ed
pl ay
Ġann ounce
Ġm u
l ife
Ġm at
Ġpl ays
Ġres igns
Ġbush fires
Ġcommission er
Ġwa it
Ġcritic ises
k o
Ġext ra
Ġeuro pe
rastru cture
d ic
cer tain
bl ack
Ġsumm it
ri er
Ġmil k
Ġliber als
Ġpri ze
or ation
is ation
ost ers
opp er
b omb
Ġcoal ition
tasman ia
Ġ ign
Ġc as
Ġcompens ation
Ġsc andal
Ġpropos ed
Ġclos er
Ġt or
Ġd an
em ale
fire fighters
jo hn
c ount
if ied
Ġm aking
Ġsp re
Ġple a
Ġruss ia
Ġk ong
Ġser ious
Ġfight ing
ar at
Ġm ain
ew itt
Ġj ones
re me
Ġst ates
Ġfar ewell
Ġey e
Ġfr uit
b d
Ġf ine
ov ic
Ġmem bers
Ġur ge
bar a
Ġf if
end ers
Ġlo oms
t ur
h an
Ġst at
Ġun f
Ġkn ow
Ġcall ed
ert ain
tr uck
c ow
am ing
Ġcomm unities
k a
Ġb un
Ġar ound
Ġtra ffic
us ing
Ġrul ing
ly ing
Ġan alysis
com p
Ġdet ails
Ġpropos al
h ib
Ġcan nabis
Ġrem ote
b udget
ri ed
new castle
e v
Ġar m
c al
l im
Ġun it
Ġbomb ing
h ospital
Ġp ain
dr ug
ok ing
Ġbe en
Ġwh eat
use um
mur ray
eder er
ou ra
Ġd onald
ad ing
itt le
reg ional
hun ter
c est
Ġar med
th ew
ins on
ivers ary
Ġvol unte
Ġbri ef
m ot
Ġexp ect
Ġdire ctor
Ġfact ory
Ġv eter
alle ged
new s
Ġmed ic
ren ch
Ġris ing
Ġhour s
h undreds
Ġy ork
Ġconcer n
f ast
l ook
Ġbl ood
council s
cycl one
m ag
Ġir rig
Ġmor rison
Ġpet rol
Ġspec ial
Ġl ack
Ġfur ther
Ġquestion ed
c ost
bl es
d ed
Ġst ock
Ġfl ights
ov a
at ure
ut in
Ġrem ember
Ġoffic ial
Ġp aul
Ġz one
sc ientists
Ġbe come
d ou
Ġp erson
Ġb ase
Ġapolog ises
Ġolymp ics
Ġf iji
Ġjust ice
re c
Ġmon itor
Ġwall abies
f iji
Ġbusiness es
ol f
Ġst ory
Ġsm ug
Ġann iversary
Ġsold ier
Ġa th
ast ers
Ġopen ing
Ġrefuge e
m other
Ġm ob
Ġc re
Ġwe ap
Ġappro ach
bl ues
li kely
Ġrun ning
Ġsug ar
Ġsp l
Ġgen er
bush fire
Ġown er
Ġcar s
Ġrec all
Ġc bd
ov ers
Ġn om
Ġpip eline
Ġn or
Ġe ver
Ġim port
g row
con t
f un
Ġb rown
Ġdom in
ont ing
g g
ning s
an ch
ction s
Ġref er
y le
Ġto dd
Ġj udge
man s
Ġcomp o
g illard
Ġur anium
Ġv irus
Ġle ast
art in
eral d
Ġpos itive
b n
t t
Ġun iversity
av our
Ġh ad
se cond
Ġappro val
ospit als
Ġl ives
Ġclos ed
p ack
Ġth ousands
Ġstabb ed
de velop
Ġpass en
m ine
ic op
Ġmiss ion
Ġt aking
Ġwa iting
Ġstor ms
Ġgrant ed
p at
Ġch ance
Ġun likely
ant i
amp ton
migr ation
Ġind onesian
Ġen c
Ġdoc um
s k
Ġwin ning
for ms
Ġhonour s
Ġg ri
Ġst ocks
b ody
Ġdro ps
Ġtre as
r ich
Ġa im
Ġh ay
Ġex change
Ġban ks
Ġdead ly
ex per
Ġlevel s
Ġdismiss es
av i
we en
p il
Ġlob by
Ġvacc ine
ak ers
Ġag ric
Ġey es
Ġkid n
m ost
cl ub
ul a
Ġra ise
m ac
p ri
p ool
Ġpl ace
Ġhist oric
u a
Ġde ce
quar ie
ens ive
1 0
Ġexpl osion
Ġru le
Ġarrest s
Ġbag hdad
ee ch
de ad
Ġcred it
Ġsc r
Ġpack age
c amp
Ġk en
Ġmin ers
pr ison
Ġjo y
s usp
ind onesian
Ġb i
Ġw ood
Ġinf rastructure
Ġlic ence
j ob
concer ns
dav id
Ġs ie
ick ing
Ġsm ash
Ġblast s
Ġwin ds
er g
is l
Ġre th
sh ine
abor iginal
w al
igh ter
Ġra ids
con s
Ġr out
h aul
Ġste ps
let es
am er
Ġir on
Ġk angar
Ġd ist
mur der
Ġcommitt ee
w ind
Ġj ump
Ġher o
Ġbet ween
f e
Ġfre ed
Ġand rew
Ġtr ou
Ġoffic ials
Ġarri ves
ol ic
m il
m ill
Ġd id
Ġpled ge
Ġa w
Ġsh op
Ġen g
Ġord ers
Ġm um
m ers
m ond
t ers
Ġp urs
om ers
Ġmar ine
Ġm ach
Ġk imberley
Ġdeb ut
Ġanim al
o ice
Ġbl og
f s
b ill
Ġf ield
Ġfoll owing
Ġflag s
Ġexec ut
Ġoff ences
Ġb ol
Ġretire ment
Ġcr ush
Ġpriv ate
Ġle vy
Ġwr ong
Ġl ib
ck s
Ġinter net
Ġpop ulation
Ġbik ie
und ay
f rench
j ack
l ock
Ġjo hnson
l ers
Ġb and
Ġn ine
miss ion
Ġtrib ute
Ġsp orts
Ġal ive
for est
b at
u ce
ou red
Ġn ative
se x
Ġfe el
Ġd ry
Ġover haul
Ġman ager
it ter
Ġbenef its
Ġbl ame
Ġob ama
Ġunve ils
ro ll
Ġouts ide
n ett
s ix
w ool
Ġhelp ing
Ġsumm ary
ar i
Ġw et
Ġaff ect
Ġdest roy
ro ad
Ġt on
Ġg ather
Ġas ia
z ens
Ġc s
Ġf ights
Ġre place
Ġruss ian
Ġn ations
Ġappe als
f in
Ġc rews
is er
el sea
ol ution
ban k
t ed
ou d
ong a
Ġcap s
Ġsn ub
Ġannounc ed
form ation
ad or
cl a
Ġ ore
Ġe agles
Ġbo ys
Ġbas in
Ġl ions
Ġgrow ing
Ġpro duc
f und
n y
Ġj an
Ġpo or
Ġrele ases
h ab
ban y
Ġref used
Ġt elstra
re l
Ġcro ps
Ġdet er
ays ia
Ġprom ise
Ġs ail
Ġb endigo
th ai
Ġth om
p eter
sh are
Ġbomb ers
Ġtowns ville
e uro
it ain
Ġg ippsland
Ġsp eech
Ġret ail
Ġge orge
Ġext ended
Ġc old
Ġg ains
ap s
Ġcritic ised
Ġb ound
st ery
Ġlaunch ed
Ġhow ard
Ġa ge
Ġcon struction
ah s
re es
Ġseek er
Ġed ge
estin ian
Ġch em
Ġass oc
col m
Ġm ad
Ġm useum
ist ic
Ġto m
Ġr ing
Ġfr esh
Ġalleged ly
Ġciv il
f ather
an ies
aed oph
Ġt y
at to
Ġon ly
em ployment
if ies
Ġar ch
Ġwh ale
Ġcomp le
Ġco ff
Ġen ough
Ġd ate
Ġ2 1
Ġinv ol
Ġdece mber
Ġreach es
ip l
Ġins urance
Ġgirl s
oh ler
Ġa uction
Ġn umber
ipp er
Ġappro ves
Ġvot es
st ar
umb ies
Ġkore an
g irl
o il
west ern
coal ition
en a
Ġm t
Ġsh arks
Ġra m
od ies
Ġte ens
Ġtour ists
Ġsie ge
l ong
Ġam bul
r id
t ax
al a
Ġst ore
h ampton
Ġme ets
Ġcons ult
ie ves
Ġdef eat
author ities
Ġa ut
Ġcor p
s ri
Ġmill ions
icop ter
c ing
Ġs ame
Ġb ike
et nam
br uary
Ġam ong
Ġattempt ed
Ġcit iz
Ġcoup le
n or
t elstra
ap e
russ ia
as ion
Ġfarm ing
Ġple ad
ac es
Ġun certain
Ġex hib
Ġcont rovers
Ġfish er
Ġpass es
dic ts
r ens
u ke
Ġg m
Ġsusp icious
Ġev ent
Ġwee ks
l or
Ġf le
Ġh ack
Ġupd ate
Ġtechn ology
Ġqu it
Ġatt end
Ġfun eral
Ġquar ant
Ġdeli ver
c over
Ġcomm on
Ġescap es
Ġvis its
el ong
b ow
o ve
s pe
Ġj et
Ġstrate gy
on a
Ġst un
Ġex c
Ġfe bruary
Ġhol iday
Ġe missions
Ġref uses
am o
Ġdes c
Ġsum mer
Ġnet work
Ġfri end
Ġun h
Ġpil ot
anc y
Ġc y
Ġpat ient
at ic
Ġpo ints
turn bull
Ġn ick
ur ies
Ġwin ner
Ġsc am
Ġass ess
Ġfoot age
n ationals
Ġh ands
Ġas bestos
a j
Ġb ott
Ġbreak fast
la ughter
mot or
Ġar son
Ġext rad
Ġreg ion
d airy
ud i
ath an
Ġus ing
Ġrec r
Ġsl am
Ġbig gest
do ctors
Ġadv ice
r angers
Ġ anger
ur se
ut ch
ew ay
Ġk ar
Ġpro gress
Ġreop en
Ġp owers
pp ing
Ġ our
Ġd ream
ail and
l ive
Ġn ames
me et
Ġm el
ind ian
Ġelect ric
Ġrefuge es
Ġs and
ce an
Ġcolle ge
Ġacc uses
Ġwor ried
Ġang ry
Ġh ospitals
Ġcrow d
rec ord
Ġelection s
g i
austral ias
Ġoffer ed
ou ch
ing er
th ing
Ġ2 2
Ġd owns
Ġm ackay
Ġcome back
def ence
Ġri ot
c ial
h um
an ged
ian ce
Ġreth ink
m ichael
Ġcom es
Ġchar ity
cor oner
acc used
Ġpra ises
Ġn ation
Ġsh ake
Ġqu e
Ġis a
Ġcap ital
Ġleg isl
ver pool
Ġwh en
n el
Ġex am
ath olic
ib ility
Ġth row
Ġwar riors
ition al
bl ing
Ġambul ance
y mp
Ġl ang
Ġwin ter
Ġhop eful
u at
Ġg ard
Ġch am
Ġf emale
Ġdro pped
Ġrad io
r ess
Ġn ationals
Ġtra il
cap ital
id ed
ad ers
Ġpr ime
els on
Ġem ploy
Ġpal mer
Ġas ian
cor p
Ġkn ife
le g
ear ing
Ġab and
Ġspe ak
Ġcelebr ate
wall abies
or ed
gr ound
australian s
as a
Ġme as
ger man
Ġcare er
h ist
Ġs or
on ed
ar ct
invest ig
Ġm and
Ġse ven
Ġb ell
Ġbur ns
b ir
Ġsm oking
Ġproject s
f oot
h ous
Ġp air
count ry
Ġr ide
Ġdel ivers
Ġv ir
Ġcont ain
enn is
ro b
Ġpo le
Ġf ed
Ġsh opping
op ing
amb od
hold ers
Ġp ick
st ers
est ock
de ath
Ġattack ed
Ġfe es
Ġbirth day
Ġb om
Ġlim it
liber als
n p
Ġres ources
Ġspr ing
ol i
Ġwor st
Ġgu ard
Ġtax i
Ġchallen ges
go or
Ġcour se
n urs
Ġr ub
ill ing
Ġlo ve
Ġp ig
Ġg p
Ġq antas
o or
est er
pr es
ather ine
k ar
Ġpre m
Ġgo ing
Ġoper ation
cent ral
Ġauthor ities
Ġwor ks
ell a
Ġdanger ous
it er
Ġg ro
Ġblack s
Ġstrug gling
Ġc ooper
Ġwh ile
Ġfire fighters
Ġliv ing
Ġfor ward
od e
Ġg am
Ġ4 0
Ġsub ur
Ġcompet ition
Ġmess age
Ġd ub
st ri
sh ips
Ġra ised
ov ts
Ġauthor ity
Ġf avour
Ġj ud
Ġhe avy
Ġorder ed
Ġsc ra
Ġdec ide
i et
Ġm om
par ents
Ġavo ids
t al
Ġm asters
Ġg overn
Ġis lamic
Ġatt ract
itch ell
r im
Ġcandid ates
Ġweap ons
5 0
Ġp ays
il ities
be attie
Ġr ush
Ġ2 3
d an
p acific
w an
z z
Ġfer ry
ab erg
Ġwor lds
end a
ps on
00 00
gr oup
Ġunve il
Ġnurs es
Ġe ight
Ġtas k
Ġbul ldogs
Ġstrug gle
al ice
Ġb at
Ġ2 6
und aberg
min istr
Ġsurviv ors
Ġde pt
Ġbar rier
Ġeast er
s al
al goor
Ġa ussies
Ġh ang
Ġbenef it
Ġpar is
Ġbur ning
Ġreveal ed
Ġmin isters
Ġlif ts
north ern
n ative
Ġc ull
ul f
Ġmac quarie
Ġc ant
and a
atto ir
Ġb on
Ġin formation
id el
Ġinv asion
g us
v ol
Ġc airns
Ġcomp anies
eng th
ild ura
Ġph ilippines
Ġfour th
algoor lie
c ats
h el
u x
ro yal
Ġcont am
Ġcont est
Ġdra ft
Ġviol ent
Ġsem i
f re
Ġs up
Ġf lee
Ġre forms
Ġsc ientists
Ġri o
Ġredu ce
b aby
Ġs elf
Ġl ittle
Ġsec ure
Ġenvironment al
ap ore
Ġtr ig
Ġcons erv
Ġopt ions
Ġc at
Ġp ract
Ġmc g
Ġups et
1 9
c ott
Ġdis ability
Ġpre dicts
m id
Ġt aken
Ġch opper
Ġfin es
b endigo
ock ers
Ġele ctor
bro ken
Ġchair man
uat u
Ġs ince
un cest
Ġby pass
Ġfac ility
Ġdest ro
Ġpenal ty
l ow
in as
ton y
Ġpro v
Ġbl ames
af ghan
Ġste ph
fund ing
us ion
Ġsub s
in qu
Ġd ont
Ġout look
Ġad op
Ġrec ycl
Ġent ertain
em er
h en
ort ion
Ġresp ons
tour ism
b ed
Ġh us
ag ers
Ġsc ience
f ar
m us
Ġbl itz
Ġbu il
Ġref lect
e ast
r ough
Ġso on
Ġh app
ul p
Ġexper ts
Ġfall ing
Ġcru ise
ac ts
Ġden ied
Ġsurv ives
Ġver dict
Ġp unch
Ġw im
ra il
ra ine
ag ing
Ġ2 7
omb a
Ġafric an
Ġwitness es
ur u
id y
Ġmed al
Ġpromp t
t im
ect ion
Ġcan e
Ġmans laughter
pol itic
vi ve
l ib
at ory
Ġw ide
ad al
air s
Ġdef end
Ġint ro
Ġcondem ns
Ġhon oured
p ies
er em
be at
Ġpot ential
um er
so cceroos
avi our
uncest on
Ġt ony
Ġm ult
as ylum
un i
os ur
he at
Ġda ughter
Ġkidn app
b i
c attle
un ited
Ġproduc ers
ur st
Ġap ology
Ġt in
Ġg ap
u ds
Ġr are
ill er
Ġer up
al es
Ġget ting
Ġdrink ing
sec ut
if fer
ret t
aedoph ile
Ġquarant ine
f ri
ch urch
Ġch ris
out back
ag ga
Ġsuff er
Ġun t
o e
Ġal an
Ġsl ump
stud ents
os h
ij ing
h ome
Ġd oping
Ġm ist
Ġh ub
Ġconsider ed
f atal
ap er
russ ian
e el
cl imate
Ġvi ew
Ġpark s
Ġpull s
Ġprob es
Ġsk ills
Ġcross ing
Ġnurs ing
Ġo cean
Ġre ven
ath on
Ġpre vent
Ġz imbabwe
Ġvis a
u fact
in quest
ash ing
Ġapp ear
Ġdraw s
Ġevacu ated
Ġjan uary
Ġm att
Ġcom ment
ath am
ump h
Ġdep artment
Ġh aul
oun ts
Ġas ks
israel i
ocr ats
Ġmob ile
od d
ats on
ver t
Ġse en
Ġprof its
att a
Ġs end
an other
ur ra
Ġst ance
Ġ20 20
Ġconfir med
Ġexhib ition
Ġpl ot
Ġco de
Ġresum e
n ot
in ed
Ġo s
Ġre ds
ound ed
Ġdead line
res c
wom en
Ġbeh aviour
protest ers
Ġ2 8
Ġkn ights
Ġspot light
h ewitt
n ight
t owns
om ons
cycl ist
liber al
r ent
Ġe gypt
oo p
ish ed
Ġare a
Ġpost s
erald ton
ipl om
Ġs ight
Ġs ends
Ġc ulture
Ġto wards
Ġj e
Ġmark s
Ġsav ing
Ġconvict ion
f ields
Ġse ver
Ġm ixed
Ġh amp
Ġsc ore
Ġret ires
Ġjapan ese
su pp
Ġsw an
th ur
l ist
Ġa ds
ent y
Ġenc oura
Ġbr oncos
Ġac qu
Ġrece ive
sn ow
Ġscr utin
l an
y outh
ar ies
Ġb angladesh
Ġe c
Ġra mp
Ġred uc
Ġq aed
Ġfly ing
Ġarri ve
oul burn
Ġse ize
ens ions
rup t
ser v
w alk
en ed
Ġin cl
du ction
Ġcitiz ens
b ts
r ick
Ġde ep
Ġopen er
Ġpil bara
Ġchem ical
Ġpr im
aw arra
ash ed
Ġreport ed
Ġsupp orts
Ġsh el
iraq i
Ġfe ed
Ġz oo
g ue
Ġg iant
am worth
Ġres ult
Ġest ate
hous ing
Ġm artin
ac cc
ch e
Ġext ends
Ġdep uty
r us
Ġso cceroos
Ġbull s
y ard
ot i
ab led
em ma
Ġco ol
Ġlock down
Ġovers eas
Ġh en
f ra
Ġdem ol
Ġgun s
Ġpresident ial
emer gency
Ġ eth
Ġh a
Ġbra zil
j udge
t ime
Ġ ide
Ġpre view
Ġreg ul
uck y
sm ith
Ġsack ed
h obart
u ation
Ġre hab
ct v
Ġal ter
Ġmin er
Ġrul ed
Ġmid dle
Ġqaed a
1 1
Ġsp ir
Ġstr anded
Ġthreaten ed
Ġ iv
Ġn at
ors es
Ġp and
Ġfail ed
i am
m et
re ck
Ġm ort
Ġentertain ment
Ġseiz ed
inqu iry
h om
o ons
Ġk ick
Ġp aid
Ġd u
Ġl od
Ġgl ory
w ed
Ġt em
Ġb a
ay lor
Ġcl ar
ud an
tr ans
ad ium
Ġag enda
Ġad ministr
Ġunh appy
Ġt ank
re ll
Ġl inks
bo ard
Ġbro ther
Ġlos ing
Ġcond ition
i ally
ro os
Ġstor ies
d om
p an
enn ett
p ts
Ġm our
Ġrece ives
z a
er o
Ġg illard
ee f
our ce
ans on
l ake
Ġf ake
ed est
Ġinj uries
Ġdam ages
Ġjoy ce
Ġlegisl ation
l ies
Ġs ide
ad es
Ġtim ber
Ġsk y
Ġearth quake
id ing
Ġv en
se curity
bu ild
h ot
ow o
man ce
ee k
Ġhel icopter
Ġpat rol
Ġassoc iation
Ġde port
Ġpo ison
sp ca
Ġext ension
japan ese
n est
Ġc ook
or al
Ġprison er
Ġsen ator
Ġm ck
ic it
un k
th rough
Ġpl us
Ġfind ings
Ġagric ulture
oll ong
Ġcent ury
or id
Ġsc re
ick en
Ġc rew
Ġg olf
Ġgr ants
Ġaff ected
Ġdev ast
h ic
w ave
it ation
sh ar
av an
Ġtra ff
Ġsusp ects
Ġpo k
w atch
in ers
ad ian
Ġsh ield
if orn
Ġy ach
Ġchamp ions
ollong ong
o x
bl aze
Ġclub s
h a
Ġs ink
Ġc ouncillor
ing e
Ġtr ust
Ġinvestig ates
Ġvot ers
Ġmy stery
l ink
re al
un al
Ġle e
Ġfre ight
Ġs ells
Ġh ike
Ġun s
Ġ201 8
Ġdes ign
Ġland ing
Ġmor ning
Ġdav is
Ġaward ed
bb it
Ġawa its
Ġtry ing
owo omba
Ġt ort
man tle
Ġair s
we ather
Ġopp ort
ar o
Ġk y
Ġhand ed
Ġc ats
Ġw ere
Ġassist ance
am ation
Ġch a
man n
gra in
Ġconfir m
z y
ut ton
ipp ing
Ġare as
teach ers
ew er
Ġpro vid
Ġansw ers
er a
Ġm ary
end um
b en
m ount
s ing
ai wan
fun ds
d a
w ays
Ġb ishop
Ġto ps
Ġth ai
Ġtri als
Ġpoll s
Ġpap er
Ġvolunte ers
d et
t om
Ġag rees
ban on
Ġjournal ist
Ġcon ne
Ġcent res
Ġim migration
j ok
t re
x it
Ġl ad
ouncill ors
Ġindepend ent
p ark
p aul
as y
Ġar ts
Ġfire d
Ġdam aged
an i
Ġst all
Ġoff ender
Ġset tle
inj ured
t own
Ġa ired
Ġth er
Ġem bass
Ġtre es
aly st
Ġsun shine
or ing
le ep
te ens
Ġupd ates
Ġdestro ys
h op
t ro
Ġb odies
Ġd ark
Ġn urse
Ġsw ans
Ġac cept
Ġtough er
p art
ber ts
Ġab attoir
Ġthreat s
gl ish
Ġforest ry
our s
Ġbul lying
j oy
p ac
all a
Ġtra d
Ġcomm it
Ġexpl oration
th ony
Ġface book
Ġfra ser
Ġcs g
b ie
o cc
Ġh ail
im ul
Ġtodd ler
un ions
Ġmar sh
Ġax e
Ġbrief ing
Ġcommon wealth
Ġmiss ile
Ġter min
Ġpri est
Ġcrim es
j ames
Ġh ockey
ill a
Ġwor th
Ġ201 7
av en
Ġpart ies
Ġcl arke
Ġfr ustr
Ġamer ica
d ri
Ġt we
el derly
Ġr ank
Ġinter vention
Ġcrow n
Ġconvict ed
Ġdestroy ed
bh p
c at
s pr
Ġl in
Ġk o
Ġapp oint
Ġconf l
Ġgra z
Ġste ve
ok es
Ġpri or
Ġd iplom
Ġsh ed
Ġgold en
a ud
Ġla id
Ġspl it
Ġbom ber
Ġconfl ict
b ali
Ġd aw
Ġpl un
Ġfl at
Ġli qu
Ġadv oc
v ens
ind a
do ctor
w il
Ġe mp
ect ive
Ġpredict ed
Ġv ision
ens e
em or
ire land
Ġro om
Ġtra pped
Ġwar r
Ġcrow s
Ġresum es
amil ton
ific ation
Ġmem ber
Ġunt il
f if
ill ed
Ġinvest ors
Ġinvestig ated
bs ite
Ġsuff ers
Ġst adium
ust ain
Ġhaw ks
Ġdan iel
Ġw id
Ġto day
Ġl y
Ġe ases
ast ic
Ġres erve
Ġsa id
Ġiss ued
Ġgall ery
o ffic
o ints
v is
ad stone
Ġbe comes
Ġfl ow
Ġclin ic
Ġsan ctions
Ġcre ate
at ives
Ġw age
Ġe u
ick ets
Ġbre ast
Ġart ist
Ġsec ures
Ġmu ch
c us
Ġf at
Ġe gg
Ġj ets
Ġcor oner
Ġsw e
Ġbreak ing
teen ager
gus on
min er
Ġpark ing
Ġsy n
ost er
wh ite
Ġexpl ain
Ġcompl aints
t rad
Ġre quest
Ġapp ointed
Ġprison ers
Ġwant ed
f air
m ackay
er c
ous h
Ġwork place
Ġapp ears
j ail
Ġs ick
Ġm ang
Ġh y
Ġel derly
Ġneg oti
Ġisrael i
Ġlet ter
Ġresign ation
Ġreact ion
Ġl ights
Ġre pl
Ġk er
Ġexp os
ph y
Ġlab our
Ġdecl ared
Ġsug gest
ch i
per ance
pack er
supp ort
g en
h or
k in
Ġsc ores
Ġd ied
Ġaf ford
pr ince
cre ws
Ġsusp ension
Ġs ue
Ġc art
Ġm aint
Ġin st
Ġo ther
in ated
Ġw ake
Ġsp y
Ġreg ions
bo at
Ġrun s
Ġevacu ation
e conom
f ood
g ood
p ope
Ġper for
Ġcoll ision
Ġsh r
arm ed
Ġpart ner
Ġbro ome
cr icket
Ġcanc elled
grow ers
t rain
an as
Ġhal t
arct ic
Ġh ails
Ġwh aling
r are
in n
bl igh
Ġlaw yers
Ġgra ss
gl obal
ient ist
bull s
c ouncillor
ent er
Ġal most
Ġrock s
Ġve hic
Ġliv estock
research ers
Ġf u
Ġp ga
Ġcon duct
let t
Ġspec ies
Ġlog ging
d el
f ace
Ġn avy
Ġfail ure
Ġt iger
Ġk im
Ġclear ing
Ġdon ations
Ġfo x
Ġembass y
e gypt
w oods
Ġn y
Ġcr uel
Ġchild rens
Ġder by
jok ovic
or i
Ġad j
Ġph ill
Ġphot os
Ġloc als
f ederer
p le
Ġp ulp
Ġm ater
Ġn ar
Ġro osters
Ġra ge
cl arke
Ġwom ans
Ġam bass
p orts
Ġs ites
Ġp ict
Ġn bn
ch ed
Ġne ver
Ġden y
Ġtarget ed
Ġmilit ants
itt ing
Ġsurpr ise
Ġsor ry
towns ville
1 7
u ally
Ġt able
on ing
Ġf it
ear th
sh ark
end ra
Ġw aters
ad o
Ġcow boys
Ġpand emic
k angar
igh bour
Ġassault ed
down er
Ġlong er
sen ate
Ġpan el
u art
an ks
com ed
ex pl
Ġshort en
j ul
v a
Ġth ink
ch es
Ġso ccer
j ury
Ġs ession
ot ton
Ġapp lic
Ġent er
Ġt ies
on ts
en vironment
Ġp un
Ġwarning s
Ġreb u
Ġboy cott
Ġinsp ect
bled on
Ġpurs uit
iforn ia
Ġ ip
Ġres ort
Ġfarm s
inc ip
Ġrecr uit
b ishop
om a
Ġmat thew
Ġt en
Ġd ust
Ġj u
Ġqu ick
Ġdisc rim
Ġ5 00
Ġspre ad
cost ello
Ġexecut ive
k et
Ġgre ater
Ġrel ation
art ers
se ven
Ġhop ing
Ġincre ases
Ġp sy
Ġw oods
Ġn od
Ġk ings
Ġsu es
Ġdoes nt
Ġcar n
Ġwe igh
Ġstr ess
Ġtrip le
Ġdocum ents
is ers
Ġl ed
war riors
Ġrest aur
Ġveter ans
imul us
p oll
ol ymp
end on
Ġ2 9
Ġreop ens
Ġprem iers
Ġscrutin y
e lect
h ay
h ill
ang es
Ġdet ained
Ġseek ing
p es
Ġb ath
Ġh ong
yd ro
Ġfr onts
Ġfoll ow
Ġl amb
Ġmiss es
Ġris ks
Ġtow er
fr ance
k y
el le
Ġsw ine
w y
Ġo d
ac ed
Ġstr ength
itt ed
wh o
Ġraid ers
Ġdisapp ointed
st an
Ġr ange
com mon
Ġ201 2
Ġprodu ct
Ġmass ive
sur vey
Ġcoun ter
Ġgovern or
i ety
z imbabwe
Ġst ations
um m
Ġacc ount
Ġsem is
h unt
i ban
Ġk i
ays ian
Ġab duction
com ing
Ġchild care
Ġrem em
ric ane
Ġopt im
Ġaud it
Ġvill age
m ass
Ġsp end
Ġout lines
Ġext end
Ġbra in
Ġh arm
Ġst oush
Ġpr ince
Ġsy rian
Ġchampion ship
Ġtun nel
f ur
h ood
Ġun employment
ant an
Ġsuper market
v oy
ro om
ir rig
Ġf ee
el t
Ġun ions
Ġfl o
Ġph il
Ġassa ults
in os
Ġl akes
Ġmar athon
az ley
Ġsup reme
7 0
f ree
o en
r an
ar ant
Ġal ex
Ġad am
Ġpolice man
Ġvi etnam
Ġball arat
Ġu pper
Ġcontam ination
u ter
ic ro
Ġg st
Ġpop ular
Ġcamer a
develop ment
om on
Ġsur vive
Ġtur key
Ġclash es
Ġdump ed
Ġtreas urer
l ast
Ġc ell
Ġit aly
Ġhill s
Ġwatch dog
Ġnight club
Ġcha os
s af
w ick
Ġt ennis
Ġf c
Ġcom bat
Ġman ufact
Ġsm oke
Ġstre ets
an ish
ut t
ree ce
south ern
Ġp ath
Ġm ax
Ġn aur
Ġtra ins
sw an
Ġhospital ised
Ġsol ution
in der
Ġs add
at ahs
ment al
pl us
Ġprom ot
Ġeng ine
Ġappro ved
Ġlear n
w ine
Ġc ir
Ġk elly
Ġpro sp
Ġwh eel
s im
Ġhun ting
Ġswim ming
Ġlang u
h orse
Ġwor ry
Ġdecl ares
Ġirrig ation
d y
Ġthe at
Ġteen ager
Ġhost age
sen al
h ong
Ġin n
Ġst ops
Ġse par
Ġcon stit
Ġpay ments
mar ine
Ġp est
Ġw ave
Ġhighl ight
Ġsentenc ing
Ġrout e
b ag
Ġw rit
Ġsw itch
mark ets
rib es
Ġremov al
nurs es
e u
z ed
Ġd iffer
Ġto xic
Ġro ar
Ġjail s
Ġfe ature
y ne
Ġres ident
Ġplay ing
Ġbra ces
Ġpoll ution
Ġic ac
Ġqual ity
Ġgerman y
exper ts
f ort
Ġre in
Ġcl imb
Ġbreak through
e es
k eep
Ġre pe
Ġv andal
Ġbe ijing
ph oon
Ġkn ock
k ins
and als
ind ers
Ġhead ing
Ġexpl ains
sm all
uff le
p ical
Ġs inks
Ġcom ing
Ġc ops
Ġb ed
Ġal bany
od ile
Ġwh ere
Ġactiv ists
Ġsurviv or
Ġremov ed
Ġrecycl ing
Ġambass ador
Ġnaur u
g reat
or g
ell ers
Ġpre gn
Ġsil ver
Ġeff ort
b ench
Ġm ull
Ġag ency
Ġwe bsite
Ġinterview s
child ren
gent ina
p onting
ig ence
Ġterror ist
Ġ id
en ess
om ing
em en
Ġis ol
Ġchang ing
Ġanim als
l ions
Ġg ovts
Ġwal es
Ġkangar oo
fri end
edest rian
Ġperfor mance
1 2
ak ed
work ers
Ġrock hampton
antan amo
Ġh im
Ġsp ike
Ġhost s
su icide
Ġdrag ons
Ġannounce ment
Ġm ix
Ġh uge
Ġst an
Ġwar y
Ġexp and
Ġclos ures
Ġdo or
Ġfe ver
Ġstre aming
Ġmeas ures
h ockey
Ġm itchell
Ġl am
ur day
Ġun rest
ash ion
Ġgo al
anger ed
Ġcrow ds
Ġc erem
Ġe els
br idge
Ġgu ide
Ġper cent
Ġreject ed
Ġfind ing
Ġpal estinian
Ġrespon ds
istr ate
Ġtrou ble
Ġque en
Ġgu arant
Ġfear ed
b ik
b rown
er ves
Ġt ouch
Ġs om
fer ence
Ġclin ton
Ġphot ograph
Ġwithdra ws
al ity
Ġch elsea
Ġle ase
if ts
Ġme xic
kn ights
Ġcas ino
Ġ ell
ce pts
Ġwith in
af p
Ġwed ding
crow s
spr ing
ess or
Ġb ond
ion e
Ġsp ain
Ġdis play
Ġte ams
app le
Ġremember ed
Ġreflect s
an im
Ġh ims
br oncos
Ġresearch ers
ret ail
Ġhims elf
c oll
d am
l oc
r ight
ck ing
Ġfr ank
Ġredu ction
Ġmain tain
s am
t odd
Ġl uc
et ic
Ġan y
de al
Ġste aling
inter national
cra ft
Ġunveil ed
t les
Ġm as
Ġpolitic ians
do zens
Ġstand ards
common wealth
iv ing
Ġtri umph
Ġtal iban
Ġrep ublic
fore ign
oen ix
Ġ ess
Ġm eth
l ton
Ġb h
Ġb ounce
Ġk ohler
Ġprepar ed
euro pe
3 0
h i
w aters
an mar
Ġa us
Ġw wi
Ġback l
Ġtrans fer
Ġconserv ation
b ish
Ġt ell
ra sh
Ġsn ap
farm er
Ġ6 0
Ġge elong
Ġvol can
Ġcontract s
Ġmedic are
Ġsmug gl
m ixed
Ġt um
ad am
Ġand rews
Ġbeach es
char ges
h us
o ices
v als
Ġd ivers
Ġto get
and rew
Ġca using
Ġcamer as
Ġcrim inal
Ġmod el
idel ines
g all
Ġm ish
Ġcl ues
Ġpar ts
Ġriver land
fight ing
Ġp itch
Ġh az
um s
Ġcra ig
Ġmar s
Ġbra d
Ġlo an
Ġtoget her
Ġp u
do ch
Ġsing le
haw ks
v ision
Ġb atter
Ġh icks
Ġst imulus
ri f
de c
Ġsur plus
pro f
Ġpassen ger
Ġcoff s
Ġs ong
Ġres ol
Ġ7 0
bul ldogs
Ġcheck s
Ġcruel ty
Ġcl iff
Ġwel comed
Ġac ad
Ġsen ior
Ġdiscover y
Ġpassen gers
tre as
Ġb ob
ed y
art on
Ġbill s
Ġbig ger
Ġeurope an
en z
ac re
Ġmurder er
Ġli verpool
Ġdes ert
Ġpart ners
Ġce ase
k ish
o a
an z
Ġg amb
oh s
Ġlear ning
hop es
Ġt a
Ġb in
Ġg ain
Ġn ab
ul s
oo gle
Ġper m
g les
Ġt aylor
Ġmal aysia
comp any
t rib
y ards
Ġt emp
Ġex it
Ġar ab
par liament
Ġcoun s
Ġrecomm ends
Ġgri ff
f uel
Ġch anged
ot a
Ġex erc
Ġfl ock
Ġins ide
Ġmos que
Ġinvol ved
m el
r ba
ol ph
Ġth rash
Ġab s
Ġ3 00
Ġpost p
Ġcomple te
c ity
f ect
Ġp ir
Ġle banon
Ġwar m
Ġvot ing
Ġc ens
Ġf an
un ic
Ġle aving
Ġincre ased
Ġrefer endum
Ġrebu ild
m cc
n ity
Ġth ailand
Ġlead ing
br ary
Ġmov ing
law yer
Ġi i
bbit ohs
Ġk icks
Ġsav ed
b ob
f ed
aine es
Ġextrad ition
h ur
o om
Ġs elling
Ġm all
Ġn on
Ġcom mer
Ġwin ners
Ġimp orts
Ġdi am
Ġcontrovers ial
Ġtheat re
Ġab ortion
ban ks
ph ilippines
Ġjack son
pay ers
build ing
Ġmexic o
Ġt ips
ra cy
Ġst ays
Ġun c
se y
Ġreg ister
Ġall oc
Ġbroad band
Ġelector al
a ut
t en
Ġgrow er
Ġmus lim
mal colm
Ġbel ie
1 5
c i
Ġb ure
Ġme an
min ers
Ġbir ds
Ġpriv at
br itain
Ġmurder ed
wed nesday
re y
aw ay
ins ula
Ġjo e
Ġgrow s
Ġso ft
Ġfail ing
Ġphot o
Ġdiscover ed
bir ds
Ġtraff icking
ch ester
can e
Ġcap e
ma jor
Ġfoot y
fr iday
Ġdig ital
Ġpok ies
e agles
Ġp ms
re f
at i
ac o
Ġro ss
Ġapp le
Ġunder go
Ġsl ide
Ġclear s
concer n
Ġelectric ity
g ippsland
m ad
Ġp ension
Ġal arm
Ġinvestig ating
Ġassault ing
Ġconsider ing
stor ms
Ġf ederer
Ġm aster
Ġelect ed
Ġmom ent
b ail
n aby
Ġp aedophile
ed ucation
ly wood
Ġdef icit
Ġwe b
Ġdollar s
Ġsmug gling
Ġgam bling
b angladesh
n ick
st osur
ab et
ear ly
Ġgre g
car r
bor ough
Ġtrib unal
Ġrecomm end
l is
Ġr yan
Ġpay ment
Ġfri ends
hum an
g age
p ut
un a
est one
Ġfin ally
mon day
Ġdon ation
Ġamer ican
Ġoppos e
Ġerup ts
b ird
en oph
Ġm ildura
ro s
Ġj ury
ell ow
ee per
Ġair lines
Ġpe ak
Ġnear ly
Ġsing apore
Ġd uty
le gal
ian ts
Ġsp ray
ap y
ug s
ric an
face book
in ing
Ġh o
Ġe very
os is
Ġmurder ing
Ġbra ce
Ġfish ers
Ġke vin
Ġmount ains
Ġcreat es
cla ims
b et
t ough
Ġs leep
Ġb undaberg
Ġoper ations
Ġpen insula
in ery
Ġo di
der n
de p
Ġjob less
Ġmo on
Ġla unceston
Ġexpl os
Ġthan ks
c airns
h art
ge orge
Ġca used
enn y
Ġhand ling
Ġsack ing
Ġbox ing
pres ent
Ġh iv
Ġg ulf
Ġbe er
Ġoff enders
Ġdis abled
can cer
fr ont
aly mp
mat thew
Ġadj our
b ike
d ale
Ġsnow y
christ mas
in i
ar ian
Ġg oulburn
Ġpro ve
Ġpos ition
bra zil
will iams
Ġf ro
Ġr ent
oo ter
Ġsc ene
res p
Ġlo ans
dra g
Ġlim its
Ġst yle
th or
ak art
con struction
Ġdes al
Ġmov ed
Ġtro op
hist oric
Ġprim ary
Ġpr in
Ġjournal ists
c ass
al one
Ġm ike
Ġw ounded
Ġo val
Ġcont rib
Ġident ify
Ġdiscrim ination
Ġtra v
ip e
Ġcar ry
Ġac cepts
Ġansw er
Ġcerem ony
a e
v on
Ġb ased
Ġre ward
sh e
Ġad vert
Ġcamer on
cro c
investig ation
Ġt ape
il y
ab e
ban ese
car bon
Ġgun man
Ġer a
Ġtermin al
Ġbr and
Ġattack er
sw ich
Ġcelebr ations
Ġdecl ine
Ġprocess ing
Ġrecogn ised
Ġwim bledon
Ġs it
Ġs ustain
Ġc atholic
Ġl uke
ist le
Ġtri o
pe ace
car s
Ġreturn ed
Ġfif th
nest y
c ard
r ing
as x
Ġr ick
Ġpro p
Ġsk i
t uesday
Ġs unday
Ġhous es
Ġbomb ings
Ġspec ulation
Ġstat us
Ġfisher men
Ġyach t
Ġtort ure
Ġse al
Ġres ist
Ġbr umbies
gre g
Ġqual if
dri vers
w ide
or a
Ġh undreds
Ġv et
Ġsa udi
meet ing
f uture
h od
Ġd od
Ġse ats
Ġbu ys
Ġgl ass
Ġoper ators
Ġve get
Ġt ip
it ors
oun der
Ġas x
Ġfish erman
ann el
Ġwithdra wal
Ġdesc ribes
c it
c aine
Ġv oice
mer a
Ġexp ects
Ġsk ipper
mar sh
Ġill ness
Ġstra ight
pri v
dan iel
b ad
c ase
Ġh ed
ild as
Ġdown gra
Ġgra pe
Ġchampion ships
Ġham mer
Ġath letes
al g
Ġnew sp
Ġ201 9
Ġveter an
gi os
p ot
es c
ter ror
Ġrel ations
olog ist
akart a
m ates
t or
Ġa ids
un e
Ġman y
Ġbur gl
Ġrac ism
Ġwild life
Ġexper ience
Ġl np
et te
ag a
Ġne ighbour
Ġpra ise
vol unte
l if
Ġd one
ad ow
Ġse lection
Ġco caine
Ġmin es
Ġpar ade
Ġsupp lies
pro per
Ġsupport ers
Ġcust omers
Ġdrow ns
Ġdomin ate
Ġspir it
n asa
Ġs aints
Ġc ub
Ġmur ders
Ġbank ing
Ġtin to
Ġlangu age
le ading
Ġpr incip
Ġcycl ing
bro ok
Ġmal lee
yr gios
Ġintro duc
Ġf ashion
Ġw agga
Ġn athan
Ġcan ada
he avy
Ġall iance
Ġoper ator
vir gin
elling ton
Ġmass acre
Ġfa ult
b ola
Ġt afe
Ġs aves
on ic
all ies
Ġk algoorlie
Ġpro ves
Ġpro secut
Ġcal m
Ġallow ed
ambod ia
Ġpract ice
Ġn ears
Ġr at
Ġth ought
Ġsur r
bo x
Ġthr iller
Ġconsult ation
Ġcitizens hip
Ġgamb ier
f ol
f ax
g ro
u cture
Ġs ars
Ġm ens
abb a
Ġbro thers
Ġeast ern
Ġspeed ing
gun ns
Ġhor ror
pil ot
l ish
um ers
Ġtra ged
Ġwill iam
Ġbar nett
Ġrel ated
Ġfoc uses
Ġrestaur ant
k imberley
Ġf itz
Ġj umps
Ġwor se
br umbies
Ġproper ties
Ġreal ity
stit ute
c el
Ġro bert
pl ant
Ġexp ress
enc ies
Ġsw eep
Ġhar ry
enoph on
r ice
Ġf ence
Ġd na
ut ious
Ġtr ick
Ġcamp bell
ugh es
Ġbash ed
Ġp onting
Ġg h
Ġst amp
Ġte le
res h
Ġgre y
Ġawa it
p ost
Ġh ab
orid a
Ġ ireland
ul ly
sh arks
Ġcar avan
Ġbo ats
Ġdo ing
Ġor ange
Ġrain fall
g ow
u ers
Ġ ou
Ġt amworth
Ġd ockers
Ġh od
Ġan alyst
Ġbur ma
cent re
cy cle
fr uit
l on
Ġsp in
ath ers
pl ane
Ġli brary
Ġple ased
Ġirrig ators
b ol
al ian
Ġd ance
le ts
Ġe ve
worth s
t w
Ġ very
Ġgra bs
Ġhar ass
Ġtreat ed
f o
f ts
in ations
Ġw ages
Ġh ik
ose curity
Ġkangar oos
r ate
Ġn iger
Ġen glish
Ġbre xit
Ġpolic ies
Ġgiv ing
Ġburn t
f est
t rio
Ġn ets
ig ning
Ġcl ark
sw ans
Ġclos ing
Ġroll s
Ġsat urday
Ġquiz zed
Ġprov ide
Ġmish ap
b al
Ġ ult
Ġr ivers
Ġent ers
Ġdocum ent
k im
Ġt icket
ig g
ag an
Ġqu eens
Ġbr itain
Ġdou bts
Ġcycl ist
w itness
Ġd istr
Ġr um
Ġcar ds
Ġdef amation
Ġheat wave
dem ocrats
Ġvehic le
Ġvolcan o
l ide
m t
Ġh ort
Ġh anson
ir ing
Ġsc rap
ull a
pr ession
Ġleg end
Ġnet ball
ra ce
oc racy
pl ans
Ġus ers
Ġtr umps
az ed
Ġstate ment
Ġparliament ary
Ġmount ain
Ġcompl aint
Ġrecogn ition
e cent
Ġl ashes
Ġr ba
Ġra y
Ġapp oints
Ġim press
Ġrem ove
Ġsusp ends
fl oods
go ing
Ġreb el
Ġpal m
Ġrac ist
Ġcommitt ed
job s
l atham
m ps
on ents
is lamic
th ird
Ġident ified
bel t
teach er
Ġrelation ship
Ġh wy
Ġj our
als e
Ġpar ole
uth anas
Ġactiv ist
uthanas ia
d ie
l ar
t iger
id den
Ġsc ot
Ġsc ientist
Ġtit ans
Ġ8 0
Ġprodu cer
Ġgard en
t it
Ġv ow
ell igence
Ġback ing
od ation
per ate
Ġdet ainees
Ġev ans
Ġuk raine
Ġinfl u
cow boys
z en
in ct
Ġl ure
ab eth
iv als
Ġwe ak
bar nett
Ġstrug gles
Ġbreach es
d p
d ogs
Ġg eraldton
Ġun ite
Ġbr on
bl ue
Ġgu antanamo
Ġexpl ained
Ġpri x
sen ator
Ġmal colm
Ġbuy ers
Ġbroad cast
Ġtraged y
p ie
Ġa qu
Ġb art
Ġb ite
ac qu
Ġj am
Ġro of
Ġup beat
Ġind ies
Ġhigh est
Ġbus y
bro ome
mal aysia
Ġdep art
gar et
Ġsteph en
Ġod ds
Ġt ensions
Ġa ce
ia gn
Ġand erson
vi ol
Ġret ain
Ġgovernment s
Ġste el
Ġso ar
Ġcal ifornia
estin ians
h ear
an ol
Ġa ver
Ġop tion
Ġmo ore
Ġcost ello
Ġbomb s
Ġfix ing
todd ler
Ġexerc ise
j ets
r spca
Ġp ear
Ġd iss
sh ort
Ġrel oc
Ġthreaten ing
Ġpan thers
Ġunf air
Ġphill ip
l ondon
t ar
u le
Ġm h
Ġh ole
Ġl ines
Ġth ere
ab les
Ġan thony
Ġmen ing
eth er
Ġbatt les
Ġmonitor ing
Ġtem per
Ġw atson
Ġr allies
Ġrem anded
Ġturn ed
Ġshut down
Ġremem bers
i h
Ġp ace
Ġst uart
ch ris
Ġpl ate
red backs
Ġlist ing
g ib
p a
Ġc ultural
is ode
Ġo w
Ġoff s
uk a
g ay
Ġ ing
Ġs udan
Ġbe e
Ġplan ts
Ġhar ris
Ġdou bles
Ġstre ak
Ġprof ile
Ġeff ect
tax i
ket ball
j im
s old
Ġp ers
Ġto owoomba
ic o
Ġh orses
Ġr ice
ep a
Ġcham ber
ref uge
f amilies
ch ief
act ion
Ġsw orn
Ġdo zens
Ġstri p
Ġpropos es
Ġdismiss ed
Ġgener ation
Ġfreed om
Ġmach ine
Ġcham ps
f ew
Ġs ons
Ġb ear
Ġw reck
Ġh ydro
Ġch oice
em b
Ġro berts
iv ity
Ġshow down
ex p
Ġhar vey
Ġdem ons
Ġincre asing
Ġkeep ing
ris ing
Ġcur b
rie ve
Ġlar gest
olymp ic
g ie
j ust
m ir
ne e
amed ics
amb ul
Ġred backs
sy rian
Ġfriend ly
1 00
s ug
s aints
or gan
Ġre present
ut ed
Ġsp ree
Ġout ra
Ġdet ain
Ġmov ie
Ġsoc iety
Ġtw enty
Ġ ian
Ġo k
Ġl ay
th om
pp y
ut ers
man ent
Ġpre vention
Ġdri ves
Ġfre eway
Ġdump ing
Ġtw itter
Ġopp n
Ġhus band
Ġf ame
at ures
Ġm aker
Ġw ard
Ġth or
Ġbo ot
Ġchief s
cra sh
Ġpast oral
Ġcanc els
Ġstra it
Ġdrow ning
Ġexpect ing
Ġm ul
ch elsea
ob el
pl es
Ġresp ond
Ġinfl ation
Ġmigr ants
1 4
Ġf ol
Ġm oot
ig an
se ver
Ġpre c
Ġbre eding
Ġdo ors
Ġit alian
lib s
e els
Ġm ap
il t
th ursday
Ġacc c
Ġgold fields
Ġrich ard
Ġcapt ure
tur key
b ac
f at
on ial
or m
Ġin come
ut ions
Ġind ecent
Ġfac ilities
Ġcol lection
Ġrock et
Ġcy ber
g il
h o
Ġc afe
ar son
Ġo m
Ġcon gress
Ġbl az
Ġbr anch
Ġboo ks
Ġinj ures
ren der
Ġdem ocracy
Ġes perance
Ġfree ze
Ġlab ors
Ġpenal ties
c oup
y m
or ney
Ġb ang
Ġh at
ig il
ck ham
Ġfir ms
iz abeth
que en
sol ar
Ġcit rus
Ġreven ue
c am
f ighter
Ġw on
ro ar
Ġfor g
ur ning
um by
ast ro
be ach
Ġcoast al
app ed
Ġcamp us
Ġloc ust
Ġm ight
Ġm ind
Ġre vers
Ġres olution
Ġwe ed
list en
k ers
Ġh av
Ġcont act
pe ople
elbour nes
ga e
Ġuncertain ty
dom estic
Ġst em
ist ry
Ġqu iet
Ġacc omm
Ġfire works
Ġpay out
Ġgl adstone
Ġsol omons
fish er
Ġlank an
Ġhero in
j et
le ton
Ġg ear
ig ar
Ġth rown
Ġcon ced
Ġpl astic
af ood
Ġ4 5
Ġcrack s
Ġpet ition
Ġlift ed
Ġsecret ary
van uatu
Ġmanufact uring
n ine
u its
ber y
Ġnew man
oc ial
ord an
Ġint ens
pet rol
Ġoppos es
Ġindepend ence
forest ry
ashing ton
occ al
c op
Ġ ut
er ry
Ġw ollongong
Ġo y
Ġj osh
Ġar ms
con duct
Ġrec ession
li er
Ġrap ist
Ġadjour ned
n ow
es ity
Ġd un
ro ke
le ment
Ġg ong
Ġreport ing
Ġper fect
Ġder ail
s ub
t ri
Ġs ights
Ġw ays
Ġe ating
sh ore
oc occal
dr ink
az i
Ġident ity
Ġfa ith
Ġf oster
Ġco ck
ild a
oc ol
sw im
co ff
Ġreb ate
Ġbow l
c amer
f resh
Ġb le
Ġk ir
plan ning
Ġaband oned
Ġreduc ed
k ohler
l at
s ant
en ger
Ġd itch
is ions
el ter
Ġbr uce
Ġsch ed
lic an
Ġfund ra
Ġbid en
Ġem ployment
ball arat
river land
Ġcollap ses
Ġsubur bs
l ob
r un
Ġt ag
Ġr ival
ch an
Ġvolunte er
mil it
Ġfeel ing
m and
n i
Ġf eral
Ġk ur
av al
Ġbu ff
Ġred und
Ġhen ry
Ġalter native
saf ety
Ġcommer cial
or ary
al bany
Ġa war
Ġd ir
Ġd ad
st olen
Ġg rog
pp arton
Ġad d
Ġback packer
con serv
air port
Ġtest ed
Ġrep air
Ġsn atch
Ġge off
pal estinian
Ġnat ural
Ġd uck
Ġh ewitt
Ġr ental
Ġch ances
Ġde als
um a
Ġdown er
Ġsub missions
Ġ9 0
Ġrenew able
ambul ance
p ga
Ġt orn
es a
le aders
ra h
ac a
Ġsh ift
ment ia
Ġwe ight
opp ers
Ġint elligence
cle an
Ġdisapp ear
irrig ators
coup le
c atholic
d ig
g ill
v eter
Ġf ounder
Ġb ot
Ġb ass
Ġth ief
Ġk atherine
Ġdown turn
Ġcomp letes
Ġsurv ival
quest ions
Ġvan uatu
Ġbott le
Ġadministr ation
i ors
j i
z er
Ġc otton
ing wood
Ġmo thers
sp ace
Ġca utious
Ġend angered
enn ant
Ġvisit ors
Ġplun ge
sug ar
Ġawar eness
Ġm ol
el d
am y
Ġwor ds
Ġant arctic
Ġrail way
Ġval ue
w ler
w heat
Ġs es
ar th
ch air
Ġbl ocks
ind epend
ord on
bo ks
Ġri ots
Ġste ady
Ġlab els
Ġclass ic
Ġcontrovers y
Ġhed land
Ġd ying
Ġch oos
im a
cl ar
de b
Ġbu ck
ex tra
Ġput in
led ge
jo hnson
Ġsqu are
mat ic
exper t
u ct
ig ious
id en
Ġj ong
Ġthe m
Ġsp ots
cl in
Ġur gent
Ġsydney s
Ġper form
Ġ4 00
Ġx i
ram atta
Ġprior ity
Ġjour ney
d ry
m ex
v ideo
in ch
ot ic
ot ional
Ġfl ash
Ġme ans
Ġcut ting
Ġgun ns
Ġupgra des
rem ote
Ġcover age
dead ly
Ġcomple x
n adal
o ir
or ate
Ġg abba
ad v
Ġover d
Ġpre fer
Ġcomp let
pro be
bor g
Ġlar ge
Ġexam ine
p en
le igh
as bestos
Ġr ider
Ġth ieves
Ġserious ly
dou bt
b un
k inson
Ġb eds
Ġd ale
il ing
Ġth under
em y
ip ment
for um
Ġcomm its
Ġmin or
Ġtri es
Ġjo int
Ġstor age
Ġsn iff
Ġed ges
Ġem bra
Ġsentenc es
Ġ15 0
sy ria
cs iro
Ġbh p
Ġh amilton
st ates
Ġfor t
ur ances
Ġse als
Ġman us
Ġev ents
Ġpres election
Ġrecover ing
Ġsil ence
Ġill awarra
Ġneg lect
priv ate
j a
Ġra ces
Ġwar s
police man
Ġwh ales
Ġsex ually
Ġz ones
Ġcapt ured
Ġtrig gers
Ġappoint ment
c ctv
n amb
Ġto il
ro ads
Ġre development
Ġcl oud
Ġun cover
sh eep
Ġres h
Ġchar les
ke vin
Ġhold ing
dd ick
stri ke
j ones
Ġf ill
al em
ic ac
Ġn adal
ur g
Ġgu ards
Ġresc ues
bush rangers
Ġsettle ment
Ġapplic ation
n elson
Ġf itness
Ġb abies
Ġm icro
ic ult
Ġl ucky
Ġsp ott
sh op
Ġman ly
Ġcons umer
Ġper manent
Ġdet ail
Ġfre mantle
stud ent
Ġwind ies
ron ic
Ġmis conduct
Ġrub bish
Ġaccomm odation
h ound
n ar
on ds
Ġd iagn
ro osters
le wis
Ġar n
Ġad dict
ass ie
Ġim m
enc ing
Ġflood ed
Ġsol ve
ca use
business es
Ġpap ua
Ġwil son
cla im
Ġprivat isation
abet es
d ub
f rom
as ic
ell ite
sa udi
ste ve
c il
e le
p aid
s ome
Ġb ennett
Ġst one
Ġch ap
ap ova
new man
Ġgu ine
co ast
Ġem ail
hol ds
Ġactiv ity
Ġshock ed
bomb ers
Ġoptim istic
anim al
b ay
e ight
x as
Ġs ister
th ailand
Ġar gentina
Ġkill ings
Ġmot ion
iff icult
Ġaddress es
Ġcapt ures
Ġmour ns
a ult
r ans
Ġm atter
Ġl ord
Ġst ake
Ġfl ows
Ġbr ight
pt ion
Ġdire ct
Ġsim on
tal ks
istle bl
i ate
Ġc ouncillors
Ġf alse
Ġl ap
ust er
ub e
ish es
Ġconcer t
Ġass ets
Ġowners hip
Ġcast s
Ġep isode
Ġcommit ment
j e
m ate
p op
Ġb ern
Ġb ats
Ġg iants
ol ar
Ġoff ensive
Ġdr one
Ġcont ra
Ġhealth y
Ġear ns
Ġlight ning
sen ior
Ġcroc odile
Ġthom pson
Ġdub bo
Ġbackl ash
Ġs aw
Ġn ap
Ġpl aces
arm y
Ġsal v
Ġequ ipment
a us
n on
Ġa pe
Ġm ont
it on
le ments
Ġg al
Ġis lam
Ġret urning
com mission
ira cy
Ġstr uck
app ing
Ġann ual
Ġreview s
law yers
Ġax ed
Ġace h
d ont
Ġk at
pl ays
Ġmarket ing
Ġgl en
motor cyclist
re ct
im um
cl ass
Ġart ists
Ġer ror
Ġreplace ment
Ġvir gin
Ġmoot ed
k ok
Ġt aiwan
al cohol
ra iders
Ġl iter
over ty
Ġus es
vict ory
Ġleg acy
drag ons
8 0
l og
Ġp ow
Ġcar r
jo e
Ġdiv ided
Ġr d
id d
ch inas
ant age
med ical
Ġbun bury
Ġblaz es
f il
n avy
Ġs ant
ar rest
Ġg ill
Ġth ings
ve ment
Ġra v
Ġar senal
Ġgra ham
itt en
anc ies
Ġroll out
ste in
c as
re ach
el ton
Ġst ick
ter ritory
Ġv igil
cl ive
Ġlock ed
Ġfer guson
Ġmad rid
Ġtrad itional
Ġharass ment
Ġw ra
us ive
Ġgu idelines
ott en
Ġreg ulation
Ġass urances
Ġtur ning
Ġpict ures
b as
Ġre ad
Ġag ent
Ġapp la
ann a
na uru
k yo
ar is
ra c
Ġr h
Ġr ating
id ale
ir on
Ġch inas
Ġsh uts
ov ation
Ġne pal
Ġsm art
Ġter ms
Ġ3 5
lo e
Ġlob ster
m ont
Ġb ounc
Ġin iti
Ġgra du
Ġoffic ially
Ġgen der
Ġbuild ings
Ġtas er
Ġhal ts
Ġcam ps
Ġsun s
b eef
h icks
t i
Ġt act
re b
Ġto tal
Ġcomp rom
Ġstud io
Ġ3 6
Ġsn ake
Ġlif eline
Ġsever e
Ġbath urst
h em
m ob
in em
at ely
ro be
Ġg reek
Ġn bl
Ġj im
ps y
Ġsu it
Ġam a
war ning
Ġhear d
Ġbuil t
Ġopport unities
Ġpremiers hip
g iant
en ergy
Ġm ick
Ġpro of
Ġat m
Ġaf p
ber ry
Ġbl ows
Ġcr on
gr ath
Ġste al
Ġ3 1
Ġmag ic
Ġfact or
Ġseiz es
susp ected
jack son
fin ancial
Ġpoison ing
Ġliqu or
Ġsuggest s
c ia
k ings
p oint
Ġl it
ab urra
ard i
Ġban ana
Ġspe aker
sp ot
Ġhun g
Ġap artment
Ġaff air
Ġang ers
ste ph
ander ers
fra ser
Ġ ute
Ġs ar
an zac
ed en
Ġh endra
ro d
Ġl as
ug abe
Ġab ove
Ġcomm unic
ific ant
alk ing
Ġprodu ce
Ġdeli ber
Ġmigr ant
Ġspre ads
politic al
l np
t imber
ra ss
Ġr angers
Ġra ins
Ġbre ath
Ġfil es
Ġky i
Ġd olph
Ġm ounts
ir i
sh am
Ġacc idents
Ġser ial
Ġsur ges
Ġim age
bl air
Ġmar iners
Ġor deal
Ġpull ed
Ġmigr ation
Ġperson al
Ġsail or
Ġconstit ution
b it
s ocial
re view
Ġo bs
ess ing
Ġwh it
Ġcor al
me at
inter est
Ġdisapp oint
Ġcondem n
camp aign
Ġnick el
w right
ff iti
li verpool
Ġche ese
Ġbow en
pet ition
Ġshar ing
Ġthom as
Ġwwi i
h ard
Ġf al
Ġf ate
Ġp ump
ry an
Ġad ds
Ġcomp uter
ned y
Ġrob bed
ital ian
k algoorlie
Ġp add
Ġd red
Ġch annel
Ġv ent
sh ot
Ġfl orida
Ġacc us
Ġschool ies
Ġno thing
Ġbas ketball
Ġcour ts
enz ie
h aven
l ab
m att
Ġd angers
Ġd utch
oun ter
Ġse ed
ag ues
ach er
ind ustry
Ġnot e
ik a
Ġriver ina
Ġey re
Ġtask force
Ġinst all
treas urer
in ary
Ġm ent
Ġn ic
Ġst unt
th orn
Ġro d
Ġqu ad
Ġwar ming
Ġshow ing
Ġsale yards
Ġhur ting
Ġband it
Ġty phoon
Ġsubs id
Ġrespons ible
Ġg ift
Ġde pos
Ġde pression
Ġbe attie
Ġro o
de o
Ġflood waters
sur f
Ġrich mond
Ġbal ance
Ġunf azed
b rad
Ġd ifficult
Ġe bola
gra z
Ġtour s
Ġrep airs
unt ary
Ġrobber ies
Ġamer ic
rock hampton
Ġscore centre
Ġide a
Ġmang o
Ġp y
Ġd ent
Ġsp anish
ous ins
Ġdef e
Ġor ch
Ġbur ke
cap e
ann y
Ġav ail
Ġbol ster
Ġthrow s
Ġlam ents
namb ool
1 3
r ugby
al o
ac ad
ip le
Ġserv ants
Ġph oenix
Ġexpl o
Ġmatch es
dis ability
Ġpriv acy
Ġdid nt
Ġlib s
walk er
Ġguarant ee
Ġdiam ond
c ul
o al
Ġh oney
est e
Ġse as
Ġas ide
Ġcl im
ook aburra
ah ill
ven e
Ġtur tle
Ġmis leading
ilipp ine
Ġmaint ains
1 6
g ic
Ġa ch
Ġre con
ud ed
ict ion
vi etnam
Ġcan adian
Ġtri ed
Ġsw ing
Ġsy mp
ograph y
Ġrespons ibility
Ġape c
w et
er ial
os a
cc a
pr int
Ġcamp a
Ġsk in
Ġcoach ing
Ġhomeless ness
chi at
k id
u j
Ġb ab
Ġe asy
Ġe uthanasia
ail e
anc ing
anc is
Ġrev olution
Ġent it
sol omons
c ust
Ġc ctv
ar ts
Ġd ental
Ġin ject
Ġkill ers
Ġchrist ian
Ġput ting
Ġorgan isers
Ġdeport ation
Ġpsy ch
elect ric
Ġt el
an th
Ġl ot
un iversity
am ber
th ieves
Ġv ul
ap t
Ġra bbitohs
Ġres erves
we ed
can adian
wh ale
Ġappro vals
Ġopp onents
Ġtrig ger
w d
Ġc ities
Ġde leg
ot ts
con f
be azley
ib et
we b
Ġfall en
Ġcritic s
Ġoper a
Ġwithdra w
press ure
c ov
s ach
Ġb orn
at ar
Ġsh ips
cl iff
flood ing
Ġfarewell ed
Ġpun ish
Ġspott ed
d ockers
r ann
an u
Ġret ains
Ġpush ing
Ġdra ma
Ġass ass
Ġwalk er
Ġpregn ant
e k
Ġs ew
Ġf ta
Ġpo ised
cr ime
Ġsuccess ful
kangar oos
v ale
Ġc igar
Ġg il
Ġst ab
os ed
Ġv ac
Ġover night
Ġro se
Ġfl aw
Ġcomm emor
Ġbre tt
Ġtro phy
ann uation
mon ds
Ġwal ks
Ġmotor cycle
Ġdu o
b es
g ain
Ġp ope
Ġb og
Ġh ints
ad er
Ġan c
Ġpar alymp
Ġrenew s
Ġfinish es
b undaberg
h al
s il
Ġp age
Ġp overty
Ġd ock
Ġn ba
Ġk em
Ġk yrgios
ap ans
con vict
Ġli pped
Ġhost ages
bra cks
Ġrecommend ations
g ri
m our
m ick
m ons
m artin
Ġf oss
st h
ad u
Ġsh eds
Ġle wis
Ġex empt
Ġke pt
west pac
Ġign ored
Ġarm strong
Ġbi osecurity
Ġaw b
Ġvandal ism
Ġp ione
Ġg ib
Ġk nee
Ġy emen
Ġcomm ander
Ġmon aro
iz z
Ġir ish
Ġso il
Ġtrack s
Ġ6 6
fish ing
Ġhack ing
Ġscra pped
Ġpartners hip
conserv ation
h all
Ġin cent
ic ing
Ġn elson
im migration
Ġsh ine
Ġ1 000
Ġplan es
ash mir
Ġnot ice
Ġbu ying
Ġshort fall
Ġadv is
Ġkidnapp ed
Ġdemol ition
Ġcease fire
c old
f ull
n bn
w atson
is a
st asy
ch en
res erve
Ġdes perate
Ġadv ances
add af
Ġsurpr ised
Ġknow ledge
Ġhamp er
Ġaver age
e a
i emma
j er
m ol
w im
Ġc ou
Ġd jokovic
Ġm elbournes
il i
Ġhelp ed
Ġtasman ias
Ġshare holders
Ġagric ultural
Ġmult i
proper ty
g m
k at
ur ers
ew art
av ers
Ġmar cus
Ġhit ting
Ġext reme
Ġmag istrate
Ġmand atory
environment al
Ġprosp ect
g ender
l ate
s unday
Ġp ond
Ġg one
Ġl ov
Ġe ch
Ġfl ies
own ers
Ġsl a
ord ers
ph one
Ġfight ers
Ġadv ance
Ġpra ised
Ġneg ative
Ġforecast s
Ġless ons
pil bara
camp bell
europe an
l ims
m es
Ġw ent
Ġst uck
Ġal gae
aw i
Ġfe els
Ġcost ly
Ġrestr ucture
Ġlib ya
Ġreven ge
Ġacqu itted
Ġip swich
n al
Ġa ctor
Ġb ac
Ġm ack
Ġj akarta
ud ds
ly n
Ġtra ders
pr ime
Ġgra ve
Ġbar s
Ġem bar
ital y
Ġteen agers
Ġpil ots
plan et
Ġham as
Ġou st
j u
m ath
Ġt ender
th el
Ġk il
sh ares
ag her
Ġback yard
Ġair line
war r
Ġfall out
Ġob esity
Ġaugust a
resc ue
Ġlod ge
y ond
Ġs ir
Ġw ashington
Ġh idden
Ġl ists
Ġre ass
ack ed
Ġro os
rom e
Ġal ong
Ġsl ip
ph er
wor lds
Ġbail out
Ġfle et
Ġshel ter
Ġiv an
b in
c ab
f ig
k ore
p ing
t ali
Ġf ert
Ġh ughes
Ġg reece
ch anges
Ġk ay
Ġover t
ell er
Ġfl inders
war ne
uk raine
enn on
sun shine
Ġview s
tali ban
ar ia
Ġb ump
Ġw ast
Ġh an
ak adu
Ġsh ane
Ġhe ats
Ġcr uc
Ġim ages
Ġhun ger
ij sters
Ġway ne
Ġmal aysian
pal mer
Ġprec inct
ookaburra s
b ies
en ance
id ency
Ġbe cause
Ġar g
Ġsol omon
Ġel izabeth
Ġjul ia
Ġcivil ians
Ġeth anol
independ ent
m ildura
t oo
Ġp ur
ro t
ers ey
ag on
Ġqu arters
Ġold est
ser ena
Ġattract s
Ġmater nity
n iger
o z
in f
Ġp aint
Ġd amp
ce ed
Ġse am
Ġar thur
Ġwar atahs
Ġfound ation
Ġam alg
cre d
river ina
mat ildas
Ġsched ule
e al
g eraldton
m ary
s ki
t aiwan
w are
Ġf eder
Ġthe fts
Ġback fl
fl u
Ġext rem
Ġdi abetes
Ġappear ance
trans port
d pp
d utch
Ġ ug
Ġt aste
Ġb ug
ion a
Ġal one
Ġlaws uit
Ġport ra
coff s
l ou
Ġc ave
Ġw ellington
le te
as ian
Ġapp rent
Ġele ph
pro pos
Ġdec ade
Ġche ap
Ġaff airs
Ġcur few
Ġconced es
reb els
Ġvul ner
i en
t rial
w art
Ġb io
Ġm ail
Ġin stitute
Ġst able
and erson
Ġch asing
Ġover turn
um ent
we ight
Ġall ows
Ġlo oming
Ġes cal
sing apore
dub bo
Ġs ac
Ġg er
Ġr ough
Ġr ivals
Ġde mentia
Ġv ital
Ġsp ons
Ġdown plays
Ġca ution
Ġdem ocrats
Ġdevelop er
Ġprogra ms
Ġma iden
Ġrac ial
Ġinsp ires
Ġsubs idy
Ġkidnapp ing
Ġsadd am
istlebl ower
c ash
s ame
Ġc os
Ġf ier
el and
Ġre ax
ath a
Ġsur ve
Ġsol id
tour ist
Ġtor ch
Ġrecall s
Ġregul ations
Ġgraz iers
2 5
f inal
l ift
s om
Ġt an
Ġn ov
ch n
Ġab alone
Ġdr illing
Ġbr ut
ph il
min ed
Ġpolitic ian
Ġhunt ers
col es
Ġtun a
rich ard
clin ton
j am
u ing
w agga
Ġto ad
Ġst ing
Ġst ood
Ġj on
Ġun able
sh ould
und ine
Ġprot eas
Ġmil estone
Ġge org
Ġimpro ving
tra de
german y
Ġje ff
rican es
resp ond
f me
m ult
n ats
Ġt ap
Ġl ane
Ġl atham
Ġcl er
Ġex cl
Ġur ban
Ġcan ola
wom ens
Ġcol lect
Ġhur ricane
Ġgirl friend
school s
Ġapolog ise
pack ers
Ġtank er
Ġfu els
Ġhav oc
l iv
n ia
p ent
Ġt ail
Ġk os
em ploy
if er
Ġdis rupt
eter y
Ġdecl ar
Ġassess ment
hom eless
Ġadvoc ate
thor pe
Ġavail able
b ing
p our
or ange
Ġa mp
Ġp ine
Ġon to
Ġmur doch
Ġfr ancis
Ġsurf ing
Ġbon us
c ouncillors
Ġ ump
Ġp urch
el wood
Ġst opp
iv an
Ġbr id
Ġen voy
Ġrest ore
Ġtar iff
Ġbur ied
Ġdi ver
Ġlands lide
Ġbun gle
Ġmom ents
Ġscre en
bik ie
Ġcouns elling
Ġwra ps
j d
Ġc em
Ġd ive
ic i
Ġl ag
ers en
ul pt
Ġtre k
Ġdeli very
ambod ian
Ġlad en
Ġcarn ival
Ġclim bs
w elf
Ġm r
Ġn dis
Ġr ig
ud es
Ġco pper
Ġtra wler
Ġtr end
Ġfire arm
Ġ201 1
Ġden gue
str ata
Ġopport unity
Ġko ala
Ġswe et
Ġnar row
Ġluc as
trib utes
Ġnewsp aper
Ġs ens
Ġs ound
Ġp edestrian
us aders
Ġcon vention
Ġsh ines
bour ne
com be
Ġhard ie
Ġadvert ising
sever e
c ri
z es
Ġc ass
Ġw ells
Ġre qu
im ent
iv ed
Ġsc en
Ġne il
Ġpay ing
Ġdra in
Ġshoot ings
Ġsearch ing
Ġadop t
Ġconne ct
Ġfrustr ated
Ġmening ococcal
gri ff
welf are
3 70
d jokovic
i od
u ber
on ia
on line
Ġw if
ol ds
am ine
Ġj ason
Ġbl igh
Ġdr un
ind ee
du ce
ett i
Ġcol es
Ġadv iser
Ġtreat y
Ġcatch es
Ġimport ant
Ġdisappear ance
1 8
4 0
m ck
Ġp ill
Ġd umps
Ġto ol
Ġg ps
et e
Ġr id
qu es
te gr
ah u
Ġcritic ise
Ġrest ored
Ġz ero
Ġprom ised
Ġpan ic
tour ists
Ġsam oa
Ġmarsh all
Ġarab ia
Ġresh uffle
Ġre ign
Ġun ity
Ġab used
Ġbus es
Ġopen ed
Ġbail ey
Ġmayor al
Ġlim bo
dem ons
Ġinvol vement
Ġdub ai
cov id
i ott
m os
n uclear
Ġd pp
Ġl yn
Ġj er
ag l
ach e
Ġconf r
Ġbush rangers
Ġsal mon
Ġbeat en
Ġsign als
Ġsav ings
Ġign oring
Ġfavour ite
Ġmist ake
fif a
fme u
b c
z c
Ġb ows
is ons
Ġo thers
Ġg ordon
Ġn ato
th s
Ġmin istry
Ġdet ect
Ġtro pical
Ġteen age
Ġbag s
bu ds
Ġaud io
cons umer
Ġoy ster
en er
Ġa str
Ġp ell
Ġm art
ic ip
Ġl ng
ge e
col n
Ġtoil et
Ġanc ient
f lying
g ate
p ir
s amo
en ary
it a
Ġg ut
Ġsh ooter
ut ional
Ġbl air
Ġdr unk
od es
Ġbre w
Ġsm ashes
Ġref inery
Ġescap ee
gu ard
Ġextrad ited
Ġscot land
tit ans
h ack
h az
m g
Ġs id
is c
Ġsh ots
Ġpl ague
Ġbl ind
ip oli
Ġwar ner
Ġexp ands
co on
Ġinter state
ix on
bur ma
Ġtack les
lo ad
amer ican
foot ball
Ġexpos ed
loc als
refuge e
e pp
g oogle
n d
w ollongong
Ġ et
Ġc ad
Ġc ertain
Ġb rian
Ġm i
ch em
Ġoff shore
Ġal b
ism ore
dra ft
Ġmy anmar
wool worths
Ġslam med
joy ce
Ġmaint enance
Ġweigh s
Ġresol ve
hur ricane
hear t
h ing
in ate
Ġp icks
is f
ur t
Ġk ph
ak a
qu ate
ears on
Ġair craft
Ġmove ment
Ġsign ificant
Ġpain ting
Ġretail ers
Ġpatrol s
Ġinflu ence
Ġcruc ial
p oor
in ho
Ġc able
Ġd utton
Ġw ish
ra s
Ġsp ect
Ġcom fort
Ġtra m
Ġan x
Ġcont roll
ins ide
bar naby
Ġtow ers
Ġsqu ee
Ġstat ue
Ġhang s
Ġbure au
Ġtrav ellers
Ġprincip al
convict ed
d iv
k ie
k eeper
Ġt ong
Ġc inem
Ġh ook
Ġhear ings
Ġblack out
la unceston
Ġstrong er
di am
sec ution
Ġba iting
Ġprovid es
Ġliqu id
Ġbron ze
fig ures
k atherine
Ġ ul
Ġcon go
Ġsh ipping
Ġsch olar
Ġcons umers
Ġmed als
Ġshoot s
olog ists
Ġdest r
Ġfif a
Ġwim mera
Ġnegoti ations
cel ona
Ġvulner able
j ournal
p utin
v ill
Ġm ut
Ġl ion
Ġst akes
Ġj ar
Ġun ivers
Ġco x
Ġsc or
pr im
int age
Ġher e
mar iners
Ġmor ris
Ġer osion
Ġsport ing
Ġtrou bled
sal v
f ij
h uge
l ittle
s at
s and
s udan
v ot
Ġt ie
Ġf ighter
Ġb ub
Ġin nings
ig ue
Ġj ew
Ġro gers
Ġbo th
Ġconf usion
bo omers
can ada
Ġcount ries
isban es
Ġbatt ling
kn own
Ġom buds
k el
p ast
t in
w es
Ġp ie
st ock
Ġsh own
Ġsh akes
ab ul
Ġbe ating
Ġro deo
min ent
Ġgra b
win ds
Ġem b
Ġshort ages
Ġben ch
Ġreop ening
Ġnor mal
sk y
Ġcorp orate
Ġgard ens
mus ic
f emale
g reek
k ids
m itchell
Ġw ing
Ġg ot
Ġst rain
Ġe at
Ġk ashmir
Ġno ise
Ġmeet ings
Ġcol in
Ġfra cking
bur g
Ġexper i
Ġexec ution
Ġsink ing
Ġwarr ant
econom ic
volunte ers
a uc
b ah
c ool
g ian
g ovts
p o
Ġa ts
Ġb ites
Ġto bac
sh oot
Ġcar ers
Ġcor by
ph ot
Ġgra ffiti
med ic
Ġprom ote
Ġlab elling
Ġob ject
Ġbel ow
Ġmag pies
Ġsat ellite
dou bts
kangar oo
Ġdiffer ent
Ġess endon
Ġtemper atures
b om
j ud
l as
t amworth
in ity
Ġd al
os en
Ġse afood
ess ed
ug al
Ġpr int
be ga
Ġcontin ued
Ġinter im
umb ai
Ġstre t
Ġprof essor
Ġpakistan i
ught ers
cra ig
Ġtom ic
spe cial
Ġec stasy
earth quake
Ġrecruit ment
Ġsepar ate
n bl
Ġc ry
re v
Ġm ush
Ġh aving
Ġch icken
ach ing
ela ides
Ġhead ed
fer guson
Ġstaff ing
Ġtarget ing
Ġimpro ved
Ġvol untary
Ġball ot
Ġwalk ing
Ġest ab
Ġcas ual
Ġconne ction
6 0
l ot
Ġ ib
Ġt ickets
et on
Ġr anks
Ġst osur
am as
os es
ag o
Ġim pl
Ġcor ner
ale x
Ġmar ina
Ġmo dern
Ġmil an
Ġ7 5
teen age
comm itt
Ġemploy ee
cit rus
Ġtobac co
h mann
m um
s add
w reck
Ġ ens
in ion
al ds
Ġh u
st aff
Ġg ate
ew ells
Ġsp ying
Ġunder ground
Ġboost ed
ok ie
Ġrel ie
ator ium
Ġteach ing
Ġlab elled
mal aysian
Ġsack s
Ġsil ent
snow y
2 00
c andid
t afe
Ġp ad
ic ulture
Ġn azi
Ġe asing
Ġbe yond
Ġwor s
Ġres ource
Ġbr ink
Ġen joy
Ġam nesty
Ġbra kes
Ġmill s
gl ory
az z
Ġrel ay
ham as
Ġprin cess
z uk
Ġd ing
Ġh air
Ġo cc
Ġst ir
ath y
Ġcam el
Ġpra wn
so ft
Ġcs iro
Ġcomprom ise
m emor
al as
Ġcom b
ber n
con y
Ġsc g
Ġmar garet
Ġbet ting
stand ing
Ġken nedy
Ġsubur b
Ġscre ening
tom ic
Ġgriff ith
arth y
cil iation
addaf i
d al
in er
Ġc ambodia
Ġb ark
Ġin mates
Ġr att
Ġch ile
Ġpl at
Ġro y
ail y
Ġbar ra
Ġvictor ias
Ġsub marine
Ġeff ects
hockey roos
Ġrum ours
acad emic
m ov
in ction
Ġs ource
Ġp ies
ed e
Ġh ast
Ġbe coming
op ard
Ġsp ent
mp ians
oss ible
Ġbra very
Ġrel ax
Ġimp acts
Ġq lds
Ġcompet e
Ġstun s
Ġadvoc ates
Ġpostp oned
Ġsustain able
pher d
m ah
p aedophile
v andals
Ġm akers
Ġto kyo
st oner
Ġl unch
Ġk ilda
Ġsh ocks
qu al
cl p
Ġph ones
Ġass ange
ven ile
Ġinf o
Ġimprove ment
Ġath ens
Ġnor man
Ġach ie
Ġcem etery
f itz
i que
r ates
u an
w eek
Ġt ear
re ady
ic ated
un employment
ad f
Ġv o
ag le
arm strong
Ġsc ar
Ġtr uce
alth ouse
Ġcor respond
bl ast
Ġper iod
sp ain
Ġmill er
onald o
Ġ19 9
Ġsing er
uls ory
b ath
b orn
Ġs ewer
it is
Ġh oon
Ġr spca
Ġst umps
ch amber
Ġro me
ber rans
Ġy ellow
Ġag encies
ren ew
Ġrep rieve
Ġdar fur
light ning
Ġbuy back
Ġbik ies
inj ury
Ġsail ors
Ġly on
mass ive
Ġrick y
c iv
d un
l uc
al ia
est yle
uss elton
Ġstr icken
Ġpres ence
Ġem otional
Ġrap ing
Ġdevast ated
Ġther apy
Ġlin coln
l ack
Ġd ere
Ġj ay
av a
Ġad ded
Ġbr ought
Ġte xas
Ġtrain er
Ġtur kish
opp n
Ġtrack ing
sol omon
Ġber th
Ġfast est
Ġsteph ens
Ġki wis
Ġdistr ict
h amilton
r atha
u pper
w ife
or ship
Ġf et
it ude
ir ish
Ġv ie
igh th
Ġsu u
to owoomba
Ġcomm and
Ġmin ute
Ġsl ips
ich elle
Ġpres ent
Ġfar ewells
Ġold er
Ġvisit or
Ġtruck s
Ġlock yer
Ġtw ice
Ġos car
Ġincl ude
Ġide as
Ġguine a
Ġstopp ed
b oo
f c
t ree
Ġt amp
Ġb ids
Ġm ale
ro bert
Ġe ffic
Ġse vens
ab s
Ġra ising
Ġwor d
war atahs
wh ere
Ġcol omb
Ġforest s
Ġdomin ates
Ġintro duce
Ġegg s
mob ile
oal haven
b ri
b art
ar rell
Ġh ij
ill awarra
man us
Ġwor sen
Ġatt orney
air d
ph ic
Ġ201 0
Ġjud ges
Ġbuil ds
Ġha iti
Ġforg otten
sant os
Ġpond ers
a ug
f ake
h r
v o
Ġf ij
il ed
ra cing
Ġn ich
Ġl es
om er
Ġj ordan
ons ki
Ġpar ad
Ġdem ocr
Ġadv antage
Ġresearch er
Ġpal estinians
hold en
resc uers
prof essor
h and
l us
ic c
ch ip
Ġv ice
Ġcl o
ag ric
Ġexp ensive
Ġcro cs
Ġev en
my stery
Ġemploy ees
Ġombuds man
p enter
p edestrian
s ons
t ual
Ġs as
Ġs ize
Ġp orts
Ġw ounds
ac ons
as zc
Ġr y
Ġch erry
Ġun ch
Ġgr ounds
Ġpar amedics
ich o
Ġbar ry
Ġdam s
Ġear n
Ġrob inson
Ġrecover ed
Ġlim ited
Ġfix ed
Ġshe pparton
Ġdaw n
Ġmull s
Ġsmuggl er
Ġperm it
Ġsit uation
Ġtact ics
m ort
n ic
Ġt all
Ġst roke
ian o
Ġun con
ard o
be yan
act iv
Ġsl ash
Ġsw ap
Ġdra matic
Ġpap ers
gar rett
emp ts
Ġfif o
tur kish
tro ops
Ġderail ment
a un
m aker
n ell
n ock
Ġs aga
at ican
Ġh es
ol es
Ġn obel
ac ity
un ami
Ġk new
em ark
Ġro t
Ġro ger
ell or
cl ark
Ġcor ners
pe ach
pro te
pro secut
Ġbur st
Ġsurf ers
cont rovers
Ġaut ism
Ġmax well
Ġexplos ives
n is
p ig
an ning
Ġp it
Ġo x
Ġr iding
Ġsh adow
Ġbl ank
Ġsc ale
und i
ban king
sp orts
iz ed
Ġfatal ity
Ġjun ior
Ġsuff ering
har vey
Ġmotor ists
Ġdig gers
Ġrecogn ise
Ġafford ability
Ġbab ys
Ġportra it
aszc zuk
g ang
t ry
w as
Ġs ad
ew en
ts unami
Ġy ard
Ġprot ected
gl as
Ġgl ob
Ġpress ures
Ġmus lims
Ġ8 9
Ġfer r
Ġx enophon
iran ian
Ġweap on
Ġintens ifies
Ġfeder ation
d na
g ard
m aster
p ra
Ġf um
ul ate
Ġj ac
Ġmin imum
Ġsl ows
Ġref use
uck land
Ġso ars
Ġlif es
oph er
Ġpot ter
Ġsecre ts
Ġform ula
Ġmotor bike
dou ble
Ġpig s
l ights
x on
Ġp a
Ġin put
Ġh ob
Ġg ym
oll s
Ġne ck
Ġsl ug
wh el
umb s
Ġrev ival
Ġmag n
develop er
Ġbound ary
Ġrehab il
Ġproduct s
terror ism
Ġdetain ee
e or
r ence
an beyan
Ġb os
it land
ist ics
end erson
Ġfl oor
og ue
Ġtr uth
app eal
Ġdec ades
Ġcentre link
az on
Ġcycl ists
Ġic c
Ġmcc arthy
anch e
Ġaim ing
Ġacad emic
Ġcarry ing
Ġhik es
Ġdred ging
b id
b ut
n ament
Ġm ah
id ays
ch opper
Ġde an
Ġsh ops
man ly
ish ing
Ġdis rup
act ive
Ġsl ater
Ġcons p
Ġsm elter
Ġear nings
pre ad
cycl ists
ides pread
Ġenc ounter
Ġhay ne
Ġkidn ap
trad itional
Ġafford able
stan hope
Ġdrun ken
b oll
j un
m d
r at
s um
u ana
Ġt i
ge elong
Ġcon vers
Ġcl uster
sh ow
con ne
Ġbre ed
Ġhold en
Ġresp ect
Ġreb ound
my anmar
Ġdev il
Ġda ughters
Ġaffect ing
Ġencoura ged
Ġuns ure
Ġbelie ved
c ut
g oulburn
ar f
Ġg ears
Ġfor esh
ol ly
Ġl ou
Ġde ployment
Ġbe azley
Ġcl ock
ps ey
Ġfire fighter
Ġexp anded
Ġph arm
ai i
rit or
her itage
Ġiran ian
mag pies
dead line
mill ions
Ġmum s
nurs ing
Ġhamp ers
Ġramp age
trad ers
fair fax
inos aur
Ġknock ed
c ooper
Ġf ry
Ġf inger
Ġr ips
Ġv ine
Ġmay ors
iz es
Ġoper ating
mor row
Ġest im
Ġbal cony
grow ing
girl s
Ġho ax
Ġsniff ing
Ġrav aged
h u
k ir
in fl
Ġo z
Ġr ic
Ġon going
ab a
der ness
em s
ne pal
Ġal ready
Ġset t
ile aks
Ġvis as
Ġpat el
Ġmor gan
Ġsen iors
Ġemer ge
Ġmer gers
Ġcur r
Ġrenew ed
drug s
Ġdeter mined
Ġrepublic an
fil m
committ ee
prote as
h ai
p i
s port
in ner
Ġp ray
ou ston
Ġw ickets
Ġh atch
le ys
land ers
Ġcar lton
Ġwa its
Ġtour nament
ones ias
Ġbeg a
Ġrel igious
Ġadv ent
bush fires
Ġent ry
Ġdire ctors
Ġtw ins
Ġcredit ors
Ġcrush ed
Ġfeed back
Ġisol ation
Ġdowngra ded
i op
Ġp od
Ġin tegr
Ġl ying
Ġre z
Ġsh ape
Ġspe aking
win ter
Ġstri king
Ġcoll ingwood
Ġroyal ties
Ġpen gu
fish ers
Ġwheat belt
susp icious
Ġbott om
hot el
tro pical
Ġinn ovation
d ollar
l u
p ow
p ap
Ġto ok
ill ance
Ġsp urs
Ġun known
Ġab ol
od a
Ġcomm od
Ġmin utes
Ġset tles
min isters
olog ical
yl an
Ġap art
Ġups ets
Ġminer als
Ġmort gage
keep ers
Ġsew age
Ġembar rass
e en
m ike
s or
er ies
Ġc cc
ic ultural
Ġh q
il a
ow an
Ġv ale
Ġcon ver
Ġsp okes
Ġcont ained
Ġcall ing
Ġter ry
Ġprotest er
Ġdec ider
Ġcap acity
Ġdem on
Ġcost ing
Ġland mark
Ġsal ary
Ġstaff er
Ġval ues
high way
arra f
Ġdev ice
Ġlic ences
woods ide
viol ence
Ġconfr ont
2 1
g reece
Ġc ia
Ġre ally
un un
Ġro s
Ġco le
Ġra dar
Ġatt empts
Ġfire fighting
Ġpres idency
Ġdisc ip
ok ed
Ġbut ter
Ġtit les
Ġsix th
Ġburn ett
Ġfig ure
Ġcoff ee
mus lim
emb ly
Ġiniti ative
steph en
b uck
k elly
m ail
n ap
Ġc ough
Ġc ope
Ġh ell
Ġg ymp
ab ilities
Ġpr icing
Ġwar ne
Ġcar ol
Ġback ed
sw ine
Ġph ase
Ġsuper annuation
Ġstand ard
gold en
Ġblock ed
Ġbatt ing
Ġlog an
spe ed
beat en
uj ah
Ġdere g
f ly
re ts
att ers
Ġpar ent
gr ant
ik ileaks
Ġleak ed
Ġgener ations
Ġcy cle
Ġscra ps
Ġadop tion
Ġprosp ects
sold iers
jer icho
Ġbackfl ip
Ġgymp ie
n ato
r ise
t ake
u z
in ds
Ġp oo
Ġo l
ro se
Ġre acts
Ġr and
Ġr sl
Ġfl ames
con i
Ġsch u
Ġcent enary
Ġtal ent
Ġeconom ist
Ġsub st
bro ad
Ġstay ing
Ġdisp utes
Ġ25 0
Ġinfl ux
Ġarm idale
bun bury
Ġf rog
Ġd ip
Ġm un
ro ddick
el ps
Ġcon cess
Ġpl aced
out ube
Ġcl ay
end ul
Ġbr ush
Ġsc ulpt
Ġact s
Ġmilit ant
Ġship ment
Ġfinish ed
Ġsurpr ises
Ġrecr uits
Ġelector ate
offic er
Ġfrank lin
Ġintroduc es
Ġ66 6
acons field
f eld
k ookaburras
Ġb orders
Ġw aves
Ġg oogle
Ġr ip
ad ic
Ġsh ell
Ġle aks
be ckham
he y
Ġpar ramatta
Ġaction s
ade quate
Ġsal t
work er
Ġrich ards
fre mantle
spring borg
Ġentit lements
s ail
in als
an thony
ing u
Ġto morrow
ri ans
Ġover crow
Ġout age
Ġwar ren
res ources
Ġph ys
Ġpres idents
ugh an
gre y
Ġinf ection
rudd ock
char ge
Ġbow ling
Ġep id
ev ans
Ġwet lands
Ġcooper ation
Ġhapp ened
Ġmult iple
b os
c ross
g ium
l s
n at
r ith
Ġt ibet
Ġs igning
Ġf ields
Ġw re
ur anium
et ri
Ġcon st
Ġpr ide
its ch
Ġtr ue
Ġwater front
bl ood
Ġsusp end
sp anish
Ġcontract ors
Ġep a
cro cs
Ġjet ty
short en
h it
p rom
ar n
ar on
Ġm ate
un certain
ad ows
um ble
Ġwh istleblower
Ġsl umps
ink ler
Ġbill ions
Ġgen e
Ġlist ed
Ġsan ct
arct ica
ux ury
Ġphotograph er
Ġbelie ve
camer on
Ġwif es
Ġcinem a
emark et
b od
j ay
l ucky
s cor
z u
on ent
Ġp in
ill y
Ġse lect
ian a
Ġtra uma
ax ter
Ġupgra ded
char ity
Ġpip e
Ġgri p
Ġpsy chiat
Ġwheel chair
Ġgriff in
Ġunc lear
Ġpurch ase
griff ith
Ġcorrespond ent
f ton
Ġt ick
Ġm ourn
Ġw ire
Ġto y
Ġg a
ang hai
Ġcomp ass
Ġste ven
Ġbra ve
call um
Ġtrans par
Ġhol idays
Ġswim mers
bel inda
Ġmess ages
Ġmeat works
hen ry
Ġstall s
Ġtwe et
Ġrank ings
dec ision
Ġniger ia
ih ad
propos ed
m ack
al ed
Ġp att
Ġd ial
ou cest
Ġfor rest
Ġr iders
Ġab u
Ġal i
Ġby ron
Ġatt ention
ban ana
Ġrun ner
Ġend ing
gl en
Ġed itor
Ġturn out
Ġhol lywood
Ġboss es
Ġspr int
Ġshe pherd
Ġallow ance
Ġexpect ations
lock yer
bow en
Ġcontra ctor
p ear
an ne
Ġf urn
il iser
Ġn est
Ġth ose
ak y
Ġman chester
br id
ott est
gra ce
Ġfund ed
Ġdel hi
by ron
Ġsaf er
Ġtax es
Ġkn own
Ġins ists
Ġfil ms
Ġang lican
Ġroll over
inter net
Ġmet ro
Ġrat ings
Ġoutra ge
web ber
Ġunch anged
f eral
m akers
r fs
Ġs cept
an ner
Ġf ury
Ġf oods
el ves
Ġl ung
ig ation
ul y
Ġover come
Ġrec overs
Ġgo als
Ġext inction
Ġed wards
tasman ians
ste ven
Ġpot ato
mag istrate
Ġbase ball
Ġhab it
Ġdeclar ation
j osh
Ġp ist
Ġh ate
Ġh art
Ġth ump
Ġpr oud
con ference
se cre
Ġen rol
Ġte a
Ġim peach
Ġreach ed
den berg
bur st
Ġreported ly
Ġreloc ation
Ġsubsid ies
Ġcou ples
Ġsquee ze
5 00
b attle
c bh
g s
z ar
Ġt ab
Ġc ert
it arian
Ġk akadu
um acher
Ġbe es
ag ree
Ġsl ight
Ġ3 2
Ġdam aging
ij uana
Ġwatch ing
Ġlic ens
Ġfo ley
Ġcru ises
Ġnom inations
Ġplun ges
elt ic
Ġsmuggl ers
Ġgrey hound
gib bon
liv estock
endul kar
e aster
Ġp ork
Ġd ow
ro p
ol y
Ġn ut
Ġl ash
vi ation
Ġapp ly
Ġrem inder
Ġtal king
ll s
Ġsearch es
Ġrob ot
Ġdevelop ers
Ġemer ges
Ġel im
Ġinf ect
Ġdismiss al
Ġgall ipoli
protest s
Ġexam ines
Ġshr ugs
Ġunc overs
Ġqualif ying
Ġassass ination
unun urra
Ġt onga
Ġs ab
Ġc ult
en h
Ġd aily
it ime
Ġr ann
ab ly
Ġun earth
aw ard
Ġdef y
Ġsur render
Ġsl ipper
itt ers
Ġpush ed
Ġreject ion
Ġdar ren
Ġpolic ing
mo il
mor rison
sl ow
prison er
hel icopter
Ġemp ty
Ġpione er
zu ela
s ar
t onga
w el
w ach
Ġt ed
Ġp ac
Ġw ear
Ġw anderers
ur ban
ast y
ach lan
Ġgu y
Ġsw eeps
omb uds
Ġgra m
enn a
Ġgreen house
Ġbel t
Ġclin ch
Ġwr ight
pakistan i
Ġmedic ine
Ġaband on
afghan istan
Ġcir c
Ġburgl ary
jet star
Ġdestr uction
c fa
q ch
in cre
Ġp ic
Ġp ink
am ous
ag h
Ġbr it
ff a
Ġserv ant
Ġam end
Ġbill iton
Ġterror ists
Ġstart ing
Ġfront bench
Ġdecl are
bur ke
Ġfoll ows
Ġcoun ts
Ġperm its
Ġchoos e
Ġcampa igns
oucest er
l op
Ġt ennant
Ġh ire
all ed
Ġpro secution
qu it
aw e
Ġad f
ass i
wa it
Ġinter cept
Ġplant ation
Ġwind ow
child care
oul try
Ġcommitt al
Ġcanc el
don alds
Ġtor res
Ġmck enzie
Ġincent ives
Ġsurve illance
Ġrelie ved
j an
k iller
v aile
Ġs ending
es perance
re x
Ġl ady
ch in
ge off
Ġcl p
od onga
ind ustrial
Ġreg rets
can nia
gl adstone
Ġexpl odes
Ġbri bery
deb ate
Ġadvis ory
f ro
f ox
h as
Ġt am
Ġc ells
Ġb ias
Ġm yer
Ġin ner
Ġst ewart
sh ops
Ġab using
cc c
Ġbl oom
Ġmin i
Ġhop man
Ġdec isions
Ġpass ed
Ġaff ects
Ġexport ers
fe ed
Ġexc ited
foot age
erem y
Ġalex ander
Ġrecon ciliation
cust oms
Ġfoss il
memor ial
c ub
j ason
l ost
an alyst
Ġp act
Ġr ou
ri en
Ġun if
ud ing
Ġres pite
ty phoon
Ġdef ies
Ġiraq is
Ġbro thel
Ġprepar ations
Ġregul ator
pan thers
Ġpict ure
Ġresident ial
Ġembra ce
Ġaddict ion
Ġeleph ant
Ġepid emic
h s
or igin
al an
Ġw ield
st re
as i
Ġr anges
and y
ir t
Ġk h
ut o
em ont
ine hart
Ġco ord
ie u
ang le
Ġcomp ulsory
app ro
par is
Ġball oon
Ġswim mer
Ġever est
Ġdeter mine
Ġmcg owan
part ies
Ġrepl aces
Ġtemp orary
Ġgh ost
bath urst
c ope
h ind
Ġw y
Ġg ag
Ġl pga
Ġch ef
Ġpl um
pl ate
Ġcrash ing
br is
Ġbar ca
Ġcount ing
Ġed en
Ġrob bers
Ġtrans plant
tas k
Ġdiv ing
Ġpub lish
Ġtight ens
Ġrecall ed
politic ians
Ġdeport ed
Ġrepe at
veter an
mex ico
ombuds man
c mc
l ane
m h
n ames
u i
Ġp ets
Ġb our
Ġh ind
ac ulture
Ġv oices
ce lebr
Ġj en
Ġpr isons
Ġmar oons
he im
pr ise
Ġgo at
Ġdies el
fl ash
wh en
Ġcampaign er
Ġmor atorium
let ics
cess ary
pal m
Ġgreat est
Ġorgan ic
susp ended
retail ers
ci ardo
gro ve
Ġbang kok
Ġdir ty
Ġsewer age
infl ation
j on
w ent
an ic
an ia
en glish
Ġb ah
Ġin adequate
Ġhe ist
Ġfin ances
Ġfl own
Ġte xt
Ġim minent
ze ch
uc a
Ġpres enter
Ġel ders
Ġgrand stand
cr itic
fish erman
iet ersen
cass idy
h on
y on
Ġm ira
st abb
Ġn asa
Ġre ason
ig ines
um n
Ġsp ared
Ġoff ices
ff ield
Ġmiss ed
Ġchild hood
Ġreport ers
Ġdeal er
Ġpres e
col omb
Ġang el
ura h
Ġcanc ell
Ġspecial ist
mac callum
keep ing
Ġbure auc
Ġhod g
witness es
Ġfier y
Ġbrut al
c ould
d ire
f ds
m outh
Ġt win
ro berts
Ġre cons
Ġy arra
Ġag ents
its ub
cer y
Ġbo ating
cre an
dr one
Ġass et
Ġins iders
bre xit
mur doch
Ġlob bies
cs g
Ġnom ination
Ġram ps
Ġhaz ard
Ġsurr ounds
Ġcron ulla
d anger
l ord
t v
Ġa uckland
Ġm ath
Ġm umbai
Ġh orn
Ġfor ms
Ġn ature
Ġl an
con nor
Ġbush land
Ġbar naby
Ġreview ed
Ġsk illed
Ġfoc used
Ġcast le
Ġpub s
Ġcaptain cy
Ġencoura ge
Ġexplain er
gall op
dep uty
Ġconsp iracy
i ency
m un
m art
Ġp ile
ra ys
Ġg onski
ur gent
Ġch osen
Ġv andals
Ġind ust
ish i
aw b
aw are
Ġop inion
Ġwork force
br umby
Ġtur tles
Ġche aper
cycl ing
Ġlow est
udge e
inc up
Ġdrow ned
cont ract
Ġdist ur
Ġgraz ing
Ġintroduc ed
lar ge
Ġdepart ure
milit ary
Ġtorn ado
Ġdolph in
Ġdefe ats
Ġats ic
lus coni
Ġprese ason
t alking
u ay
Ġt uck
Ġc ath
Ġf aster
Ġf ewer
Ġb ones
ang ry
ard on
ke ys
bl a
Ġreg ime
Ġla ugh
Ġear lier
Ġbuild ers
Ġprepar ing
Ġwal sh
Ġvacc ination
Ġblock ade
Ġcreat ing
Ġbound aries
Ġsyn d
dec ided
Ġacad emy
Ġalloc ation
Ġprin ces
d oc
r um
Ġa ur
Ġm ud
Ġin e
Ġin aug
Ġst ats
am nesty
Ġj ewell
Ġsh aw
Ġun decided
ens en
sh ots
ict ed
Ġtra p
af ter
ool a
att ack
enc ed
Ġrem arks
vict ims
Ġtur moil
Ġrev ised
Ġq atar
bro ke
rad io
Ġroads ide
Ġmajor ity
emic als
Ġken ya
Ġfisher ies
Ġje opard
Ġny e
Ġpromot ion
Ġresist ance
Ġgeorg ia
Ġscen es
chem ical
l ian
Ġs itting
ar senal
Ġa viation
Ġin land
Ġth ur
ch amp
Ġch ain
Ġv ers
ost on
Ġexp o
Ġtest ifies
Ġher oes
Ġlo ad
Ġcoll ins
Ġav al
cr u
Ġimpro ves
Ġquar ry
Ġmet al
stit ution
Ġtodd lers
mac quarie
Ġdist rib
Ġdiplom atic
ori us
Ġdocument ary
Ġdepos it
hing ya
etri ou
Ġsynd rome
f ans
k g
Ġs i
Ġc ul
ar ab
Ġm d
ro c
ch ool
ch etti
Ġj i
Ġpl ains
Ġsp ell
og an
Ġme x
Ġple as
Ġboom ers
Ġsim pson
Ġfair fax
Ġrecycl ed
c ad
l c
m aking
x enophon
or der
Ġp on
Ġm outh
Ġo live
us alem
as ons
Ġv ari
Ġj ockey
ess ional
Ġab duct
ree f
Ġpre d
Ġret rial
pe x
Ġrecord ed
Ġdiv or
Ġspark ed
Ġshar p
Ġmembers hip
Ġaw are
hist ory
fri ends
Ġadministr ator
Ġven ue
Ġuns afe
Ġhy p
jul ie
Ġinspect or
Ġjam ie
c ook
f le
g art
Ġs isters
Ġc ows
Ġp el
is ition
Ġfor d
Ġch ick
Ġv aris
ist ans
Ġro ma
Ġcont ent
Ġwh arf
Ġser ena
br ance
Ġfall ujah
Ġfe ud
Ġact ing
Ġhost el
pre gn
gun men
Ġmos cow
Ġslow down
sex ual
Ġvir al
Ġphil ip
Ġcomplet ion
Ġvent ure
ici ary
sadd am
Ġrehabil itation
Ġestim ates
Ġmex ican
Ġvaris chetti
c ot
m it
Ġth ing
Ġcom a
ath lon
Ġad elaides
Ġus d
Ġacc ord
to xic
Ġwork shop
Ġser ve
Ġwe alth
Ġsw ord
Ġ3 3
dr unk
Ġtim eline
Ġkn ocks
Ġhur dle
Ġ8 00
Ġcontrol s
Ġ200 4
four th
Ġve gas
Ġgar rett
Ġtreas ury
Ġju venile
Ġpregn ancy
Ġexplo itation
m icro
u q
Ġa h
Ġb row
Ġo ak
Ġg iro
Ġl ater
Ġl oy
ch oices
Ġj ane
Ġthe ms
Ġover whel
Ġbe a
ry d
Ġcont ention
be ijing
Ġsl ashed
Ġdeal ers
par ts
iz za
Ġass embly
Ġsk ate
Ġpress ured
cent rel
Ġmus ical
Ġer adic
Ġadm it
Ġarri val
gold fields
add in
green peace
clos ure
Ġdiplom at
Ġker ry
mol ik
cab inet
centrel ink
f ill
m r
w ins
Ġt s
Ġd istan
Ġr udds
op er
ark ine
Ġwh ich
Ġins ulation
Ġel der
Ġpal ace
Ġits elf
Ġlock out
Ġwr ite
Ġmos ul
Ġrefer ee
Ġfat igue
Ġtum ble
Ġmoment um
fol k
Ġdisappoint ing
Ġsla ughter
Ġbub ble
Ġparad ise
bod alla
Ġthems elves
c ob
g aza
h ere
w ag
Ġw ash
il ds
Ġg od
Ġl ending
om y
th under
im id
ow en
os sa
Ġk ind
Ġcl ive
Ġfl ower
Ġdis adv
Ġplan et
cl ijsters
de v
ould er
gra ss
Ġpoll ing
Ġbul k
Ġhum e
bor is
sur v
mat ure
vent h
Ġequ al
Ġsuffer ers
hom es
Ġappla uds
shoot ing
Ġdemocr atic
Ġschu bert
e ys
h endra
l ennon
p ath
Ġt ears
an o
Ġd il
it als
ro oms
ac le
Ġl ength
ri ers
all ing
ak os
Ġv ene
Ġv intage
Ġsh ires
Ġun aware
Ġup holds
aw ell
od us
Ġcan not
Ġjo hns
ef in
gy mp
Ġac id
pri ate
wind ies
Ġhail ed
Ġhan eef
Ġestab lish
Ġocc up
Ġrez oning
itsub ishi
d les
h ole
l ant
Ġt ent
Ġf ell
Ġm ates
ro gers
ra ction
Ġn a
Ġre united
ver ton
pp le
Ġas ic
end en
Ġsu ed
Ġgr im
br it
Ġsl ides
ph oenix
we bb
Ġdeal ing
ey e
work ing
Ġcle ans
Ġabb otts
Ġbreach ing
Ġlet ters
Ġrad ical
Ġporn ography
Ġequ ality
Ġthrow ing
oop ing
Ġrequest s
Ġpopular ity
Ġsleep ing
Ġfirearm s
g ies
h anson
j ar
ar ing
Ġd up
ed ish
Ġw ip
Ġw aca
Ġg ig
Ġre vive
Ġsh anghai
op en
Ġand y
Ġdr ench
Ġcr unch
to y
Ġpre v
Ġdef iant
Ġmar ijuana
Ġbar celona
Ġpass ion
Ġstand ing
Ġmen indee
Ġhist or
Ġelect ive
club s
Ġthom son
Ġalloc ations
fisher men
Ġflaw ed
Ġmi ami
Ġwield ing
p ok
t is
w yn
Ġ ets
Ġa ck
Ġa sth
Ġm aul
ro ger
Ġe as
ter ia
ak h
ab out
Ġpro ceed
Ġhe ights
Ġcrash ed
Ġwe eds
Ġhealth care
Ġserv o
abb ie
Ġbill ing
cur ry
uk ush
Ġshould nt
Ġhaw aii
Ġcolle agues
Ġax ing
Ġwarr nambool
Ġisol ated
igg s
Ġarn hem
Ġsanct uary
d ivers
g om
Ġc ate
Ġp ier
Ġw ong
Ġin mate
el ift
Ġn in
Ġe ased
Ġoff ence
Ġwh its
Ġhigh lands
Ġset ting
Ġbro ke
Ġem ails
Ġlo om
Ġant arctica
ec og
dem and
Ġpredict ions
rock et
mil k
Ġbell amy
foot y
shar apova
Ġrank ing
Ġpir ates
Ġfro st
Ġapprent ices
gymp ie
b ure
c ambodia
g olf
s ent
t ong
in to
Ġf is
Ġd ed
Ġm s
Ġj ess
ut ing
ut ation
Ġwin ery
Ġal bury
ps e
Ġwh ether
Ġgr en
Ġmur phy
Ġisland ers
Ġflu orid
col le
sur ge
fun eral
Ġprem ium
Ġhapp en
Ġko alas
Ġcommunic ation
Ġovert urns
Ġwors ens
Ġfry denberg
Ġdemon str
Ġindust ries
b ia
c oc
g ary
l ower
z ai
Ġd ug
Ġm ugabe
Ġr anger
all ow
Ġle ve
Ġex odus
end an
ant arctic
Ġqu ot
ip ans
con ds
ins urance
Ġfir ing
Ġgra ves
Ġgra mpians
Ġste vens
Ġrest oration
Ġtim et
sc ope
Ġrob bie
Ġshould er
ced ent
tra ffic
Ġloc ation
ki wis
Ġground ed
Ġsurge on
Ġoptim ism
utt all
sim on
lab ors
controvers ial
b eek
c uss
g ulf
h man
m ens
s acked
w rit
Ġn ino
Ġn aval
im ble
ot y
ce eds
Ġsp ik
ens ic
ine e
sh ell
Ġsur fer
Ġgu it
Ġla ur
Ġplay ed
Ġbar r
ific ial
Ġtrans ition
Ġ6 00
angar atta
Ġdev ils
Ġdiv ide
Ġapproach es
idel ined
aud io
Ġell iott
Ġbatter y
bet ter
Ġpear ce
a is
d ust
j ik
p ip
r sl
Ġt ied
Ġt anks
an ie
en gers
ing ers
im p
op als
ith gow
Ġun its
Ġdis abilities
Ġdr ones
Ġan th
Ġback packers
Ġis nt
ned ah
Ġdeb ates
Ġrun way
Ġcoll ide
oph ie
Ġ200 7
Ġ200 9
gu ards
Ġdi et
Ġinc idents
Ġseiz ure
Ġsat isf
pat el
Ġhapp ens
thom as
Ġfol au
lob by
Ġment ally
graz iers
cliff e
wim mera
prosecut ors
ecog lou
b ys
s an
Ġt assie
Ġf bi
Ġb ry
Ġd re
Ġj ersey
man chester
sh aw
Ġind ic
Ġbr ig
ick er
br uce
Ġret reat
Ġmar g
co a
Ġcritic ally
fer r
Ġdon or
Ġ200 6
Ġboard ing
Ġclass es
Ġevacu ate
cept ion
Ġrap ed
pres ident
Ġos cars
Ġsever al
Ġapplic ations
Ġconstit utional
loc ust
Ġweb ber
ocol ate
Ġliter acy
b ott
c rown
d ish
k le
m ax
n urse
t aylor
w wi
x strata
Ġm ic
Ġto ads
Ġto mat
Ġh ouston
Ġth ri
Ġk u
Ġse conds
ag force
Ġqu ota
af rican
Ġbr umby
Ġgr id
air es
Ġmin eral
te chn
Ġend orses
Ġrep ay
Ġint imid
government s
Ġrecogn ises
Ġrefer red
Ġcivil ian
Ġcitiz en
Ġcontain er
croc odile
Ġcigar ette
Ġens ure
sum mer
Ġspokes man
c otton
e g
f old
k h
k os
m are
Ġs in
Ġf ew
Ġw idespread
Ġg iles
Ġn erv
oc ide
Ġus a
Ġacc use
att oo
Ġcor onial
bour ke
Ġsl ashes
pr in
Ġsw iss
Ġam bush
Ġpat rick
victor ias
hol der
Ġdiscuss ion
Ġsystem s
Ġpos e
truck ie
rich mond
Ġsight ing
Ġtem plate
Ġsyn dic
Ġump ire
ukush ima
e ing
g on
w r
Ġc ure
Ġf airy
Ġp itt
Ġb ud
Ġb ere
Ġw at
Ġh ottest
Ġo ats
Ġg ary
et names
est on
Ġan z
Ġwe ir
Ġbush walker
Ġbill y
Ġtim ing
Ġappro ve
Ġhur ricanes
Ġinv ited
elly fish
eng ine
Ġign ore
Ġband its
Ġattend ance
Ġpract ices
marsh all
Ġaccus ations
cred it
cru ise
etnames e
c ba
i us
t weed
Ġs idelined
Ġc ore
en cer
Ġd at
Ġto ler
Ġin tr
Ġg oods
Ġr ides
im f
ag ger
aw ood
Ġdr inks
de pt
act u
Ġev an
Ġbusiness man
Ġstor es
amed ic
sc ientist
let cher
Ġmach ete
Ġrush ed
Ġcens us
dp i
Ġfundra iser
Ġredund ancies
Ġpunish ment
d ate
m oon
Ġf ile
Ġb it
Ġd iversity
Ġo connor
ro e
st at
Ġst ack
ad ys
Ġde ploy
ow a
Ġun beaten
Ġtra ctor
ff y
Ġboo ze
Ġdo om
str anded
Ġdra wn
Ġtrain ed
Ġmer ge
rib ed
Ġic onic
Ġsnub s
Ġmist akes
hus sey
Ġii i
Ġastr ona
Ġ89 1
Ġasth ma
l amb
p ine
z ing
Ġt ilt
ar gentina
ar von
en ko
st ill
Ġg or
Ġl oo
Ġch emicals
Ġsh am
ast ron
ck er
Ġex cess
Ġdr ess
Ġrec re
Ġim med
Ġper u
Ġfail ures
Ġcol our
Ġche er
Ġ6 5
Ġpal aszczuk
Ġhal ves
Ġint ers
itz er
har bour
Ġhaw thorn
Ġshar apova
egypt ian
expl os
Ġbuff alo
je ff
Ġfert iliser
Ġovercrow ding
k ewell
m ul
p ic
u er
v ff
Ġl ama
Ġl isa
Ġr ift
th al
ew ater
Ġsh ore
man go
em akers
Ġco on
ag ram
Ġout come
Ġcar jack
Ġcont empt
Ġbo ots
enc ia
ib i
Ġgra s
Ġhill ary
Ġplant ing
may ors
istr ation
Ġ200 8
mc grath
pass engers
Ġeye ing
Ġegypt ian
Ġmas k
Ġneighbour s
Ġhort iculture
Ġfundra ising
Ġbump er
into ff
jik lian
t ure
w arm
Ġs ands
es co
is i
Ġg um
ch ers
Ġk m
Ġbr isbanes
ump tion
Ġunder age
Ġpar ental
Ġ3 4
Ġstri pped
Ġbank rupt
Ġbail ed
Ġsen ators
Ġlab el
Ġjust in
Ġmet eor
Ġaud itor
Ġbring ing
Ġdesc ri
Ġtwe ed
Ġdesal ination
Ġveget able
Ġprosecut or
viol ent
Ġwreck age
Ġexempt ion
Ġjer usalem
boll ah
secre t
danger ous
Ġthur ston
c ock
d ream
p ub
u ire
y emen
es cap
Ġf are
Ġb udd
ed ition
Ġm ir
it ect
il der
st own
ra bbitohs
Ġst ole
ter ra
man ufact
ess endon
Ġhe y
Ġbr un
br ough
ph ilippine
Ġsw amp
ah an
cur ious
anc ient
yl ie
Ġ19 8
Ġsign ed
Ġevacu ations
Ġrap id
christ ian
Ġnom inated
Ġcaps izes
Ġfitz roy
Ġbart y
Ġwon der
Ġamalg amation
Ġul uru
Ġpad ley
Ġimpeach ment
c ousins
w ire
w ant
Ġt ension
Ġc ri
Ġw icket
th is
Ġv ia
Ġair stri
Ġstud ies
Ġinvestig ations
Ġste als
Ġall en
Ġland care
Ġport ugal
mar oons
fr ank
so ccer
Ġboom ing
Ġshut tle
Ġspl ash
Ġarch bishop
Ġcarn arvon
Ġproduct ivity
tough er
igg ins
Ġdeliber ately
Ġdivor ce
b odies
d c
d fat
g ust
i os
er ved
ar ound
al oo
re public
sh ires
con io
Ġrec ip
Ġfr inge
Ġprot ocol
Ġgu ides
Ġper ry
Ġcost a
Ġtasman ians
Ġweather ill
Ġmake over
Ġpass port
Ġwall aby
Ġpos es
Ġtight en
Ġblow out
prison ers
Ġpurs ue
Ġadop ts
Ġencoura ges
Ġreduc es
Ġdemol ished
Ġvehic les
Ġmater ial
rif ic
Ġveget ation
Ġhung ry
Ġkem bla
Ġtranspar ency
a a
b urns
g am
i ar
m ys
s elf
v or
z bollah
Ġc ame
or ide
Ġa cl
Ġp ed
Ġm ood
it able
Ġh iding
am ps
ch y
ast s
Ġro e
Ġind efin
Ġcr ane
se ason
Ġcor rid
pro ject
Ġpower ful
Ġcanberra s
Ġchallen ged
do or
Ġfre es
Ġlat robe
Ġwil derness
Ġgather ing
walk ers
ple a
jul ia
Ġtemp le
Ġrevers e
c our
m od
Ġt ale
Ġs ense
Ġp yne
Ġb il
Ġb ells
ent on
Ġch anc
Ġde er
Ġk al
Ġra ms
Ġy ields
art ist
con n
Ġday light
gra pe
co yne
fl ight
Ġone ill
Ġcost ings
aff e
sydney s
opp y
Ġclub house
Ġfil med
Ġcust oms
atter ed
will iam
Ġber lin
Ġassist ant
Ġspre ading
cal ifornia
cost a
cons umers
Ġhang ing
Ġtwe ets
offic ials
sold ier
commission er
Ġameric ans
activ ists
uncertain ty
f ern
h ydro
l iving
m useum
r ard
r ors
y ach
Ġf ut
Ġd or
Ġre un
Ġre asons
as ia
Ġse eds
Ġbe head
Ġbe ckham
ess ions
Ġafter math
ap h
land holders
Ġind ex
vest on
ton s
Ġdri ven
way ne
can nabis
wom ans
Ġed uc
ops y
Ġsol utions
Ġgen ocide
Ġhand over
Ġent r
Ġship wreck
Ġhuman itarian
Ġlod ges
Ġswe pt
hay den
Ġqualif ier
Ġdod gy
Ġcertain ty
h ospitals
m ush
r ub
Ġs ounds
Ġc umm
Ġf oul
Ġb ears
Ġn uke
th on
ad ani
im ir
ri ot
Ġk ate
ak istans
op les
Ġacc ounts
Ġcomm uters
Ġattack ing
Ġpar rot
app er
Ġla under
Ġresc uers
Ġmc grath
ross i
Ġpil gr
Ġ100 00
Ġposs ession
Ġconvict ions
migr ants
Ġanger ed
Ġspring boks
shar on
Ġdaw e
bag hdad
Ġmas ks
Ġfro zen
volunte er
alem ate
Ġalb um
pow ell
stabb ing
Ġack now
Ġnerv ous
h et
h iv
h ail
l os
o id
o ks
Ġt ug
Ġs us
Ġd inner
Ġh ann
Ġl overs
ew ork
Ġk abul
Ġsh ear
ab use
qu ad
ug gling
cc i
Ġad ult
Ġfac elift
Ġbr ands
for med
Ġmiss iles
ys is
Ġboost ing
Ġbu oy
Ġdead lock
Ġfe eding
Ġ4 8
nr ma
Ġrock y
hol iday
Ġescap ed
jo ys
pal estinians
gu ilty
Ġmemor ies
kn ife
Ġovers h
invest ors
avi ar
Ġmach ines
bir th
Ġjud iciary
serv ice
part y
Ġker r
Ġexpos ure
Ġgib son
past oral
Ġslight ly
2 2
h y
h ost
j apans
Ġs ides
Ġf ib
Ġf elt
Ġb itten
Ġd ave
st ated
le ville
Ġn am
Ġl uck
Ġk ok
Ġj in
Ġj ihad
Ġcon voy
ear es
Ġcom edy
iss a
ang lican
Ġal ight
Ġne gl
Ġcor rect
Ġjo ke
ph ill
Ġinvestig ators
Ġgra ce
Ġbur g
ett el
Ġchrist church
cr im
Ġpull out
Ġinsp ired
migr ant
Ġkar ratha
Ġaband ons
Ġcontam inated
Ġprovid er
Ġcart wright
Ġcub a
Ġdeleg ation
Ġtamp ering
Ġintegr ity
scor es
Ġjewell ery
a ire
a erial
n ut
Ġf iona
Ġw ashes
Ġfor mal
ac ing
Ġl ie
Ġre x
Ġde bris
Ġcon gest
Ġres ur
Ġwar e
Ġsu ic
Ġpre mature
Ġen joys
Ġset back
Ġno osa
Ġmon itors
Ġrest art
Ġgun men
Ġmem ory
Ġhot els
ker ry
Ġdiv ision
Ġsurf ace
sl ater
Ġep ic
yn olds
play ers
Ġcrush es
Ġbuil der
adam ia
Ġaqu aculture
Ġdiagn osis
Ġtimet able
c ahill
j ac
z ard
z heim
Ġc ahill
Ġm aps
Ġpro ced
Ġas io
ens es
Ġra af
age ment
og p
Ġan u
ue fa
wa ugh
sp ir
Ġdeb bie
Ġ3 8
Ġrep utation
Ġgl itch
Ġ5 5
Ġdevelop ments
men ing
Ġcle ary
Ġmust er
Ġjun k
Ġbad ly
Ġsom alia
Ġoverd ose
b ond
g ree
s ale
t ennis
y u
Ġc atal
Ġf fa
Ġp up
at ia
Ġw w
Ġw ashed
el ing
Ġl uxury
as io
Ġr fs
id i
Ġth en
Ġch at
Ġv ide
em aker
Ġro man
Ġy outube
ang el
Ġind y
af at
Ġsc ram
Ġtr ent
Ġrem ind
Ġsw eden
wh ats
Ġkn ight
Ġclin ches
Ġburn ie
har ry
Ġsmall er
Ġstat istics
Ġlack ing
pri est
Ġbol t
Ġphill ips
poll s
fur ther
ums feld
esc ope
Ġcler ic
Ġsyndic ate
b og
c ong
j ak
s ir
s up
u pp
w he
y en
Ġc oo
on terra
Ġa erial
Ġd v
Ġh ood
Ġo be
Ġn av
ur i
ig el
ab ase
ab alone
Ġun paid
em es
Ġra ges
Ġattack ers
Ġgu est
Ġhas ler
Ġsub ject
Ġhot line
Ġmot iv
Ġtack ling
break ers
test s
Ġic on
Ġfootball er
Ġdevast ating
Ġyach ts
Ġprefer ences
journal ist
pregn ant
Ġbea uty
gom ery
c ry
p y
u ador
Ġf ab
Ġd aly
Ġg ates
Ġre vel
Ġr ust
Ġth ank
Ġv ess
pp el
Ġsh eens
und ays
Ġmur al
be an
Ġsl ain
ite au
Ġdel ight
Ġgra pes
Ġpo ppy
oy ster
az ing
Ġgl ut
tasman ias
cra bb
off s
hel d
Ġsar ah
mour ners
Ġrecons ider
Ġbere jiklian
b ot
c ambodian
e on
g ame
t ennant
Ġb inge
Ġd inosaur
Ġn ude
Ġl on
ur an
Ġr ort
Ġj ose
op t
Ġro m
Ġro okie
ell i
Ġpr ank
ang ing
pl ot
air line
Ġbo ards
br and
ern an
Ġserv ing
Ġpart icip
Ġtax payers
car lton
bre ast
Ġdon ates
sm oking
Ġrece ption
char ged
Ġclin ics
Ġu ber
Ġdrag s
Ġcrim inals
wild cats
overs eas
investig ations
Ġcat astro
Ġwid ow
esc ue
veter ans
conservation ists
salv os
Ġexperi ences
Ġhij ack
zheim ers
m ines
n n
n umber
v eway
Ġc ousins
Ġa ide
ch a
Ġun pre
ug itive
Ġhe ight
Ġal banese
Ġdis order
ass e
Ġgu ts
Ġref using
Ġpay roll
int a
Ġste am
no x
Ġqueensland ers
Ġlong reach
sm oke
Ġscott ish
Ġshar ed
wild life
Ġgang s
politic s
matthew son
ether lands
Ġuncover ed
urg ents
ele ctor
samo a
Ġcurr ency
Ġlaunder ing
a ver
b ennett
m ind
p erson
w on
w aste
Ġs ach
Ġc aviar
an alysis
Ġm og
Ġm la
Ġh oll
st y
Ġg orge
Ġn ats
im at
im ony
Ġsh i
Ġmar ines
pr us
Ġref und
by e
par amedics
Ġland fill
Ġblack mail
Ġmor an
Ġtrack ed
Ġval u
Ġgall op
Ġfle x
Ġfle es
Ġsubur ban
Ġsight ings
Ġrepl aced
Ġbond i
Ġpir ie
Ġbounc es
niger ian
diam onds
civ il
agric ulture
Ġcongest ion
b ast
m ugabe
n ie
r ation
r ina
t oll
on to
Ġf athers
en st
Ġb oulder
st uart
Ġl ismore
Ġst om
Ġsh ifts
co ach
Ġbu yer
Ġfe et
mar garet
Ġrate payers
Ġnight mare
Ġcur rent
Ġcricket ers
lad imir
Ġstra w
van stone
Ġlad ies
Ġglass ing
Ġloy al
d ad
e an
m ese
v et
in z
on curry
Ġp earson
is an
ac cept
Ġst opping
Ġon ce
ot o
all is
Ġk atter
Ġsp ends
em in
ov co
Ġcar ter
Ġman aging
Ġwill ing
Ġtest ify
li ver
gr oups
Ġph ilippine
Ġfinal ised
par alymp
Ġdou glas
ett es
Ġstart ed
ser ial
col in
Ġob rien
Ġelect s
Ġdire ction
Ġtun e
Ġage ing
Ġvir tual
Ġhus sey
Ġspir its
Ġiv ory
Ġremem brance
lat est
chan an
Ġoverturn ed
div ision
c fmeu
g bt
k atter
r ally
t assie
ar an
ar thur
en port
Ġb ury
Ġh mas
le ans
ol as
Ġn aked
Ġst alemate
Ġsp at
Ġro tt
Ġbl under
ip swich
Ġcar er
Ġdis grace
Ġrec ount
Ġpre lim
att on
Ġair ports
Ġev iction
can berrans
Ġdem ise
Ġvictor ians
Ġ4 4
Ġpen rith
Ġyouth s
health y
Ġagree ments
high er
reg ions
Ġfur ious
sn ake
crow ds
Ġalp ine
investig ators
hen in
Ġnegoti ate
Ġinspect ors
Ġinn oc
Ġwrit er
Ġbackl og
Ġsustain ability
Ġmicro scope
Ġameric as
boo st
Ġti wi
Ġconver ge
Ġsculpt ure
Ġscept ical
Ġinfect ions
l ain
l uke
m u
m oney
r d
s ide
Ġb aird
le banon
Ġl akos
un s
ir ut
Ġk el
ak ery
Ġpl ater
sh ane
Ġdis qual
arm a
Ġrem ark
Ġsw ift
Ġreg ain
ric ul
Ġmor combe
Ġfra me
Ġfil ming
her o
Ġflag ged
ram undi
Ġwithdra wn
Ġkid ney
Ġblue print
Ġciv ic
Ġbrief ed
Ġcorp oration
Ġmand ela
Ġfavour ites
Ġundergo es
Ġing lis
Ġoutra ged
lob ster
Ġding o
b ian
j ess
l ides
n athan
t ensions
w ong
Ġ il
Ġc fa
an agan
Ġw ider
Ġh aven
ro o
Ġst icks
Ġth ro
Ġch ases
ill ieu
sh er
Ġra f
Ġan ne
Ġcor on
te x
Ġdo le
Ġor leans
Ġbreak ers
sc ience
Ġseason al
Ġdevelop ing
Ġcrow ned
Ġ8 5
Ġabc s
ming ham
dis abled
Ġver ge
Ġcondem ned
Ġmcc ain
Ġdesign er
hus band
Ġprosecut ors
fest ival
Ġhort a
Ġgradu ates
Ġeffic iency
Ġbour ke
Ġdat abase
Ġchanc ellor
k m
l ished
m i
Ġt ian
Ġf ract
st ars
ak ar
Ġj apans
um e
ut to
Ġy ang
Ġres ett
Ġab le
Ġal epp
Ġsl ur
akes h
Ġlaw rence
gra m
gra ve
Ġblack outs
Ġmc donald
Ġleg ion
Ġdep ot
Ġinterest ed
Ġmag az
bb c
Ġhor sham
Ġdist ance
Ġkar l
week end
d ow
f bi
p ension
x ton
al ers
Ġh ip
Ġo t
Ġl u
et ime
Ġsh oppers
Ġat o
ort e
end angered
Ġres erv
Ġcar go
od i
Ġcra zy
Ġop al
Ġpre ference
ys on
pr ice
Ġworld wide
gr ounds
Ġpe oples
Ġend orse
Ġthr illing
eth ing
Ġbor row
Ġbul let
Ġbul lets
bor der
Ġax es
dav is
ko ala
Ġhay den
Ġmand urah
Ġlod ged
Ġwid ens
Ġpromot es
Ġpu zz
clar en
Ġdiagn osed
anth a
hack ett
Ġloo ph
Ġalepp o
c fs
n ies
y our
er ed
Ġb af
Ġm am
Ġm undine
ic ial
st op
Ġre ading
id ley
Ġse venth
Ġle ap
Ġad ani
Ġman agers
Ġwork choices
Ġen force
ave z
Ġdes erve
iz on
Ġdisc ount
car penter
Ġqueensland s
bar ack
Ġturn er
Ġ7 3
rad broke
Ġruss ell
Ġash ley
arra bri
gun man
pass enger
Ġrad iation
ograph er
Ġflee ing
Ġreduc ing
Ġbac teria
Ġforesh ore
Ġremind ed
g overn
r umb
Ġ els
Ġt amil
Ġf amil
ra pe
Ġsh ap
Ġaf oot
ath ing
Ġ1 20
Ġal ways
Ġcr usaders
Ġrec ent
Ġexp enses
ull ivan
act or
Ġinvest or
Ġwa ugh
sp ect
Ġdet ected
Ġ3 7
Ġgl enn
Ġkore as
amb a
any ahu
Ġap y
Ġflu ffy
Ġsign al
Ġmot ogp
Ġdiv id
Ġbreach ed
works afe
Ġuni que
Ġwool worths
Ġcre an
Ġeth ics
Ġven ues
Ġmary borough
Ġstrength en
Ġstan ley
Ġtriumph s
Ġdescri be
ricul um
p ed
w ellington
Ġa ven
Ġb enn
Ġb axter
Ġw rest
Ġw itch
il ia
le ctors
Ġg aming
ch ile
ew old
Ġk ununurra
oun ty
Ġse eding
ate ur
Ġsp ear
oc aust
Ġor ph
ex port
Ġcamp ing
Ġcamp ers
Ġ4 2
Ġsk ies
Ġtrans gender
ann an
hol lywood
Ġhal ted
Ġdon ate
Ġvot ed
sm art
Ġshe ffield
Ġcour ses
Ġescape es
Ġawa iting
Ġarson ist
Ġmel t
Ġrebuild ing
Ġdowngra de
Ġniger ian
Ġray ney
vot ers
Ġhabit at
Ġintercept ed
Ġcate g
Ġguit ar
Ġcorrid or
a qu
b ug
d in
f ail
g p
n ov
v ote
Ġt ill
Ġp ock
Ġp izza
Ġb ou
Ġw nbl
Ġh yd
Ġg dp
Ġre union
ast ics
Ġsp oil
if ying
ight on
Ġrec ounts
Ġdef ended
Ġam azon
Ġsm ok
Ġdec ides
bar nes
Ġgen etic
Ġtur b
teen agers
Ġma itland
Ġpos itions
Ġmag uire
Ġmat ildas
Ġscra pping
Ġcart oon
train ing
Ġdiffer ence
box ing
organ ic
Ġorch est
agree ment
Ġware house
i els
l ion
m aine
n ff
o i
p g
p ms
Ġ ipl
Ġt ighter
Ġt arkine
Ġp oultry
Ġb ore
Ġg ave
Ġl ies
Ġk iss
Ġk itch
Ġv ics
Ġj ellyfish
Ġar te
Ġbl ake
Ġ2 000
vi ous
Ġhe p
Ġag m
amp le
Ġter ritor
Ġinter vene
cor by
Ġass urance
Ġbur ial
sc ot
tr ou
Ġstabb ings
Ġ7 7
Ġgood es
oph ob
mo ore
Ġrecomm ended
fre ight
Ġpok ie
Ġpastoral ists
Ġoverd ue
Ġbern ard
electric ity
Ġtel escope
candid ates
Ġric ciardo
accept able
b age
b ee
k as
m ain
en ey
Ġd ish
ro oney
Ġst awell
oun ger
Ġv id
Ġsp ate
ens us
ug uay
Ġqu ell
aw a
cl ose
Ġbr ough
te am
Ġdri veway
Ġsupp li
Ġstr ang
fl inders
Ġexpl an
down pour
bro thers
Ġquestion ing
Ġpeace ful
Ġprocess or
Ġeff ective
Ġstun ned
Ġmeas les
paul ine
Ġstall ed
Ġmang oes
gen er
expl osion
tri ple
Ġredund ancy
Ġpow ell
Ġug ly
Ġtariff s
Ġfluorid ation
Ġsatisf ied
imat um
h urst
m ess
p in
q r
ar l
Ġb ald
Ġd rown
Ġd ancing
ic le
Ġg allen
Ġch est
Ġch ocolate
os ph
qu arters
Ġle on
aw s
Ġmar ia
Ġshow case
sp ots
war ner
do es
Ġlong est
Ġmet re
Ġless on
Ġprob ably
Ġreopen ed
Ġshel ves
Ġtrad ition
hor sham
Ġlamb ie
Ġdiam onds
brazil ian
quit o
Ġrou ge
Ġaval anche
spir it
akesh ott
m undine
t un
v it
Ġs idelines
ar u
Ġp t
Ġp av
Ġb aker
Ġb bc
Ġh utch
Ġh enderson
il roy
Ġr ings
and rews
Ġe agle
Ġch ilds
Ġro hingya
Ġwar wick
Ġan kle
Ġsc ient
Ġdef er
lic ens
Ġhouse hold
Ġhead quarters
Ġrep ly
Ġple ase
uk un
Ġminister ial
Ġlos ers
aze era
Ġtur f
fir m
Ġins ult
Ġins ider
Ġrisk y
Ġmc le
Ġcur riculum
Ġbel gium
Ġground water
Ġber ry
Ġvill a
hel p
coll ingwood
Ġnap lan
warr nambool
Ġcass idy
Ġleve e
m ichelle
o yd
Ġs ke
re ports
ed die
Ġw ag
ra ge
Ġl en
Ġv ets
Ġun le
ud a
Ġmar itime
gra ham
ats ic
istan bul
ille g
ik er
Ġrel atives
anc ed
Ġval ent
bre tt
Ġbel ieves
Ġjul ian
bor ne
Ġcompl ain
Ġi emma
Ġtechn ical
Ġmod est
han eef
oura ge
pat ients
Ġmach inery
mid dle
Ġclar ence
da ughter
Ġdiplom ats
Ġult imatum
cam el
mex ican
Ġjac ob
grey hound
manufact uring
enst am
d ump
l ara
m althouse
r onaldo
s umm
in ates
in stein
er ts
Ġt ide
Ġb und
Ġm cl
Ġw ipe
st art
Ġg av
el ty
Ġr an
Ġth umbs
ch ing
Ġj azeera
Ġle ts
Ġun d
Ġar row
Ġhe ath
Ġdis asters
Ġne ut
Ġschool girl
Ġair lift
Ġsn aps
Ġexpl ore
Ġport land
enn an
mal lee
sch eme
Ġ200 5
Ġcal f
har vest
Ġhaw ke
Ġcred its
Ġorgan isation
Ġimport ance
Ġjet star
Ġdevast ation
Ġfu elled
Ġpu ppy
hod ge
Ġsant a
kore an
Ġlicens ing
Ġimmed iate
ewold t
p ossible
Ġm ile
Ġto ward
Ġh ird
el ders
ol ves
ne g
Ġtra sh
Ġwh ats
Ġtest imony
Ġbus well
Ġreg istration
Ġpres cri
ven us
Ġclean ing
comm unities
mc ewen
Ġx mas
Ġinsp ire
Ġhaw k
gent ine
Ġreact or
Ġarch itect
Ġhopeful s
Ġgro ve
Ġconserv ative
resc ued
grain corp
Ġthink ing
parliament ary
want ed
Ġburg ess
elector al
b p
m is
t ab
w en
Ġs ne
ar oo
Ġp unt
Ġm oss
Ġh il
Ġo liver
st roke
ra af
Ġl ays
am an
th ine
ch el
ter ry
ter te
Ġpro stitution
um ents
ds ay
Ġle aking
Ġro ddick
Ġco ag
ne ighbour
ov o
Ġtra ps
af ford
oc ock
Ġback bench
Ġsch emes
att empt
Ġinter ference
app ell
Ġgra ins
cor ruption
Ġbar riers
str uggling
Ġsol o
Ġcelebr ated
Ġarri vals
research er
Ġovers ee
Ġwhy alla
Ġcreat ed
blues cope
aj a
motor ists
Ġengine ers
Ġresol ved
acqu i
kid n
Ġfet ches
Ġdial ysis
surv iv
Ġinters ection
f ty
r ession
on na
Ġp aedoph
Ġw ound
ic y
Ġh ale
Ġg os
Ġst ash
th es
Ġcl ients
Ġra h
ell acqu
Ġal bert
Ġfl are
Ġcar ney
Ġdis ruption
ash a
ib ald
back packer
Ġ4 3
Ġprom ising
Ġbut t
any a
Ġhand le
Ġel ig
cr usaders
Ġbash ir
Ġob st
Ġroll ing
business man
Ġcompet itive
Ġfo i
Ġhall s
pat rick
sal mon
umph ries
Ġincl uded
Ġdemol ish
Ġiv f
Ġthor pe
bas in
Ġdolph ins
Ġinject ion
medic are
Ġcolomb ia
Ġabduct ed
Ġexplan ation
2 3
f ewer
i ver
j akarta
l anger
y ou
ar re
re a
Ġm ouse
ing ton
is loe
Ġg addafi
Ġch ronic
Ġv atican
Ġsh earing
op oul
man y
Ġle hmann
Ġra w
ant on
Ġrec apt
Ġgr este
att led
Ġhigh s
ump back
get t
pr incip
Ġgrow n
Ġca ul
Ġpower ed
Ġsub mission
ken ya
Ġemer ald
Ġaccident al
Ġel ite
comm unic
Ġrece ivers
sy monds
law ful
mo thers
Ġharvest ing
Ġinsp ir
Ġcatch ment
Ġrout es
amer ic
Ġspring borg
Ġba it
Ġenter prise
Ġcir cle
Ġcontrib ution
Ġow ned
Ġanx iety
Ġpsychiat ric
stre et
cuss ion
2 4
k ed
m ap
Ġf og
Ġa aron
Ġp icking
Ġb oston
Ġm ich
el er
Ġn fl
ir c
ter y
Ġch al
ot al
Ġj eremy
ack i
Ġsh aun
ab attoir
Ġpl ain
if ul
Ġres il
Ġout line
ry lls
Ġind ias
Ġdr ill
Ġus ual
ind ias
Ġapp lies
com ment
Ġcons c
Ġgra fton
Ġsy m
Ġbreak down
Ġstre am
Ġturn around
Ġhom icide
Ġpass ing
Ġrev ol
Ġtoo th
Ġsix ers
Ġpng s
fall ing
bu y
flood waters
Ġath lete
cont act
Ġexecut ives
Ġbrazil ian
edest rians
det ention
trib unal
Ġabs ence
thom pson
Ġdir t
rah im
Ġarn old
Ġparalymp ics
Ġjew ish
ellacqu a
h ort
h mas
h ughes
l ang
m la
w ich
Ġc un
Ġb one
Ġd ating
Ġw odonga
Ġg ov
Ġg ws
Ġg earing
Ġg athers
Ġfor get
ver render
ow ler
Ġat lant
Ġle v
Ġro gue
Ġout burst
Ġtra gic
Ġcar pet
pl astic
att an
ull ion
ats b
Ġstr and
wh its
Ġgl as
Ġexpl or
Ġbur den
Ġ4 9
ann on
Ġfar es
Ġav oc
Ġcompl ac
Ġbik es
rog en
heat wave
Ġpow der
arrest s
Ġanx ious
Ġconcess ions
sail or
Ġdre ams
Ġmagaz ine
b ash
g ps
h one
u der
Ġ illeg
Ġc abbie
Ġb es
Ġd y
Ġd ob
ac on
Ġl ud
Ġst ero
Ġe ach
Ġk it
ia h
Ġpl ag
ens on
ap ec
ag han
Ġfl ares
Ġad ams
ick ers
Ġwater ways
Ġpol y
pro t
Ġdec ided
war ren
par ramatta
wh incup
Ġpark es
bar ry
Ġsk ull
Ġimp lement
amb ers
Ġsal inity
Ġmot el
Ġdon ors
Ġraid ed
Ġprepar ation
ret ired
Ġhard en
char les
well brook
super market
Ġoppos ed
Ġath letics
lib ya
Ġfrustr ation
she pparton
inf rastructure
winds or
Ġdisrup ts
Ġunif orm
e gg
f al
f acts
l ay
n dis
t endulkar
v illa
z one
Ġ ia
Ġt attoo
Ġc mc
on est
Ġp ul
Ġp ound
Ġb iting
Ġd ips
Ġn ose
us ual
Ġst okes
ch ef
Ġk han
Ġv oy
Ġj ur
oo ps
Ġun acceptable
Ġar r
ip art
Ġal um
od iles
ass ault
Ġmon key
ures mo
Ġpark er
Ġsupport ing
Ġalle ges
aul k
Ġprof essional
Ġpost al
Ġpost ecoglou
Ġart work
Ġhot spot
Ġhol mes
Ġoffer ing
Ġcelebr ation
Ġflu oride
Ġamid st
sch umacher
high lights
Ġimprove ments
Ġalleg ation
of arrell
Ġign ores
Ġsail ing
Ġtrail er
Ġalter n
pan el
Ġven us
va ughan
Ġpostp ones
Ġtele vision
just in
Ġvo ter
pap ua
Ġvide os
f oster
k ay
t alk
in cent
or ke
Ġf amous
Ġd ocks
ed ge
Ġin ev
ic ul
Ġst alking
Ġe co
Ġe ager
Ġj ol
Ġpl ight
ine es
Ġco des
iv id
av ed
Ġtra des
Ġgr illed
ick eter
Ġdef ect
Ġdown pour
com mer
Ġbu cks
Ġinter nal
Ġden mark
Ġplay ground
Ġshoot ers
Ġfar ah
Ġrev ellers
Ġdecl ines
Ġsing h
Ġshar emarket
Ġscr atch
Ġclar ify
Ġpoison ed
aud it
aud itor
ni acki
brad ley
gain ville
hal f
Ġrequ ire
Ġplat form
bart lett
Ġdil emma
itzer land
Ġentr ance
opoul os
d ist
d ark
f ear
g ah
k yrgios
p ulp
t enders
ar ily
Ġp ts
Ġm itch
Ġw earing
ing ham
Ġh ide
ro xon
st ic
ac ia
Ġl oot
Ġl gbt
un es
un ga
Ġst ages
th ouse
Ġv ar
Ġle ases
Ġco oma
ang lers
ach ers
ax y
co le
Ġor ds
Ġport fol
Ġdevelop ed
Ġmer c
unt a
su u
net ball
cra ck
Ġmotor way
ters h
long reach
aj ee
fre ed
Ġfox es
irrig ation
Ġguarant ees
Ġell is
swim ming
conf usion
Ġeas ier
Ġportfol io
5 7
d ays
i oc
r il
r idge
y p
Ġin appro
st ream
el g
Ġre ck
om an
Ġr ans
th am
th reat
th etic
all i
Ġwin es
be k
Ġmark le
Ġcor re
bl ind
com pet
gra ced
Ġper forms
Ġsouth s
Ġgra eme
cre en
Ġpay ne
Ġdet ective
Ġext ingu
Ġbro ok
str ing
Ġact ive
Ġgl oom
farm ing
Ġhur dles
Ġaccident ally
Ġroyal ty
pre m
Ġang els
Ġwild cats
Ġ9 11
mc g
Ġsack ings
lo ve
Ġdev on
gun s
Ġmet als
Ġdrag ged
Ġreth inks
fin ance
spe eding
Ġque anbeyan
Ġpunch ed
Ġclar ifies
endum u
Ġprior ities
Ġexpos es
Ġflo at
lif es
Ġunivers ities
Ġgym n
Ġpengu in
Ġdiscip lin
Ġmarg inal
g den
j ordan
m ok
t ob
Ġc ambodian
Ġw ikileaks
ing le
is y
ic um
il ee
Ġr on
Ġch er
Ġun lawful
Ġar cher
ip ino
ock ing
ock eys
Ġim f
li qu
Ġmed iation
Ġgre et
Ġ3 9
Ġmil ne
bar ca
Ġbut cher
Ġes c
hip s
ral ight
Ġposs ibility
Ġpeace keepers
har ris
Ġder ails
Ġremov es
Ġgall agher
Ġtrou bles
Ġrein stated
Ġrepe al
Ġnab s
ring ton
Ġstamp ede
Ġroberts on
dig gers
Ġdale y
Ġvigil ant
Ġpadd ock
Ġarg ument
som ali
Ġferr ari
Ġbah rain
Ġacknow led
Ġrom ney
g erald
p red
w anderers
Ġp iracy
Ġb out
Ġb usselton
re ward
Ġw ade
Ġw yn
Ġin action
ic ed
st hor
Ġg ol
Ġr inehart
Ġch ip
ri age
ak i
ge org
Ġex ist
Ġtra um
Ġcar cass
Ġind onesias
pl aced
Ġman ning
Ġpre t
br on
br ing
Ġann a
ond a
Ġher vey
cap tain
Ġent hus
Ġwall ace
Ġpropos als
na ut
Ġrow ing
dis aster
Ġburn ed
Ġexper iment
Ġdig s
haw aja
Ġhack ed
Ġtin y
Ġfat ally
Ġess ential
dep artment
Ġcomfort able
bern ard
Ġdereg ulation
tong an
Ġinev itable
gah lin
Ġpts d
sthor pe
b ab
b usselton
d ham
f red
g ames
m ural
t emp
Ġs our
Ġc fmeu
ar ama
Ġw u
Ġo bl
ro bb
Ġn aming
Ġn aj
ac ter
et ric
Ġst radbroke
Ġse ction
Ġthe ory
Ġsh ame
Ġsh oalhaven
Ġas ada
Ġpl ough
Ġar dern
Ġtra veston
Ġchar ter
Ġal ps
Ġcar rier
be aconsfield
Ġunder water
Ġshow c
Ġdet ains
Ġbar rett
Ġstri ker
Ġexpl ores
Ġrock ed
Ġlif etime
Ġmer cy
Ġinv ent
Ġpet ro
cr on
den mark
Ġpack ing
Ġpan ama
des al
Ġbatt ers
Ġpool s
press ed
swim mers
Ġcomplet ed
Ġech uca
Ġamalg am
jun ior
Ġpod cast
Ġcancell ation
Ġtomat o
Ġkok oda
Ġthro at
Ġcateg ory
k ill
m ills
Ġp f
Ġh inder
le hmann
ig ma
om pe
Ġr ib
Ġch oir
ct ic
Ġk or
qu eens
Ġbe c
Ġpl ug
Ġsp encer
od iversity
Ġnot es
pit t
Ġbo yd
Ġhigh landers
sw iss
Ġunder pay
ib ly
pro duc
Ġca iro
Ġbar gain
Ġit ems
head s
Ġ5 000
Ġsub division
fer ry
Ġart ificial
bus well
Ġint ent
jo hns
Ġang us
Ġob amas
Ġhum ans
Ġ100 000
Ġclass room
Ġmotor cyclist
Ġdrag on
Ġrudd ock
crow d
Ġbal let
Ġequ ity
pat ient
pat itis
Ġsmash ed
bill y
Ġlib yan
Ġmatt ers
Ġdeep ens
ustain able
del ay
Ġflo ating
Ġsepar at
exp ected
environmental ists
Ġchick ens
bure au
Ġbankrupt cy
Ġlooph ole
f li
n ba
o gh
t orn
v ics
v cat
w id
Ġc zech
on en
es ing
Ġf i
Ġp atch
at ri
ic ago
el in
us a
and an
Ġde gree
os car
Ġk r
Ġat p
sh oalhaven
Ġal zheimers
Ġag o
Ġfac ed
Ġsc alp
se afood
Ġapp les
de kin
Ġexp uls
Ġjo h
Ġcons ol
Ġgo ats
Ġroad works
Ġpo ker
Ġbut ler
Ġcoal itions
Ġtro y
Ġchrist opher
Ġ7 00
la ura
Ġint ensive
Ġbor is
Ġtruck ies
Ġelect ronic
ret ire
Ġeuro vision
Ġmis ery
bu ilder
Ġform ally
Ġmet res
Ġshar on
Ġaud ience
Ġever ton
Ġwood chip
Ġjump ing
Ġty re
sal t
Ġmult icultural
Ġgraz ier
jail ed
Ġpension ers
milit ants
Ġbot ched
coast al
ti wi
sil ver
Ġry der
Ġcommod ity
mush arraf
Ġarte facts
b ands
n ib
n ik
o ys
r in
r ous
r ound
y ear
Ġc age
ar row
Ġa i
Ġa er
Ġp c
Ġb m
Ġb itter
Ġb ounty
Ġm it
ac ular
Ġl over
Ġre ynolds
iv eness
ne il
Ġout law
ind i
Ġsur rog
ons o
ib o
Ġsw oop
ley ton
Ġgo ers
fire fighter
Ġinvestig ator
Ġdes k
ipp ers
Ġden nis
Ġpres ents
Ġdeb ts
Ġstri kers
Ġgl oucester
car thur
Ġthr ones
my er
Ġcoach es
Ġinf ant
au x
ram os
Ġturnbull s
Ġwil cannia
Ġmedic inal
Ġprop onent
cit iz
Ġliquid ation
Ġeradic ation
Ġcri pp
Ġkitch en
Ġairlift ed
c wa
e z
f ine
f mg
n ich
r inge
t oms
z i
z ak
Ġd im
Ġd ylan
le ad
ol s
ent ials
Ġch ains
ge ant
op era
Ġab uses
og il
own er
Ġwh ip
new sp
Ġsl owing
ther land
iz arre
ven sthorpe
mar athon
Ġgen ia
go at
Ġhol y
bre aking
Ġcross es
Ġdisp uted
Ġdoubt ful
rie ving
Ġperson nel
icop ters
Ġmour ning
Ġflo yd
Ġwrit es
Ġwrit ers
Ġvandal ised
Ġstan hope
Ġtouch es
Ġtrav elling
Ġcigar ettes
licens ed
produc ers
a ired
i ks
o cean
r h
t able
w at
in ator
er m
Ġc ree
Ġc ott
Ġin ver
il er
le aked
Ġst alk
Ġde ans
all as
Ġk l
ian g
iv ia
sh opping
ounc es
Ġfl anagan
Ġatt ends
Ġcan al
Ġne ill
Ġban anas
enc ore
Ġmon ster
abb as
Ġhar am
Ġir c
aul ts
Ġsuper markets
victor ians
Ġtreat ing
Ġreach ing
Ġinf est
Ġvol at
dar ling
Ġdig ger
Ġcow an
job less
Ġpick ed
Ġeth iop
Ġlad der
Ġrestaur ants
spring boks
treas ury
refuge es
Ġsnatch es
Ġbark er
Ġrelax ed
Ġlifes aving
Ġbrush es
Ġmira cle
Ġpon der
uq iri
toy ota
Ġvess el
govern or
g ment
u ch
Ġt yr
Ġs utton
Ġf y
Ġf ellow
re le
Ġd ict
Ġd ash
Ġd ual
Ġg y
Ġst al
Ġsh ir
oo th
out rage
Ġar ctic
ly on
Ġhe al
ach es
Ġsu ing
de ans
Ġtri athlon
Ġwest pac
Ġste er
Ġpres chool
Ġact ress
ik h
Ġrecord ing
Ġed die
aff ir
umb a
Ġmor eton
Ġweek ly
rain ian
Ġhol land
Ġq r
Ġdon ated
andal wood
Ġjul ie
yr s
mag n
Ġtreas ure
Ġcrush ing
Ġsand ers
far lane
Ġerup t
Ġkick ed
fif th
Ġinst agram
Ġten ants
Ġbrand is
bol t
gil christ
dig ital
Ġprefer red
Ġsac red
Ġratt les
renew ed
Ġlength y
Ġgren ade
cedent ed
Ġilleg ally
c up
d ick
d owns
g addafi
k an
l ismore
r ition
t ail
t amil
u els
w aff
Ġc eltic
ou ds
it ives
Ġre affir
Ġst ability
Ġk ewell
Ġv a
ab ortion
op oly
ut an
ath letes
Ġchar ities
og a
Ġdis gust
ins p
ins ons
Ġunder stand
ph ys
ph elps
Ġsw eat
ley ball
Ġpres erve
Ġrob in
enn ifer
Ġmen u
mon a
Ġmal aria
sun s
Ġ15 00
su cc
dis cover
fall s
Ġbox er
cher ry
Ġspl its
Ġlobby ing
Ġton nes
Ġmeas ure
Ġgro oming
Ġgam ble
Ġmort em
wil kie
hill ary
Ġwrit ing
Ġresist ant
Ġbart lett
Ġdepart ments
Ġbowl s
lat robe
Ġsaw mill
Ġdock lands
wim bledon
kore a
Ġspons orship
pent agon
wes farmers
Ġhast ings
Ġnich olls
Ġsubst ance
whe el
Ġharden ne
alli ative
d ok
p earson
w w
er ive
Ġf ully
re p
Ġd j
Ġm ason
Ġm ardi
it ure
ic key
Ġn as
Ġe ighth
ad eye
qu ality
Ġbe et
Ġbe irut
Ġun ne
ag en
ag assi
Ġra bbit
Ġby r
af ia
Ġtr u
Ġrem atch
ph ils
lic h
ook er
fl ower
gl ass
Ġfish ery
allen by
mar s
Ġrev ives
mon aro
Ġpet ers
lo yd
Ġdisapp oints
Ġton ight
Ġaut om
Ġstun ning
Ġmist aken
econom ist
Ġinspect ions
Ġcir cus
fort escue
Ġsom ali
Ġpension er
Ġfitz gibbon
Ġ45 7
Ġcock at
Ġrival ry
Ġescal ates
dun lop
Ġenrol ments
Ġexcess ive
Ġfut ures
Ġdevon port
h ed
i ac
k ur
n ets
w ans
w enger
z uel
Ġ :
Ġt enders
ar us
Ġp am
Ġm end
ic ester
Ġh ans
Ġo h
et ics
Ġr ents
Ġbe ck
Ġro oney
Ġco ve
ict ions
Ġag ri
Ġtr es
Ġret ention
Ġme ghan
Ġwe bb
Ġsupp lier
Ġstr ucture
Ġdes erves
Ġpe aks
Ġext ortion
Ġbar rel
Ġbar ossa
Ġhar rison
Ġir win
uk es
cast er
Ġrob s
Ġrob ots
Ġeconom ics
go ers
Ġins urgents
Ġspeed s
istr ates
Ġpack aging
lo ads
Ġve g
Ġident ifies
Ġ13 0
Ġgar bage
Ġrub ber
Ġerup tion
thur ston
Ġky oto
inn on
Ġmatthew s
Ġki wi
Ġpest s
bik ies
Ġfan ning
Ġfault y
Ġsurr ound
rate payers
Ġkir k
clar emont
spot light
Ġcommunic ations
Ġwent worth
Ġcontroll ed
Ġfum es
Ġconvers ation
trou bled
Ġcaul field
d j
d olph
Ġt pp
Ġc ess
Ġf ade
Ġp enny
ed on
Ġh emp
Ġl anger
Ġre jo
ig a
ter bury
up id
ber lusconi
if le
Ġy ounger
Ġfin ch
oc us
arm idale
Ġcr icketer
Ġop ts
Ġsc ams
und a
air n
be ck
sw ifts
Ġcor rupt
Ġcontin uing
cor al
Ġhouse holds
Ġrun ners
Ġhar der
Ġsn ares
Ġhear ts
tr umps
Ġcampaign ers
Ġchallen ging
Ġlif ting
Ġlif estyle
Ġdelay ing
Ġboy friend
Ġfront line
child rens
Ġcur tis
Ġ11 0
Ġtrib utes
comp uter
develop ers
Ġgri ef
Ġken yan
Ġexecut ions
Ġclark son
Ġpear l
Ġmont gomery
Ġoust ed
Ġpaint ings
Ġsac rif
Ġscholar ship
Ġadvent ure
sar ah
Ġsuic ides
scot land
fli x
9 0
d id
f ury
g iants
s as
s ad
s afe
s leep
t ch
Ġc ites
Ġf encing
Ġd ope
Ġd uff
ing lis
st al
Ġl loyd
as c
et ahs
Ġr onaldo
Ġe cl
Ġth wart
ch annel
Ġse cur
Ġnew ton
Ġbl essing
rom a
Ġal armed
Ġfac ts
Ġsc uffle
Ġsc ooter
Ġsc athing
Ġnot ch
Ġcomm un
uss els
be ing
Ġcor n
Ġpar amedic
Ġreg ular
Ġhar ness
Ġrest rain
Ġsn akes
Ġ4 6
Ġem ot
Ġdro pping
ken yan
Ġlight ing
Ġmc donalds
stru ct
ec d
Ġengland s
canberra s
gu ire
Ġabor igines
Ġpack er
Ġinsp ection
mor ning
Ġblock ing
christ church
Ġorgan ised
rel ief
Ġfle ming
Ġprov ince
bi osecurity
apple by
Ġexpress es
Ġwhit lam
epp oon
Ġsett led
Ġnin ety
aulk ner
Ġexpuls ion
3 5
h ams
i at
j c
j el
w c
Ġt ah
Ġs izz
or ious
Ġf red
en ka
Ġb ought
st ation
Ġch ol
Ġover comes
Ġsp ills
ark o
iv ely
ob e
own des
ind ing
de an
Ġmore e
co in
co oma
Ġmo k
Ġste ers
Ġpo aching
Ġhun ts
Ġimp erson
Ġdecl ining
gu antanamo
Ġstrate gic
Ġmu ds
comp anies
Ġcaps ize
euro bodalla
Ġdeliver ed
fra ud
Ġcook ing
Ġpriest s
fif o
Ġsoft ware
Ġow en
idd ings
Ġlas er
graz ier
conne x
Ġrand om
Ġvene zuela
opt us
Ġpock et
Ġorchest ra
ogil vy
g os
m eth
r udds
s aw
w ig
w ear
Ġ istanbul
an men
or ong
or ica
Ġb ast
re ith
re bel
Ġd pi
Ġm ug
Ġm althouse
Ġw ta
Ġl ind
id is
Ġthe me
Ġle eds
Ġsp ider
ag anda
end y
Ġtra ce
Ġdis charged
Ġcra b
Ġte eth
Ġair ways
Ġbu chanan
res ource
fl intoff
Ġfinal ists
Ġbar ley
iz ona
Ġhas nt
bar r
Ġpat ience
Ġcoll ie
Ġmilit ia
Ġinf ected
Ġfly nn
Ġroll ed
Ġjoin ing
Ġrece ived
break through
Ġ14 0
flood ed
Ġbri be
Ġcolle ague
Ġcover ed
Ġmist reat
Ġshr ink
Ġstrength ens
hur ricanes
Ġexplos ions
lif ting
Ġtemper ature
psy ch
Ġinstall ed
fij is
Ġprint ing
candid ate
Ġunearth ed
pip eline
het amine
dok ic
c oo
c ell
g ene
i aco
m all
r umsfeld
Ġt outs
ed onia
Ġw to
Ġg ifts
Ġfor bes
Ġn ice
Ġn aid
Ġn etherlands
Ġe k
ill ion
Ġsh er
um es
Ġpl ott
out ed
em otional
Ġco in
ath lete
ant aged
Ġup held
Ġdis closure
Ġbr ent
Ġwh eels
be cca
Ġcons umption
ll oyd
Ġpo et
car nar
pos e
hn ic
Ġhol ocaust
Ġchrist ine
Ġent ering
Ġval encia
Ġgood bye
Ġtre vor
Ġlist en
Ġnet works
ste el
ext reme
Ġhor rific
leg ic
Ġrub ble
Ġemp ire
Ġclimb ing
Ġbrad ley
Ġcens orship
ci us
Ġdeleg ates
Ġgut ted
Ġstret ch
mah on
Ġtuck er
jar ryd
arko zy
e bola
h ugh
h earing
k al
k em
t am
Ġs ophie
Ġp ent
Ġd ick
st ep
Ġof arrell
Ġde af
Ġk icking
Ġcon qu
qu et
Ġle igh
Ġcl ijsters
Ġsp ies
Ġsp erm
Ġro les
Ġro ster
Ġbl o
ip se
gh ans
Ġfl our
Ġbr ann
ough ts
Ġacc om
Ġwork shops
Ġunder world
Ġgu er
ib ati
iraq is
res ident
Ġadv ised
hol m
Ġhur ts
Ġtruck ing
Ġjohn ston
Ġvol leyball
Ġbow lers
fact ory
Ġaim ed
susp ect
six ers
Ġkar en
Ġemploy ers
kar zai
build ers
det ective
offic ial
greg or
hod g
Ġble aching
Ġcommemor ate
Ġsla very
employ ed
luc as
Ġrichards on
micro soft
Ġhistor ical
attempt ed
b one
d ies
d row
h appy
n aires
o ch
p ill
z oo
Ġ uefa
Ġt aint
Ġc ents
Ġm ichelle
Ġw is
Ġw and
it ely
st age
Ġl ures
ur k
Ġre wards
id al
and en
Ġj unta
Ġsh oes
um as
ia o
man t
ov ski
Ġfin n
Ġsc aled
Ġtr ends
Ġcan oe
Ġdef ender
Ġim prison
Ġbre eder
com pl
Ġwest s
pro duct
cre te
Ġact ed
Ġass ad
Ġsn ag
Ġland holders
Ġso le
Ġgreen peace
Ġstand off
Ġke ith
Ġer ic
Ġgrand mother
tra ctor
Ġmy th
que anbeyan
ose vic
Ġ16 0
Ġsim mons
Ġmcc on
hib ition
serv ices
Ġprim ed
Ġshr ine
Ġexplos ive
tw itter
Ġoffs et
Ġsalv age
Ġgradu ate
Ġpharm acy
Ġpist orius
Ġcert ific
prin cess
b io
j ockey
m ut
n om
s end
s ars
z ko
Ġs od
Ġf ukushima
Ġp edestrians
Ġm ersey
Ġo v
ra f
ra id
Ġg affe
Ġfor cing
Ġfor ensic
ol is
Ġre claim
un ts
Ġst int
Ġk eeper
Ġv aile
Ġover look
um bles
qu ick
Ġbe aut
Ġsp oke
em ics
Ġy e
Ġab o
Ġbl ed
Ġtra ils
over e
Ġcra ft
Ġbr ick
Ġpol and
Ġpay outs
Ġsaf ely
Ġca uc
Ġpower line
Ġgl im
Ġsk ip
Ġtrans form
Ġcond itional
Ġche ats
Ġwild card
bur gh
sur gery
school ies
vin ced
Ġqual ify
Ġcreat or
Ġlar ry
mag ic
Ġwinds or
Ġram ad
nor man
Ġradio active
Ġpalmer ston
tim eline
youth s
board ing
Ġquick ly
ae ologists
organ isers
Ġembra ces
cas ino
Ġsymp toms
Ġvac ancies
Ġapprent ice
Ġexcl usion
Ġrid icul
Ġcad et
sor enstam
Ġfurn er
wel come
Ġbud gets
Ġsuppli ers
Ġske leton
Ġneut ral
commer cial
Ġinappro priate
Ġtres pass
carnar von
b rian
e et
f ers
i bank
k ara
n ier
r ons
r ats
s ick
v atican
Ġt ahs
Ġc bh
Ġf letcher
Ġto ss
Ġg i
Ġg astro
Ġl av
Ġst upid
and ra
Ġth ir
Ġj ake
Ġse ab
up gra
Ġar gue
Ġy u
Ġchar acter
Ġcan ning
ink a
Ġsw ipe
Ġcamp draft
sc ud
udd en
Ġgun ners
Ġgun nedah
work place
ken e
Ġprotect ing
Ġcust omer
Ġmag net
Ġgay le
Ġbatt y
Ġexhib it
lib yan
watch dog
coll ins
mcc ain
Ġalarm s
Ġrepresent ation
Ġlocust s
rev amp
renew able
nat ural
Ġsab ot
Ġjeopard y
yach t
Ġrevol t
b il
g ab
t uck
w u
or o
Ġp inch
Ġd ates
Ġw angaratta
Ġre ins
Ġre app
Ġre construction
Ġre eling
as er
un ivers
Ġst er
Ġth orn
Ġcon n
ate mans
Ġun lock
Ġy es
Ġhe ck
Ġbr endan
Ġmin ds
Ġfarm land
Ġcomp uters
bour g
Ġbush walkers
Ġcro atia
Ġall ies
Ġvi able
Ġrep atri
Ġsk yd
mar ines
Ġprof ession
Ġfre ak
Ġfre ck
Ġang lers
Ġinterest s
Ġbir mingham
Ġyoung est
tra vel
Ġdise ases
Ġham mers
Ġstrate gies
fe eding
Ġbol ton
Ġphotograph y
Ġhaz elwood
Ġbatter ed
Ġhab ib
Ġliter ary
niger ia
Ġbrid ges
Ġtool s
Ġbrew ing
mort gage
Ġbreed ers
phill ip
Ġek ka
overe ign
b ang
b ump
m und
m oy
r fds
t u
v ettel
w ald
Ġc ater
Ġf av
al bury
Ġp aves
Ġm itsubishi
is ations
il ation
ro v
le ague
ra w
Ġl ance
Ġre prim
est im
ch allen
Ġde mer
Ġde parts
Ġas ean
Ġcl imber
Ġsp c
land care
Ġout put
Ġcoast s
Ġjob keeper
Ġla uds
Ġev olution
war zer
Ġbar ack
Ġdisc overs
Ġfail ings
ma o
Ġnear ing
ett a
do ors
eth iop
idge e
mo ve
Ġu ae
Ġgrain corp
Ġkid man
Ġslow ly
Ġbun ker
Ġlack s
Ġdomin ance
Ġgovern ance
uds on
Ġsight ed
Ġju ve
Ġvet o
fisher ies
Ġoy sters
wheat belt
Ġimm unity
pop ulation
mult i
Ġsid dle
Ġmush arraf
Ġroy als
mack lin
Ġinaug ur
Ġpremium s
Ġcarjack ing
b ry
b ons
b udd
i est
m ous
p aper
s elling
t el
t ale
y os
z or
Ġ ire
Ġc ba
Ġf ugitive
Ġa k
Ġd anny
Ġh ers
ra e
Ġl un
am ble
ad ministr
im pro
Ġse an
ain im
ap ers
Ġy asi
og m
Ġsc aff
Ġacc red
ind onesias
ull s
Ġsee ing
ord inary
ib bean
te xas
per u
Ġph elps
sp urs
Ġbar bar
Ġdem etriou
car ney
Ġ4 7
pos itive
Ġmor es
Ġleg s
Ġdav ies
Ġbul ld
gar ian
gress ive
Ġmod els
count ing
Ġnor way
Ġbi odiversity
Ġconsult ed
Ġaut umn
Ġhack ers
Ġther es
boat ies
Ġrepublic ans
cane growers
Ġspray ing
Ġperform ing
Ġgal axy
Ġdefe ated
Ġcampa igning
Ġkem psey
haz elwood
Ġpie ce
Ġhodg man
cour se
Ġorph an
yp us
prem iers
Ġbled isloe
j oint
s aff
t es
Ġs ure
Ġs ally
Ġb akery
Ġd ung
ed ral
Ġm ice
Ġw olf
Ġh oons
Ġh umphries
Ġg ob
Ġn it
Ġl ament
Ġst uff
Ġde e
ow ard
our cing
Ġv incent
Ġcon ven
Ġcon cussion
Ġle banese
ne ill
ub ar
Ġqu itting
Ġwar ship
Ġchar lie
Ġcar park
pl enty
Ġcont rad
ool ture
Ġsc ared
uss en
Ġbo on
Ġday er
ph arm
Ġstr ing
ones ians
Ġinter pre
Ġgra y
du ck
cre w
Ġwel sh
Ġbro ck
ank a
Ġstar c
Ġeast man
Ġimp ossible
Ġmor well
Ġrain bow
Ġemer ging
Ġ7 4
cy ber
tra v
Ġball ina
Ġmac donald
Ġdev ices
Ġdiv ides
Ġtw ist
Ġcred entials
Ġrevamp ed
Ġcour thouse
Ġlands cape
pay er
Ġtor rens
Ġlegisl ative
Ġgro cery
park es
offic ers
jul ian
Ġflo ats
Ġevery thing
Ġchoos es
Ġbuck ley
meat works
Ġfal conio
Ġdepos its
Ġglob e
Ġgram mar
Ġobe id
Ġnaid oc
Ġabo ard
kene ally
2 7
b ase
f onterra
k ate
k ylie
m ott
n an
n as
p arks
t una
w ould
w yer
Ġc ot
Ġf ool
ar it
ar ri
Ġb izarre
at ra
Ġd ur
Ġm udgee
Ġh sc
ra int
Ġg at
Ġn uttall
Ġl ows
Ġl ocks
Ġl ords
et own
Ġth ese
Ġch op
Ġon s
ri p
oun ge
Ġsh ower
Ġar ent
Ġab ort
Ġout class
Ġwin ton
Ġchar ging
aw son
Ġdef in
Ġunder standing
usp ine
by n
Ġhit ch
Ġprotest ors
Ġall an
Ġext ent
Ġsy ringe
Ġdam ning
gl enn
Ġlo ose
Ġtrans mission
Ġreb ates
ember ing
Ġtruck ie
Ġ9 5
dis app
char lie
Ġking ston
Ġtor onto
Ġdesc end
Ġcy prus
Ġjud icial
Ġdaw son
Ġip hone
Ġengine ering
lis a
Ġsurr enders
Ġwhit ew
Ġspons or
jam in
Ġpengu ins
awe ed
rays ia
Ġairstri p
Ġprelim inary
Ġbaf fl
bash ir
ipart isan
Ġreaffir ms
Ġmok bel
cius zko
a iday
b ou
i i
m ater
s ia
t otal
v ch
w ns
Ġt ame
Ġp bs
Ġp ietersen
Ġh ickey
ent ially
Ġr iv
Ġst oner
ri v
ve igh
ul ated
Ġj ama
pp ies
Ġover time
ort ium
op al
ut ies
Ġar th
Ġout ages
Ġhe aling
ass ange
Ġmin im
att orney
Ġwe instein
rest aur
Ġli u
ich i
Ġmo zz
Ġref lection
Ġtar ee
ald ives
sc ious
Ġshort list
Ġabb ot
Ġgreat s
law s
Ġru ins
Ġvacc inations
Ġsan ction
Ġbox es
inj uries
Ġprob ed
Ġreact ions
Ġmedic ation
Ġaut opsy
spe c
Ġelectric al
vol can
occ o
econom ists
Ġwoods ide
mel on
pot ato
tor res
Ġsudan ese
urg ence
Ġcron k
Ġdent ist
Ġfij ian
Ġphys ical
colomb ian
wwi i
Ġku wait
techn ology
sup reme
Ġunpre cedented
Ġaltern atives
mok bel
2 6
3 00
b rain
d ent
f ell
l ah
o ds
p el
p att
q awi
t win
on ly
es pie
Ġf old
al banese
Ġa z
Ġb od
Ġb are
Ġd akar
Ġin nes
ic ations
Ġh r
Ġh inch
il ya
ra mp
ig ion
ay a
Ġr idge
Ġse lectors
Ġpro ving
Ġpro state
qu in
der land
em iss
Ġra ck
Ġfin ale
ong s
Ġan ts
Ġcra y
Ġwh is
Ġte x
Ġtri alled
Ġhel icopters
Ġdef ensive
act ing
bl ings
Ġpol o
pro gram
fl orida
cor rect
Ġbar ramundi
Ġimp asse
me as
hol mes
Ġfre estyle
Ġke ating
bre aks
queensland ers
Ġafl w
ster ious
Ġmy ths
Ġ12 5
Ġdi ary
Ġsil o
Ġbull ied
yr gy
Ġshock ing
Ġblood y
Ġcre ation
wal es
Ġjump er
Ġexecut ed
rob in
hay ne
kat ich
fij ian
gam bling
Ġjin ping
Ġnegl igence
Ġmelt down
Ġsmok ers
Ġinspir ation
Ġesc ort
Ġenthus ia
a oc
b ble
e avour
h ul
i ot
m ach
o akeshott
p ietersen
r and
r ul
s ign
s li
Ġs overeign
Ġc ake
ar bor
al most
Ġw o
le um
ol der
Ġl ounge
Ġe ba
Ġsh ack
ate mal
Ġun usual
ne xt
Ġnew born
for ced
Ġwork cover
Ġcan berrans
be er
Ġme ga
Ġjo el
ther esa
Ġbra cks
ik k
Ġher d
Ġhold ers
Ġmor ale
do ing
Ġ19 6
Ġrev ital
acc ount
Ġpropos e
Ġer rors
Ġvisit ing
Ġint ake
Ġdrink ers
stra w
rig an
Ġfer ns
hold ing
Ġsecre cy
vent us
Ġvill awood
Ġgri ps
hous es
Ġpostp one
Ġmaster mind
Ġread ies
lyn n
Ġnarrow ly
Ġastr on
Ġblank et
Ġselect ed
Ġplum met
Ġproced ures
afford able
Ġbec ame
Ġcess nock
yrgy z
c ensus
e ed
f oss
r ights
r ta
s i
s ally
v ine
Ġc atherine
Ġb bl
re pr
Ġw es
Ġin pex
st s
st ory
Ġg ul
ol an
Ġl or
ur r
Ġre id
et z
Ġch an
oo y
Ġbe aconsfield
em ed
Ġro mp
ie v
Ġar izona
Ġy ield
Ġbl own
Ġbl atter
con e
for g
Ġsc our
Ġcan ker
Ġexp elled
Ġne cessary
Ġdef ects
get ting
Ġcons ulate
wh it
win ana
arch bishop
son ny
Ġcare ers
Ġeconom ists
Ġ7 6
Ġinv ites
Ġ8 8
Ġelect roc
Ġmis led
ker r
Ġpap uan
plan ned
Ġder went
Ġlear ned
yr ight
tur tle
cons ult
Ġacqu isition
Ġsky rocket
Ġprovid ers
econom y
Ġevery one
Ġprop aganda
pot ential
Ġimpress ed
Ġkat ich
Ġseas ons
Ġreign ites
Ġlyn ch
vot ing
Ġglob es
Ġwhits undays
Ġcumm ins
Ġshi ite
Ġunne cessary
Ġmores by
c art
c ode
d as
g c
m ic
p enny
s ed
u ar
w ikileaks
al der
Ġp as
Ġp ardon
Ġb aff
Ġd ili
Ġw oo
ro man
Ġg in
Ġfor med
Ġre es
Ġr up
Ġst ag
Ġe wen
Ġv inc
ist a
sh ake
ant ine
Ġres urgence
Ġal erts
Ġcar ey
od der
ind y
are z
Ġpre vious
Ġser geant
te le
Ġconf ession
Ġmon opoly
Ġdam ien
Ġalle ge
Ġce iling
Ġrel uct
Ġ5 0000
Ġimp oses
Ġmov ies
ann ah
Ġins ight
south s
Ġclaim ed
Ġfest ivals
ba illieu
Ġint el
Ġimpact ing
Ġclean er
Ġfer ries
Ġfraud ster
concer ned
off man
burn ie
uff les
christ opher
haw thorn
truck ies
Ġdu terte
Ġrepl ica
Ġrelation ships
Ġsadd le
Ġdivers ion
Ġburgl aries
Ġult ralight
just ice
Ġbot anic
Ġkat rina
Ġparalymp ic
Ġincent ive
Ġarg ues
Ġdamp en
mult iple
sat urday
tin y
Ġcasual ties
Ġblank ets
Ġdisadv antaged
Ġanth em
Ġreun ite
c atch
d ata
h enderson
n early
n obel
o an
o th
p ist
q a
v ang
er ic
Ġm ong
Ġm afia
Ġh addin
st ewart
el der
Ġn ob
Ġst ere
Ġsh oe
Ġcl amp
Ġsp itting
Ġro we
Ġro oms
Ġab lett
gh ost
Ġal so
Ġcar penter
oc on
Ġad apt
Ġback down
Ġatt raction
Ġsu c
Ġwh ooping
Ġtri ps
Ġser bia
Ġhel en
Ġdef ra
Ġdri ft
Ġsw itzerland
li am
Ġbu zz
ier ra
Ġmo ham
Ġref us
cor on
Ġvi ability
Ġbar nes
vict im
Ġbro oks
anc ers
Ġinterview ed
Ġrestrict ed
Ġadm itted
oon a
Ġvic ious
net on
Ġx strata
bu ff
gun ners
Ġqual ifies
ev a
Ġjudge ment
murder ed
Ġpunch ing
Ġengine er
enz o
hod ges
Ġpers ons
sever al
psy chiat
Ġpy thon
Ġlov ed
Ġnov el
Ġdal ai
itsch ke
feed back
Ġvers us
Ġjose ph
Ġcatastro phic
Ġacknowled ges
Ġmit igation
succ ess
ainim arama
f ev
h ob
n ley
r ush
t d
v ated
Ġt ables
Ġp ave
Ġw an
Ġw md
ic ates
Ġh os
Ġh aze
le en
le banese
Ġn ull
Ġr ife
Ġe arm
ew oman
ill i
Ġcl oning
ail ands
art ney
ction al
Ġchar ts
Ġfl owers
Ġgr an
Ġfr en
uc i
Ġsm ell
Ġreg ret
Ġdes igns
Ġpart ial
Ġcro pping
dr um
Ġhar sh
no osa
Ġso aks
Ġant on
Ġcol a
Ġdevelop s
Ġ19 7
Ġcle m
fr ustr
Ġmag istrates
sur fer
Ġattempt ing
Ġsnow den
Ġvill agers
why alla
Ġdrow nings
oura ble
Ġspecial ists
pil ots
rob inson
Ġencoura ging
Ġincl uding
Ġtable lands
org on
bail ey
Ġhod ge
Ġmol est
Ġsalmon ella
pra wn
Ġvine yard
Ġdistan ces
Ġtoler ance
Ġecl ipse
kem psey
Ġhers elf
repr ene
b ark
c eltic
e uthanasia
h oy
m ason
p oppy
r ant
in ating
es on
al ter
Ġa u
Ġp s
Ġb jd
at is
it ian
Ġn w
id a
ri or
all op
ds on
der ate
Ġra u
Ġsc oring
Ġsu therland
ass o
Ġbo il
br isbanes
ull rich
sw eet
Ġmar cia
ott i
gra dy
Ġsw ifts
Ġsex ist
Ġli am
co pper
ook as
itt al
Ġfe v
Ġrest raint
Ġgl ac
ik i
Ġ4 1
ific ations
Ġrob b
tr uss
Ġant icip
Ġred fern
let ter
Ġconsider ation
Ġdiscuss ed
Ġcelebr ity
Ġwind fall
png s
des perate
Ġvacc ines
Ġfur ore
hun g
Ġsurge ons
Ġ17 0
bn b
fe it
Ġconsult ant
Ġaut istic
Ġbott les
Ġtum our
Ġbirds ville
fo ley
Ġfol k
Ġsuit case
vene zuela
Ġtong an
mov es
fitz gibbon
Ġdup lic
pok ies
colle ge
nov ak
d eep
g st
m ake
m arch
o ak
y as
in pex
er als
Ġt aps
Ġt ully
Ġs essions
on ice
or ies
Ġa st
Ġm ons
ra ck
el ters
Ġst umble
th ir
Ġch in
all iance
Ġse qu
Ġcl ouds
em ade
if ting
Ġar afat
Ġab us
Ġhe zbollah
rom ney
Ġcar l
ish a
Ġacc eler
ale y
ib ers
ite z
Ġam b
ger rard
Ġinter rog
Ġmo or
Ġmed all
cor onial
Ġcase y
Ġdeb acle
Ġbar red
Ġsn are
Ġem ma
Ġkore ans
let ed
Ġart icle
rain fall
Ġhol es
Ġ7 2
Ġ7 8
bro ther
Ġtoo vey
sen iors
Ġrestrict ion
empt ion
Ġhum ble
inter vention
Ġbas ra
Ġnow ra
des ert
Ġgang land
Ġcreat ive
Ġimport ing
mill ion
Ġassoc iate
dan ish
wil kinson
Ġany thing
Ġrecommend ation
Ġfriends hip
Ġrevers es
Ġble ak
Ġvirgin ia
Ġreass ures
employ ers
Ġdiscip line
Ġpaedoph iles
Ġarr ange
Ġamalgam ations
vang ira
3 6
h os
i q
s ew
t aking
u cca
w ith
Ġs ims
Ġf ern
Ġb ish
Ġd ys
Ġd ame
ou st
Ġh ing
Ġth in
ch anging
Ġch ips
Ġch icago
Ġk ear
ul ates
ab el
ut tle
em nity
Ġtra cy
Ġfl ush
for bes
Ġsc an
ass al
Ġwh alers
ult y
Ġexp orter
Ġhel ens
br un
Ġim migrants
Ġsl ay
Ġsl ave
Ġcons ent
Ġsw edish
fl at
abb ed
Ġfinal ist
back packers
Ġhead lines
Ġneed le
car avan
Ġem u
ma itland
Ġpat ron
Ġent ire
Ġhow ards
cess nock
Ġcam els
Ġlow ers
bul lets
wall aby
Ġtrib al
clos ing
Ġmusic ians
Ġcash less
stit utional
Ġfootball ers
Ġmos quito
Ġbust ed
Ġnom inee
Ġbrown low
Ġdist ract
Ġhack ett
Ġexc ell
Ġbell erive
Ġcontain ment
Ġfavour s
rick y
Ġclimb ers
Ġta ipans
Ġthrash es
Ġaqu ifer
Ġchap man
log an
Ġflaw s
phil ip
Ġrequ ired
Ġscholar ships
Ġjar rod
Ġunivers e
sat ellite
Ġlou is
awe i
Ġmath s
Ġcore y
Ġpilgr ims
Ġdisqual ified
din and
discover y
bump er
Ġaccred itation
c ald
d ental
d rop
g ong
h ans
h oe
l ga
m em
o at
p u
p ur
p ink
p yne
v acc
Ġt b
Ġt ate
Ġc ream
Ġc fs
Ġf illed
Ġa ster
Ġp orter
Ġm apping
Ġm claren
it ated
it udes
Ġin und
ic ts
le on
Ġg aps
el izabeth
Ġr ant
Ġr fds
Ġst ones
Ġst eep
th ink
Ġv ind
Ġun expected
ell iott
Ġar u
Ġout last
Ġcar ibbean
aw r
ke ith
Ġcan nes
be hind
sw edish
Ġcomp an
Ġwom bat
Ġpol ar
Ġdel uge
min i
Ġdet ection
war nings
abb ies
gl ed
az ar
Ġland owners
Ġshoot out
Ġear ners
Ġdou bled
Ġgun ner
Ġsuper cars
Ġpress es
Ġhot spots
Ġke ys
Ġcrack ing
Ġdraw ing
Ġroll er
tra ck
Ġ200 3
Ġsucc ession
Ġcal der
aur ora
Ġliv ed
Ġbirth s
rem ains
gin ty
Ġmain land
Ġpaul ine
Ġaw u
Ġcaps icum
Ġexc ise
Ġemploy er
hist or
Ġshel ters
miner als
Ġadvert ise
Ġmul esing
Ġmont real
Ġkos ovo
Ġlag oon
Ġspect acular
Ġib rahim
Ġquot as
Ġintr uder
Ġdeploy ed
Ġastrona uts
conn en
Ġstom ach
Ġrott nest
Ġvoy age
onice va
ibers ek
b isc
f en
f it
f ocus
h orses
k u
m udgee
p ain
q lds
t ens
w aves
w ford
Ġt ast
Ġc and
Ġc ouch
Ġf emin
Ġa is
ol o
Ġn gu
Ġl ithgow
ter ritor
ad ona
Ġk yle
Ġj ab
Ġover fl
ber ries
sh ute
Ġres orts
Ġout breaks
Ġhe ed
Ġad rian
row ing
Ġman hunt
ound ra
Ġtr uss
ash ley
Ġret ired
Ġme chan
bl ock
Ġsw arm
Ġli ed
co x
ex hibition
Ġsy monds
Ġsent iment
Ġtrain ers
Ġperth s
Ġmem oir
Ġplant ations
Ġclaim ing
bus y
Ġfil ter
vir tual
Ġmot ive
mc donald
Ġpan els
Ġbegin ning
Ġactiv ities
Ġvan stone
Ġham string
rec over
share holders
Ġquarant ined
Ġgam bl
Ġfeed lot
Ġdesign ed
sing le
Ġtum bles
Ġcens ure
aco orte
Ġcontrib uted
Ġreloc ate
Ġcautious ly
Ġvac ant
Ġech oes
Ġkay aker
prim ary
Ġworsen ing
Ġfij is
Ġclo thing
Ġamend ments
Ġcath edral
Ġaccord ing
Ġoak ajee
Ġfis cal
Ġindefin itely
Ġfamil ys
Ġscient ific
Ġprescri ption
Ġplough s
citiz ens
a ids
b att
b utt
c ounter
d utton
e very
f am
n c
v oss
in formation
Ġs ized
Ġs udden
Ġc ourage
Ġf ul
al id
Ġp edy
Ġd uel
Ġd uties
Ġh ect
Ġh ugh
Ġn th
am azon
ill o
Ġv p
ast a
ast air
ast acia
Ġex its
Ġco y
ap olis
Ġy orke
aw k
aw ards
Ġdis arm
Ġdis ney
Ġdis placed
Ġan ch
Ġad e
Ġus er
Ġbo eing
Ġmo fo
ife x
Ġinqu isition
Ġmon aco
dr ones
Ġher b
cap s
Ġgas p
Ġart works
Ġmove ments
cess ion
Ġpra wns
Ġ200 00
Ġrece iving
Ġhard est
Ġnow here
Ġloc ally
Ġsec ured
mor ley
Ġtimor ese
dem etriou
Ġrenew al
Ġcatch ing
bomb ing
cont am
Ġarch ives
Ġexam ined
Ġmand ate
Ġbat on
tim or
shar emarket
Ġtraff icker
Ġju ice
Ġrein state
Ġdod ges
Ġneighbour hood
Ġimpress es
Ġintens ify
Ġditch es
Ġkur t
Ġneglect ed
Ġlas ker
Ġobs er
Ġbac on
Ġfrancis co
diam ond
Ġachie ve
Ġcarol ina
Ġcastle maine
Ġfib re
crack down
Ġconsol id
Ġrefus al
awr inka
g ive
m itch
p ell
q na
Ġs ara
an oma
en y
Ġp ocock
Ġb end
Ġd ixon
Ġm ock
st ay
Ġn arrabri
Ġn abbed
Ġth inks
Ġk ovco
ak is
pp ers
Ġcon crete
Ġle one
der by
ect ives
Ġtra der
Ġwin ston
Ġag l
Ġind emnity
aw n
arm al
und le
Ġcan terbury
Ġunder paid
bl ake
Ġsupp lements
Ġli z
Ġpark lands
aks in
Ġfe as
gl adys
Ġact u
Ġbur ies
cap itals
Ġbid ding
Ġes p
Ġsub iaco
Ġclear ance
Ġhom ophob
Ġrev oked
Ġstorm ers
Ġq na
Ġpremier e
stra uss
Ġren mark
bur ton
power ful
Ġcolle ctor
Ġdoc o
Ġmod elling
Ġbust s
Ġmu eller
Ġauction ed
Ġhamp ering
Ġec uador
Ġincl usion
Ġcommer ce
Ġguine as
Ġbright on
Ġbarra cks
Ġclo thes
sport ing
Ġhyp oc
mening ococcal
Ġscram ble
upp ly
surviv ors
Ġglas gow
Ġinaugur ation
Ġwhitew ash
Ġbaffl ed
emiss ions
b row
b ound
d ated
d aly
g at
h yd
l ady
l ithgow
s av
t ibet
Ġt ally
Ġs ed
Ġs ources
Ġb ins
Ġto ys
Ġto pple
ra ib
Ġg est
Ġl ennon
Ġre pt
om et
Ġch oices
Ġcon se
qu akes
sh ock
Ġy ards
ug g
ry n
af t
cl ashes
ase an
Ġatt itudes
Ġop als
se ed
Ġen rich
Ġgu ild
Ġmo th
Ġgra de
Ġvi etnamese
ams ung
Ġsn ip
gre gan
more e
Ġbut ton
ga uran
Ġche ating
Ġgas coyne
Ġfre o
Ġke ppel
Ġcelebr ating
la ur
Ġ8 1
Ġolymp ians
queensland s
Ġafric as
Ġren eg
dis graced
Ġpop ul
big ger
Ġbow el
Ġru in
ta ipans
rem embering
Ġvill ages
Ġcroc odiles
cro ft
Ġmonitor ed
roll ing
motor cycle
Ġincl udes
Ġha unt
Ġfu elling
Ġmanufact urer
rif ied
Ġpir ate
Ġgh raib
Ġbroadcast er
Ġjim my
Ġgil more
journal ists
Ġuncon scious
Ġmagn itude
Ġdistrib ution
Ġdistan cing
Ġlaur ie
Ġdelight ed
rumb idgee
fail ed
Ġreceivers hip
Ġcomplac ency
Ġsurrog acy
spec ulation
Ġreluct ant
d iplom
l od
n q
r anger
r ative
r ental
s id
v ary
in st
Ġt inkler
Ġt outed
on ies
or ado
al ph
en ham
Ġa uth
Ġp ard
Ġp ending
at ised
Ġw er
Ġh ap
el or
Ġn ail
Ġn erve
Ġl ith
Ġl td
Ġre dress
Ġst igma
Ġe pl
ver n
Ġde emed
Ġcon gr
Ġsh aky
ab ilia
ist ent
ark ham
ell is
Ġar ena
land mark
vi etnamese
Ġhe patitis
Ġtra cing
Ġag gressive
Ġind oor
Ġdis pos
Ġcr iter
con roy
se an
Ġapp ar
Ġexp ose
Ġexp edition
Ġfr ances
Ġinvest ments
pe an
Ġsm ear
Ġref erence
du ras
Ġend ed
gl oucester
Ġrel ishing
vid ence
vid uka
Ġche at
work cover
Ġrock ets
Ġmus k
ffic ient
comm od
Ġ9 9
Ġsing les
bu yers
Ġinsp ects
Ġchurch es
Ġmusic ian
Ġ18 0
Ġcop yright
wal sh
nor way
Ġhus bands
Ġacqu ittal
Ġclar emont
Ġadministr ators
dom in
Ġmeth od
Ġsnap shot
Ġveget ables
mand atory
Ġstab il
Ġdisrupt ions
Ġmun ich
Ġwy att
Ġlan es
champ ion
Ġpred ator
cob ar
Ġmotiv ated
Ġmcl achlan
lifes avers
mural i
ikk onen
Ġfren zy
Ġbish ops
1 10
c av
e ch
e vidence
h il
h ire
l ords
m ale
n aked
p ers
p akistans
t ip
v ie
v irus
Ġt ik
Ġs andalwood
on o
ar alg
Ġp alliative
re h
Ġd wind
ic ity
Ġl ara
Ġl itter
om u
ch at
ch icken
im age
Ġde cre
ew s
ul ator
Ġpro ceeds
op rah
ut ter
Ġle af
Ġsp ur
Ġex ile
ens ation
Ġhe cs
Ġtra ms
Ġchar leville
ee ba
one ill
amp hetamine
Ġwork load
Ġen emy
Ġsl ice
te ch
uc ed
li est
abor igines
ef forts
ren mark
win ning
Ġact ors
Ġrel igion
ma uresmo
tr ust
Ġcol onial
Ġche etahs
Ġent ries
Ġstorm water
ony mous
sen ators
Ġmid land
den gue
tra pped
dis ney
bb its
plan es
Ġlet ting
imbab wes
dav enport
Ġreef s
Ġjournal ism
Ġassist ed
Ġavoid ing
scott ish
Ġimport ed
anch ett
Ġiron man
Ġwrong ful
spe aker
death s
kar ratha
Ġsyn thetic
Ġrecruit ing
olymp ics
Ġmeth ods
Ġtransfer red
adv oc
Ġgil christ
mary borough
Ġeleph ants
Ġdetect ives
agric ultural
Ġcoord inator
roberts on
Ġinaug ural
Ġbrig ade
Ġintimid ation
republic an
Ġturb ine
Ġobst etric
Ġshowc ases
Ġglim pse
hul un
Ġcongr at
g ates
h oney
k akadu
ar der
Ġm ild
it te
Ġh ull
Ġre ap
ch ess
Ġle thal
Ġcl ad
Ġsp it
Ġro pes
iv ian
ne um
Ġcar eful
Ġcar michael
od ing
Ġbr ill
Ġcan v
uss y
Ġhel m
sw orth
Ġconf used
Ġsw elters
wa ite
Ġinter change
ric ts
iel der
Ġden ial
Ġple bisc
Ġdar wins
Ġtrans it
Ġbet ray
Ġcoll abor
eth anol
ris y
Ġinv as
fr inge
Ġmarch es
ret urn
russ ell
Ġaddress ed
Ġmemor abilia
Ġcred ibility
Ġsim ple
rem lin
Ġcover ing
quar antine
Ġthey re
Ġanzac s
Ġpredict ion
england s
Ġcop ing
super annuation
author ity
Ġunf it
sk ills
Ġsnub bed
wil cannia
Ġexpand ing
Ġross i
gow an
Ġanalyst s
Ġfort unes
Ġglen elg
Ġiniti atives
Ġobs erv
mour inho
dal ai
Ġlifes avers
Ġapart ments
incre ased
Ġdoom ed
Ġlegion naires
whits unday
Ġmerc ury
Ġnaj af
Ġstalk er
vangira i
Ġngu yen
aralg on
c ation
c umm
d ise
g iteau
h addin
l en
l ap
in mates
es us
Ġp ompe
Ġb ree
re ed
Ġd ads
Ġm ou
Ġh og
el ve
ac co
Ġl ing
un ction
Ġe ject
ch art
ill op
Ġv oss
Ġv ault
Ġover all
ab arab
ess es
ell ors
Ġres ists
land o
ang ak
Ġout comes
Ġwin emakers
Ġqu ay
Ġfl ed
Ġatt itude
Ġsc ales
Ġur uguay
ff ernan
Ġbo ks
Ġdef ers
Ġfr ight
gr en
Ġhit ler
sp ike
ft op
Ġgl adys
cap t
me ghan
Ġcommiss ions
Ġgen etics
other mal
Ġwas nt
Ġpop es
Ġsav age
Ġpack ages
char ities
Ġmac adamia
Ġi oc
Ġfo il
Ġcast ro
Ġresign ations
Ġcop y
Ġwil kie
comp ensation
cont in
mil an
Ġarch ibald
Ġexc av
far ina
urra h
Ġ500 000
Ġsadd ams
resp ons
Ġburgl ar
Ġprincip als
Ġou ter
log ging
Ġbio fuel
Ġescal ate
jam ie
Ġtong ue
Ġfrog s
Ġprev ail
Ġhood oo
communic ations
Ġreck less
Ġtru ancy
sli pper
hulun buy
c ou
c asa
d ylan
g ul
h ang
l ings
m ood
n th
w ere
w ashington
Ġs ings
ar oy
al u
Ġp our
Ġb ight
Ġm v
Ġm carthur
is ia
ig ent
Ġr ifle
Ġon es
ve get
Ġk ane
Ġj r
Ġj udd
Ġj itters
Ġcon cl
Ġle ct
Ġcom ed
ans ki
Ġab etz
pl ing
Ġad ults
ps ons
mer e
br imble
ban ned
Ġunder estim
Ġsl im
Ġli ability
Ġnorth am
co e
Ġroad map
gr id
Ġcount down
Ġbro ker
rol f
Ġed ward
Ġz inc
Ġvictor ious
Ġsk im
Ġrev ived
Ġsqu ash
Ġcur tain
ste ad
Ġfo iled
Ġstra uss
Ġwool ies
Ġvill iers
invest ment
Ġwood en
Ġinvol ving
Ġstore y
rob ot
east ern
Ġsom ething
Ġreward ed
Ġhab its
jim up
Ġkur dish
Ġpump ing
lab our
Ġdisrup ted
Ġabol ish
dire ctor
Ġaur ora
Ġaur ukun
Ġvari et
oper ation
Ġwip ed
Ġrecre ational
arl oop
summ it
kidn apped
zuel an
Ġagri business
anden ong
ubar ak
ocon nor
armal at
Ġplebisc ite
e ur
f ier
f allen
h ird
k ina
p ace
s ee
Ġt endulkar
Ġt ingle
Ġs ms
Ġc inc
Ġf iction
al arm
al onso
en w
Ġd um
Ġm eares
is ive
Ġh i
Ġn ights
om ic
ad oes
all s
Ġk inder
Ġover board
Ġbe ver
Ġun is
Ġex ams
em erald
Ġro ot
Ġco hen
ous and
Ġpr att
Ġind o
og es
Ġan ge
Ġcont enders
Ġsc ullion
Ġsc oops
Ġapp s
yd ia
de mentia
Ġsch umacher
Ġdef ending
Ġcor mann
Ġmar ry
Ġsw allow
we bsite
gr an
wor st
itt ler
Ġhead line
Ġhead ache
Ġpower lines
car ter
Ġstar ving
ids on
bar celona
Ġ5 2
Ġgen es
Ġcond ol
Ġresp ects
Ġfree zes
Ġincre d
Ġwho le
Ġ6 3
Ġolymp ian
icks on
mc gowan
dar ren
so il
Ġsurviv ing
rog in
Ġber lusconi
Ġlands lides
mans laughter
forest s
Ġwet land
Ġassoc i
Ġnation wide
Ġshel ved
Ġprovid ing
Ġlin ing
del ays
Ġthrash ing
Ġdistr ess
Ġmening a
Ġpers p
pop ular
Ġadvis or
samo an
jud ges
Ġstir ling
Ġparent ing
enh agen
Ġjen nings
colomb ia
brit ains
Ġinnoc ence
jess ica
Ġrans om
Ġwu han
Ġpetro leum
Ġva ughan
Ġbyr ne
Ġcommun ist
product ivity
Ġhap less
abarab ran
b ach
c ade
f ert
f iona
l oy
m ina
m itsubishi
Ġt es
Ġb ipartisan
ic ap
ra x
ra els
ol ive
Ġn er
Ġst urt
Ġde ck
ew ar
ew are
Ġk ath
Ġk ene
Ġv ies
ust re
pp les
Ġsh attered
ab ares
ays ias
Ġy oga
ors i
cl es
od ed
Ġbr imble
Ġsc ots
to kyo
Ġret ro
Ġ20 21
Ġfr anch
Ġsl ap
Ġwill s
Ġconf isc
Ġlaw n
ther apy
Ġinter fer
we gian
war z
Ġfinal ise
Ġ3 000
Ġtax payer
Ġfe atures
Ġbro s
Ġsupport ed
Ġce ment
ank ovic
Ġmil es
sc ray
Ġ5 6
Ġred emption
Ġchrist ians
Ġfoot path
Ġ6 4
Ġoper ate
Ġ8 6
Ġma ur
Ġshare holder
val u
imb in
Ġpos itives
Ġcur ious
Ġaust ria
Ġbel gian
bur mese
oul as
Ġsmith s
Ġforeign ers
Ġnurs ery
Ġmet ers
mor an
Ġhor izon
Ġbillion aire
Ġprob ing
Ġty pe
nor folk
Ġmary s
Ġnewsp apers
Ġdiss ent
gay le
orm ack
Ġsched ul
deb nam
pen gu
Ġlot to
Ġlot tery
Ġvac ancy
Ġsir en
Ġfert ility
Ġet hnic
sudan ese
phot ographer
Ġcommod ities
cad el
Ġwip es
Ġspik ing
bott om
Ġastrona ut
dream world
jac ob
Ġdivid end
dolph in
Ġsabot age
Ġvariet ies
1 50
b ounc
b ashing
e ver
e verton
f ashion
g ina
h air
j ie
l iff
m elbournes
n av
r ane
v ant
w ives
y ah
Ġ ark
an war
Ġp ips
Ġw ick
Ġw adeye
ic itor
Ġh amb
Ġh iggins
ro of
st ands
ac ue
un ds
ir r
ir ies
ch ap
ch avez
ad vent
Ġch art
Ġch appell
ow een
ew son
ri ble
Ġk am
ce ans
Ġle avers
Ġcl oncurry
Ġro mance
sh ipping
end ish
Ġy ass
Ġab e
ang a
Ġ2 10
port land
Ġind uct
ary l
Ġen h
Ġban ning
ull um
ph ones
Ġsex ism
min or
Ġinter rup
pro gress
bo eing
Ġpark inson
Ġass ured
Ġz ar
Ġdou g
bar ns
enn ial
Ġmem o
men indee
Ġhost ing
Ġmc ewen
Ġ8 2
Ġnet anyahu
Ġren ov
Ġsun ken
dar cy
angar oo
Ġsurviv ed
bel gium
Ġrap ists
Ġhalf way
bell amy
Ġdoc s
cont ador
Ġhay es
Ġcapital ise
Ġbon ney
Ġtort ured
mount ain
dri ve
Ġdiplom acy
Ġsong s
Ġadjour ns
Ġhod ges
tw enty
Ġscot ts
mand ela
Ġminor ity
Ġimm un
Ġappla ud
rac q
Ġbounc er
Ġment or
Ġpage ant
Ġbos ca
broad band
Ġhind marsh
Ġine quality
Ġoverwhel med
Ġdisadv antage
Ġoversh adow
Ġavoc ado
iks son
Ġvolat ile
Ġsacrif ice
cald ine
Ġhypoc risy
acue es
d ung
g ordon
h ens
h jel
j udd
k k
k ou
k ens
m eares
n ation
p est
p ob
t um
u y
v intage
in ium
Ġt u
Ġs oul
Ġc wa
al coa
Ġm op
it ary
st ones
Ġg ully
ol in
Ġn ag
Ġl id
Ġr ats
Ġe is
ter n
Ġch im
Ġk enny
Ġv ladimir
Ġse af
Ġsh ifting
ab ella
Ġat kinson
out going
Ġun employed
Ġro ver
sh aun
Ġwor m
ant ony
Ġout door
Ġal ger
od o
Ġfac ial
Ġbr u
Ġsc ans
ash og
oll o
Ġen nis
Ġdef ault
Ġbre ad
Ġbu ik
Ġpo achers
Ġtax is
Ġbra cing
Ġris don
Ġstate ments
ows ki
Ġ5 4
Ġport e
Ġpat rons
Ġgun gahlin
fer gie
Ġreb ounds
Ġ7 9
Ġ6 7
ser ious
Ġcross bench
Ġclean ers
Ġclean up
Ġ9 00
wall ace
Ġjun gle
lin er
bur gl
bra wl
Ġcal end
Ġmis use
Ġinc urs
Ġdiv isions
band ian
airns dale
Ġmod i
cro p
tur ning
Ġnom ads
Ġtreas ures
Ġaw as
Ġproduc es
Ġty coon
Ġassess ed
Ġmel b
Ġsand y
Ġrub y
Ġdeep ly
Ġrank ed
Ġlin dsay
inn ati
Ġpun ished
free man
Ġpath ology
Ġrepe ated
sam antha
gall agher
Ġut d
roads ide
Ġchap lain
idd ink
Ġsant os
Ġnic ole
mick elson
Ġwast ing
Ġburst s
pra ise
uz nets
Ġkh mer
task force
hon i
Ġwhits unday
Ġfairy tale
escap ed
Ġcoron ers
Ġreserv oir
Ġresil ience
Ġstrand ing
liqu or
Ġoverlook ed
ichi ello
Ġstere oty
angak kara
f og
g or
h l
h aj
j ew
n uttall
t ight
t reat
Ġt ier
Ġf el
Ġp aints
re ad
ed in
Ġm ri
Ġw akes
Ġh ogan
Ġo wed
st en
le an
Ġg over
Ġn atal
Ġr w
Ġr uth
Ġst ew
Ġch ad
Ġsh irt
oo ch
Ġbe ale
Ġex agger
sh oppers
ov ich
Ġab du
ang us
ard y
Ġwin less
Ġchar lton
Ġcar p
Ġag force
Ġpolice men
und ers
yd on
de port
Ġen act
Ġmark ed
Ġwater fall
Ġcor d
Ġwe aken
ax e
wo z
Ġsw earing
Ġgo ve
lic are
Ġstr ict
Ġtake away
Ġann an
red bo
Ġiraq s
Ġgl ider
Ġz ika
Ġ5 7
Ġlo ader
Ġdro ve
Ġfree man
Ġent reprene
Ġdiscuss ions
acc ident
dra matic
Ġspeed y
cr ane
Ġwatch es
Ġconfident ial
add y
Ġpeace keeping
Ġ11 1
Ġsuccess or
Ġbow ler
Ġcab oolture
Ġpot entially
Ġexec utes
uff ield
Ġsim pl
Ġtight ened
wool ies
corp orate
leg isl
Ġpig gery
Ġprevent able
Ġmck ay
Ġappoint ments
inos a
Ġworry ing
Ġdiffer ences
Ġalarm ing
fol au
Ġimpress ive
gil more
clar ence
inch illa
surf ers
Ġamp ut
Ġemb ry
medic inal
Ġmush room
Ġwre aks
Ġamend ment
fro st
cub a
contract ors
Ġsharp ly
gart en
Ġjess ica
surge on
Ġquot es
Ġresur rect
hort iculture
Ġsecur ing
dies el
Ġappar ent
uznets ova
a aron
b ear
d anny
f osters
h ir
j acqui
m asters
p ione
r u
r inehart
w yd
Ġ ally
Ġt ang
Ġt elling
or ms
Ġf owler
Ġp akistans
Ġb ribes
Ġm ould
ic onic
il ands
le eds
le ader
ra wl
Ġn igel
Ġr ues
ri as
ri ots
Ġk ra
Ġaf tersh
man uel
sh ear
ell ar
ure ka
Ġab usive
land owners
Ġqu ashed
Ġcar lo
Ġman n
to k
Ġnot ices
und y
Ġdown ed
Ġpar l
Ġschool boy
ister ed
we ak
ah n
ile y
Ġpark insons
Ġ5 3
Ġ5 8
Ġimp aired
Ġsuper vision
Ġ7 1
Ġ6 2
Ġinv ade
ser ies
Ġdep end
cr isis
Ġsumm ons
aur itz
Ġbas ic
Ġnr ma
Ġcamer aman
mo th
Ġcompl iance
Ġcolle ges
kn ight
Ġnom inate
Ġscam mers
Ġcontain ers
stri king
Ġjud gment
Ġbon uses
Ġclar ity
Ġhockey roos
Ġbed room
Ġcliff s
Ġexpress way
Ġsoar ing
chief s
Ġkur ds
Ġpadd le
Ġaccus er
Ġorch ard
kid man
Ġsurve ys
Ġnov ak
Ġconvers ion
Ġbutter fly
itsch ko
analyst s
Ġji be
about it
writ er
bast ian
Ġtian anmen
torn ado
ewar ne
inosa urs
5 000
b bl
b ats
c su
c ultural
d or
d inosaur
f inger
k um
k ookas
n ixon
Ġt ut
Ġt ube
Ġc il
Ġc ooks
Ġb ent
re pair
Ġh id
Ġh ors
ra ins
Ġg ou
Ġst y
Ġst ub
th ief
Ġth ousand
Ġch ambers
Ġde pl
Ġpl a
man agement
der us
em ia
ous s
sh eens
ell en
Ġout right
ob esity
port ugal
Ġwar ds
gh um
Ġal coa
Ġind ivid
arm ichael
Ġus age
Ġbr ennan
yd enko
Ġhigh ly
Ġret ali
Ġret iring
Ġsl um
Ġpar as
Ġhospital ity
ace h
Ġor iginal
Ġfight back
ric orn
able tt
Ġbar ba
vict us
ond i
car ers
Ġreview ing
Ġimp osed
Ġcommission ers
Ġins urers
Ġhand ler
Ġhon est
Ġ8 3
Ġwild fires
Ġ9 1
Ġabb as
Ġcollap sed
Ġmac ron
Ġpot ro
mor ris
Ġcapt ains
Ġground ing
Ġgar age
Ġextra ordinary
look ing
Ġnom inates
mac adamia
wind i
Ġeng agement
Ġretail er
Ġdesc ribed
motor bike
hum e
det ectives
Ġstall ing
Ġwid en
Ġhy brid
enter field
Ġpromot ed
Ġswitch es
matthew s
Ġnewsp oll
Ġhik ers
Ġexempt ions
Ġjon athan
Ġkos ciuszko
Ġjar ryd
Ġscor chers
Ġobject s
fitz roy
Ġeffic ient
Ġpray er
arn old
Ġbrit ains
Ġvari ety
ferr ari
Ġyachts man
Ġpunt ers
princip al
Ġchal mers
cron ulla
Ġchol era
Ġcertific ate
Ġbeaut iful
tuck ey
Ġmedall ist
Ġconse qu
hjel m
c zech
d ellacqua
f inding
k l
l ip
w age
in y
in ifex
Ġs yd
Ġc erv
Ġp ills
Ġb ases
Ġb aux
Ġd ancers
Ġm eter
ou f
Ġh iring
Ġo gil
ra ms
Ġg fc
el ja
Ġn ik
Ġre lic
am in
Ġk ookaburras
Ġpro s
Ġle agues
ess a
Ġcl are
Ġsp inal
Ġun concerned
Ġcom ic
ud hoy
Ġup on
Ġhe ated
Ġfin ke
Ġwar rior
Ġfl or
Ġfl ame
ee fe
mer ger
Ġsc andals
ism ic
pr oud
Ġsupp ression
ier an
Ġinter ven
Ġmon te
Ġden ounces
Ġall owing
wh aling
Ġcap itals
Ġ3 0000
Ġact ually
nt ch
Ġstor ages
Ġ5 1
ett ori
ball ina
Ġche ika
Ġ19 0
Ġfar ce
ham mer
Ġhur ley
bs ites
Ġ6 8
Ġinv aders
Ġ8 4
Ġhum bled
Ġbel ong
Ġclass rooms
char leville
Ġbas ics
Ġcolle ctors
Ġlear nt
Ġcow ard
Ġremov ing
gas co
Ġdan ish
Ġnor folk
Ġhero ics
Ġwrong doing
rel igious
Ġarch ive
Ġthrow er
Ġheavy weight
Ġconserv atives
Ġprevent ed
Ġramp ing
Ġhen in
det ails
Ġconne ctions
Ġly ons
Ġadj ust
mad onna
Ġfro ome
Ġcontrib ute
sub missions
Ġbuff er
Ġislam ist
Ġrh ino
Ġhung ary
Ġdeliber ate
hall s
Ġdistur bing
Ġdrench ing
season al
Ġfab ric
Ġrevel ations
Ġvalu able
mess i
vit ova
americ ans
Ġexplor er
Ġpoly nes
talk aboutit
Ġextingu ish
temp orary
retire ment
Ġbm x
Ġfy fe
Ġdict ator
Ġoh io
Ġwand ering
Ġprofession als
restaur ant
sew age
Ġaster oid
Ġcinc innati
Ġcalend ar
woz niacki
Ġbaux ite
2 8
b ald
b ugs
h oon
o ils
p am
w odonga
y th
y ellow
z ies
in mate
Ġc d
Ġc ited
Ġh ut
Ġh su
Ġh umpback
Ġo jd
le wood
ig ate
Ġst umbles
ad ors
Ġde ception
Ġk ap
ab ong
ast on
ark ed
iv ory
ov es
Ġab ility
ub a
ub s
af es
aw u
Ġan a
Ġad mission
con fl
Ġtr icks
Ġwork ed
Ġapp alling
de bt
Ġcan non
cer em
Ġhel met
br endan
Ġcomp ound
Ġconf ron
pr ints
Ġschool girls
gra fton
fire works
fire birds
Ġsusp ic
Ġpe pper
Ġdet on
win ery
Ġbra ced
no thing
Ġsn iffer
Ġprom o
Ġcoll ar
Ġpost ing
Ġins ect
Ġemer g
Ġmc gregor
Ġmus wellbrook
Ġpet a
Ġshot gun
Ġfront ier
Ġclin ical
cos grove
ki wi
pol ish
Ġawa ited
gas coyne
Ġovers upply
fa ulty
ude au
Ġmat ilda
cow ra
Ġbol sters
Ġtom b
Ġram ming
Ġassess es
Ġarson ists
Ġbon ds
Ġdestro ying
night club
Ġsever ed
hom icide
hor ror
sim plot
Ġid ol
ros ewarne
Ġbats men
Ġtaser ed
Ġdred ge
electric al
Ġcos grove
mck enzie
Ġhu on
Ġcolomb ian
Ġlou ise
Ġembarrass ed
geoff rey
Ġtam ar
Ġrecip ient
pastoral ists
Ġraf ael
Ġresett lement
dump ed
Ġgos ford
Ġelig ible
Ġstal wart
Ġdee per
meas les
alter native
Ġenrich ment
pob jie
ashog gi
ondi windi
Ġconfron ts
a aco
b axter
c ribed
g aw
h ull
h ran
l ustre
p av
v ets
er ity
Ġt uss
Ġc aves
Ġc ere
Ġp ounds
Ġp anda
Ġb rom
at ah
Ġd c
is land
ic ate
Ġh ells
Ġh ooper
Ġg ab
Ġfor wards
Ġn ina
Ġn ahan
Ġre ads
Ġr orts
Ġst h
ch et
ad el
Ġch arters
Ġch oppers
Ġde gre
ul uru
Ġj azz
Ġpl enty
ous ly
Ġnew est
ant astic
Ġab sol
Ġpr eston
ip ad
og rad
Ġbr is
Ġbr unt
mer t
Ġapp alled
Ġmur ali
Ġsur charge
Ġdown ing
sw ick
Ġfr an
Ġsl ick
com petition
Ġsw ay
Ġsw all
Ġam azing
Ġreg ains
we in
Ġdeal t
wn bl
Ġplay off
par ent
Ġrest ed
Ġed ging
Ġdar cy
Ġher es
Ġsk ier
Ġimp ose
ken nedy
Ġsale yard
Ġcycl ones
Ġ6 1
vic ts
rit is
Ġfly er
afl w
tra cks
Ġball s
Ġcur se
Ġeuro bodalla
Ġposs um
Ġposs essing
her ty
Ġnr n
Ġinc est
Ġhaw kes
des ign
Ġtechn ique
Ġwilliams on
truck ing
ev acu
cal tex
Ġdist raction
Ġpurs ues
Ġauction s
oli ver
Ġeth ical
trans gender
ha iti
Ġsink hole
Ġfrustr ates
wil son
Ġemp ower
Ġker ang
Ġcart el
Ġlangu ages
Ġinn ov
Ġrepe ats
gall ery
Ġpitch es
prof it
oa ib
Ġgong s
leaders hip
Ġdisappoint ment
Ġrod ney
chen ey
Ġkil omet
homeless ness
Ġdiver ted
pir ates
Ġobject ions
Ġcasual ty
ighth ouse
Ġox y
Ġvine yards
nap lan
Ġga uge
oly roos
incre ase
Ġpred ators
Ġproceed ings
Ġded icated
Ġspik es
Ġbry ant
Ġstack ing
Ġindefin ite
Ġremark able
iker ie
Ġsne ak
tob acco
Ġpret ty
Ġkene ally
udhoy ono
confl ict
Ġdegre es
4 00
c ir
d ug
f anning
j en
j eremy
l ance
m atch
m arks
p f
p ipe
s el
w angaratta
Ġt il
Ġt ipping
Ġs el
or chy
Ġp iv
Ġd oo
Ġd iana
st ey
Ġg iteau
Ġg rylls
Ġn g
Ġn i
Ġl end
Ġl ug
Ġre ed
Ġre igns
Ġr it
id oc
est ine
ri ewoldt
Ġk rist
Ġj a
Ġsh aken
ist on
Ġun re
Ġex mouth
Ġro x
Ġro ots
Ġcom et
ie va
ell os
Ġar gentine
ov en
Ġbl oods
Ġhe ir
Ġchar l
Ġal mond
Ġcar ried
Ġan alys
Ġcont ing
und ry
ff e
Ġbo oms
he zbollah
Ġjail ing
ph is
gra mpians
Ġsw ell
vel and
Ġdo yle
Ġam ber
Ġnorth bridge
ther e
ef o
gr ession
sp arrow
Ġinj unction
ss on
Ġmon ash
Ġev acuees
gy pts
win emakers
Ġfatal ities
Ġsol ved
onald inho
Ġreb ell
Ġhal ve
ding ton
Ġliber ia
Ġtreat ments
pre par
Ġcross ings
val ent
mc ilroy
Ġpull ing
bra ve
Ġcal edonia
Ġcab in
Ġpast ure
Ġfilm maker
Ġcompl ains
Ġcompet itors
Ġ0 2
Ġjack ing
Ġheart break
Ġsupply ing
Ġep stein
Ġrap es
di ver
Ġwil kinson
Ġindepend ents
bomb s
roll ed
Ġexc use
Ġriot ers
Ġprov ision
Ġsuffer ed
det ainees
Ġnegoti ating
Ġ70 2
Ġtemp or
Ġhik er
thom son
Ġdun can
Ġmicro soft
bas ketball
Ġproof ing
Ġpur pose
Ġextrem ism
Ġump ires
Ġmart ial
Ġemb attled
Ġestab lished
Ġhob arts
prom in
Ġangel es
mun ition
thunder birds
beek eep
locust s
Ġshear er
bog ut
Ġvalu ations
pension ers
Ġrequire ments
Ġwyn dham
wid ow
newsp aper
wheel chair
Ġyu endumu
univers ities
Ġmozz ie
ooy ong
Ġintel lect
Ġduplic ation
c ord
c rest
c uts
d od
e i
e ated
g av
g ger
h og
n els
o ppos
p as
p ute
p ork
s inger
t ate
y arra
Ġt idy
Ġs ort
Ġc ries
Ġf ences
en om
Ġb ryan
Ġw ang
ing rid
Ġh offman
il ar
Ġg f
Ġfor k
Ġn ing
Ġn ff
Ġn ixon
Ġl achlan
et ts
ig gy
om i
ch ance
ad os
ad ale
os ex
Ġj aw
Ġcon ce
Ġcon victs
Ġpro stitute
Ġco vers
Ġco bar
ell es
ell ites
Ġy eppoon
av ier
Ġpr est
Ġout let
Ġ2 20
ob amas
cl oncurry
Ġman aged
for ensic
att en
Ġme al
per ilya
co ag
Ġhome coming
Ġpol es
Ġroad house
Ġsa us
Ġev icted
fl ights
Ġall ergy
Ġbar won
Ġstri fe
arch aeologists
Ġed ition
bar rett
bar ossa
io ane
mar itime
Ġmor al
Ġhon an
Ġ10 57
bro gden
Ġleg ends
na idoc
Ġbul ly
ca ution
Ġlow e
Ġtough en
mc donalds
ret iring
Ġeuro pa
big gest
aint ree
gun nedah
Ġretire es
Ġsam arit
Ġsurpr ising
Ġapproach ing
Ġram med
Ġaut on
Ġ23 0
Ġ26 0
ux ley
Ġhen jak
Ġly ell
Ġhy pe
gen etic
dam aged
Ġabs ent
abet z
she edy
Ġsteel works
gib bons
Ġrepresent atives
Ġconced e
camer as
Ġfier ce
pent aria
Ġrig ging
Ġsid eline
Ġmut ilation
Ġcry stal
Ġconfront ation
hey wire
Ġcompass ion
Ġfurn iture
asty ari
Ġbarr ister
Ġtug un
Ġrecapt ured
Ġseparat ists
ww f
Ġcockat oo
Ġcauc us
Ġramad an
Ġridicul ous
Ġjama ica
Ġconsequ ences
Ġtempor arily
promin ent
a ec
c oun
e er
f rog
g rieving
h m
h arm
j anda
m ull
n ian
p he
s ister
s arkozy
t ahs
t uqiri
v ia
Ġt rol
Ġt ides
Ġt ense
Ġs aint
Ġc oop
or ch
or ations
Ġf ing
Ġa iling
Ġp neum
re cycling
Ġd ives
Ġw ishes
ic ent
Ġh ires
le ck
ra ikkonen
Ġn an
Ġn ad
Ġn ash
ac ist
Ġl ur
Ġth aiday
ve g
Ġk hawaja
Ġj ill
Ġsh annon
ab and
Ġas c
Ġcl ient
Ġsp oon
Ġex ample
Ġro g
Ġro ars
ath letics
sh adow
Ġar d
Ġar rog
Ġpr one
ang utan
Ġqu ir
Ġfl owing
cl usive
Ġbr anded
Ġfire birds
de ley
ty re
br ill
sw ood
Ġboo th
ons ense
Ġjo kes
Ġsw ims
Ġdo ha
Ġtal es
ace y
Ġpol ish
Ġter race
we ap
lear ner
sp c
Ġpart ly
Ġdec ap
Ġev asion
wh istleblower
str ate
iz oph
Ġsn apper
Ġbur ley
Ġbur mese
Ġ5 9
Ġcol on
Ġsub m
uel ta
Ġfore ver
Ġmer kel
bro ek
jo el
Ġpled ged
Ġ9 3
que z
Ġaust rian
dis pute
bur ning
Ġyou re
inter state
ura i
Ġlic ense
Ġshe edy
bel gian
Ġ0 9
Ġjack ie
Ġhor will
Ġequ als
Ġmob il
Ġ27 0
Ġcane growers
Ġven ice
Ġsuggest ions
dy ch
anim als
Ġfrank ston
Ġbh utto
Ġqualif iers
ele ph
este ad
Ġhamper ed
Ġwast ewater
vill awood
Ġadvent urer
Ġoccup y
explos ives
Ġbehead ing
Ġbuoy ed
bond i
Ġaven ue
Ġpul se
pitt man
Ġethiop ia
Ġtaint ed
Ġdefin ition
Ġkear ney
Ġful ham
Ġfeas ibility
dise ase
Ġpersp ective
izoph ren
b red
b ai
c airn
e ad
g az
h ills
n igel
s pl
Ġp ens
Ġp umas
Ġb ugs
Ġd ining
Ġh ih
ro yo
ro tt
st ocks
Ġg ent
Ġl ax
un up
et a
Ġr ounds
Ġe ade
ad elaides
ew alk
ri val
Ġk its
Ġk oh
Ġk ooyong
Ġv il
ce o
Ġle is
Ġro xon
Ġra vensthorpe
av iation
ish ik
pl ess
Ġad dicts
Ġis is
be c
Ġwater ing
Ġbre ws
Ġsl ashing
Ġinvest s
pr att
int ro
Ġcould nt
Ġfun erals
Ġher bert
Ġsearch ed
Ġrev ises
Ġ6 9
Ġmer it
Ġel usive
Ġpal mers
Ġjohn athan
Ġrow ers
Ġnet flix
Ġsing ing
Ġjack et
nam ara
Ġdrag ging
dog an
Ġsam ples
Ġearth s
Ġcompens ate
Ġorgan isations
rock y
alp ine
Ġdan iels
Ġexc uses
Ġque ue
Ġcooper ate
Ġcull en
Ġclar ification
Ġmeth ane
Ġcouns ellor
Ġrent ers
Ġwilliam town
Ġdiss ident
steph anie
ju ven
Ġger rard
gang uly
lu ent
nap thine
critic s
Ġbureauc rat
Ġthri ve
Ġthri ving
Ġbou gainville
Ġdisciplin ary
atemal a
yrgyz stan
pist orius
Ġearm arked
Ġclem ency
hung ry
territor ians
respons ible
a er
d red
l owndes
s ue
s ophie
y ang
Ġc ed
Ġc rem
an cher
Ġf ias
Ġp ont
Ġp ours
re cycl
Ġw ashing
Ġin correct
Ġh inds
ion age
Ġg uru
ol ved
Ġn umer
Ġre becca
am ac
ad rian
im o
Ġde pp
ve z
Ġv est
ge x
Ġj enny
Ġj ennifer
qu ent
ds e
op es
op ening
out ing
Ġcl aw
Ġun licensed
Ġro l
ud is
Ġco orong
ber ri
ant e
cc ione
Ġout cry
Ġqu akes
Ġal gal
Ġfl ats
ee ker
Ġcar ries
pl aces
od inos
for rest
Ġsc ream
Ġsc anner
ass ist
Ġgr ind
de von
br ight
Ġret rie
sw eden
Ġme als
Ġprot e
Ġcomp os
Ġdri es
gra eme
Ġam munition
atch er
we et
pro ble
uck er
Ġext ending
Ġdeb uts
Ġneed y
Ġbra dd
gl encore
Ġz omb
Ġz oning
Ġ4 000
ma id
Ġlo xton
Ġpolitic ally
Ġsub way
Ġrain forest
Ġmer ino
Ġhost ile
Ġlab s
Ġdep th
Ġob sc
Ġ9 2
Ġsucc umbs
Ġcal cul
Ġmac farlane
Ġloc ate
Ġrich ie
don nell
quar ium
inj iang
Ġstock p
grow th
rich ards
Ġdeter ior
Ġextrad ite
Ġsteph anie
met ro
Ġther esa
gen eral
Ġexerc ises
lif eline
Ġult ra
Ġgeoff rey
Ġtoil ets
Ġinstall ation
Ġcommemor ates
izz ard
chen ko
Ġoust s
Ġwast ed
propos al
Ġlag ging
haz ard
Ġstir s
Ġconst able
Ġcirc um
Ġunif orms
doc s
Ġdug an
Ġhey wire
Ġrecip ients
offs iders
Ġvalent ine
Ġtraum atised
Ġrib bon
Ġemot ions
Ġpent agon
Ġbaff les
Ġfias co
4 8
7 5
b aird
d ave
d ling
f ac
f ukushima
g iles
h wag
o ate
s ie
s car
s ka
t roy
v ince
v andal
w ors
ar ie
Ġp ence
Ġb ays
Ġb old
Ġb atemans
Ġd ian
Ġd allas
Ġw ings
Ġn un
om ass
ad gee
Ġk ent
Ġk um
Ġsh un
ort on
Ġsp aces
ist ency
em i
Ġro ok
ath ra
ant o
av oc
Ġres idency
iss e
Ġwar fare
ake y
ors ed
cl oud
Ġbr ide
Ġwh istle
se as
Ġgr attan
ick ett
uss ed
Ġexp els
Ġcomp ar
the y
Ġgu ilt
ib us
Ġcoast line
eral ds
Ġam bit
Ġpol io
Ġref unds
Ġste pped
Ġdec rim
Ġev il
Ġbar ge
iz er
az akh
rol ux
Ġgl ad
Ġass ures
Ġear s
cond itions
sc am
ng an
Ġant ibi
ling er
Ġsub mit
other apy
Ġcoll ides
Ġmem phis
itch field
Ġhon duras
Ġfil ipino
Ġrace course
ec uador
elling en
Ġmillion aire
west field
Ġwind y
rib ution
Ġafric ans
Ġ200 000
mc gee
grand mother
pal aszczuk
Ġaust erity
Ġstrong ly
test ing
rog ue
pol and
Ġdie go
Ġrenew ables
Ġhor ns
Ġber ri
Ġforum s
Ġgar naut
Ġunf old
Ġwood ford
Ġton ne
Ġaut o
Ġramp ant
Ġalter cation
Ġmour inho
iforn ian
ha us
sing h
Ġther mal
Ġwarr ants
Ġswe ating
elect ive
rif ying
major ity
Ġweak ens
Ġmol ik
pen al
pen rith
Ġimm une
Ġbern ie
Ġislam ists
hard ie
Ġnic ola
Ġextrem ists
Ġextrem ely
Ġtap es
Ġexperi encing
phot o
lot te
Ġbark ly
mah er
Ġpsychiat rist
pear e
Ġcancell ations
Ġts onga
coc aine
republic ans
Ġoversh adows
Ġ73 7
icy cle
Ġsym bol
Ġbargain ing
Ġchains aw
Ġtyr rell
Ġfleming ton
Ġmuds lide
Ġmistreat ment
Ġimprison ment
gab ri
rip legic
Ġmons oon
Ġesp ionage
warz ene
Ġcerv ical
Ġemerg encies
ograd y
weap ons
c reat
f letcher
h es
k ap
k ovic
k ununurra
r tle
s igns
t all
u is
v ladimir
x ious
Ġs ample
an za
al gae
Ġa vert
Ġa zar
Ġp icket
Ġp acqu
is cover
it jul
ic eland
ro okie
st imulus
le x
Ġg ross
Ġl one
et aker
Ġof ten
Ġth oughts
ch ick
ri ati
Ġk ite
Ġv it
Ġj ub
Ġcon cent
Ġcon vinced
man ning
man hunt
Ġle an
Ġun im
Ġco ates
Ġab d
art ists
Ġwar ships
Ġal ien
oc ation
Ġan cest
cl er
Ġman ip
ke ating
Ġtr illion
se pt
Ġexp el
Ġcomp ost
per ry
rest r
Ġserv es
Ġserv ed
gra ffiti
Ġam y
Ġref ers
Ġgra ft
Ġla os
bo k
Ġmed ics
lear ning
fl owers
dr illing
gy le
Ġbra ins
Ġfe ast
Ġit a
car ds
Ġrel ative
Ġbur dekin
io x
ling ton
Ġpat ric
Ġgun point
Ġtrans fers
Ġclear er
fir ms
Ġsum atra
Ġ7 30
Ġmc ilroy
Ġmc mahon
Ġmc veigh
Ġinv alid
ding o
Ġtre ason
Ġruss ias
Ġlock er
Ġmy sterious
Ġ9 6
Ġlank ans
gu y
russ ians
Ġmost ly
Ġic eland
Ġcapt ive
Ġsim plot
Ġsam uel
Ġsam antha
def eated
bh aj
Ġfinish ing
Ġfair er
Ġtor ched
Ġnom inees
grow er
mill er
Ġcoff ers
Ġmel anoma
hel ping
Ġide al
Ġgrass fire
Ġstress ed
bag s
Ġgain ing
Ġdod ge
Ġjosh ua
Ġchap ter
Ġsalv os
Ġhoney moon
Ġsuccessful ly
palmer ston
Ġdamp ens
Ġbackfl ips
Ġpine apple
coon an
isf ail
Ġib ac
Ġimpl ants
mort lock
kir ibati
take over
Ġcirc uit
went worth
Ġbureauc rats
sent encing
Ġguest s
Ġdish onest
Ġstero id
lah oma
straw berry
Ġstag n
citizens hip
Ġgest ure
Ġbloods hed
Ġrebell ion
4 5
c ate
g allen
h ooker
m ira
n elly
p orn
r ill
w ounded
an or
Ġf ills
Ġa oc
Ġd andenong
Ġw ada
Ġin form
st able
Ġg ore
Ġg iddings
Ġre ps
as pe
am m
Ġe mission
Ġch avez
Ġv c
Ġv uelta
Ġse ct
ack ing
ess im
ag ne
Ġnew ly
Ġab l
art or
Ġag assi
Ġdis orders
pl at
Ġbr iggs
Ġtr aralgon
Ġwh oles
Ġwh incup
se at
Ġgr ill
und ance
Ġmurder ers
oot a
Ġwe bsites
Ġmar ie
te es
per fect
ite ment
Ġrem and
Ġschool ing
ister ia
Ġsw ings
Ġper pet
Ġper mission
Ġpart ially
Ġgre ets
Ġhar bor
Ġchang er
ey re
Ġso chi
bar rie
Ġblack burn
mas ked
Ġadv isers
Ġinv ite
Ġmot ors
mc le
rap ist
mo dern
gar ia
Ġprocess ors
dem ocr
alle g
Ġquarter ly
Ġgar cia
cow an
Ġbun nies
utin y
Ġcre agh
mac gill
Ġprogress es
Ġpand as
met eor
Ġtraff ickers
weather ill
ket ee
Ġharm ony
Ġswitch ed
bob ank
case y
Ġweak ness
Ġindecent ly
tri p
coff ee
Ġperform ers
Ġfort une
Ġrubbish es
Ġroo ftop
Ġcommemor ations
Ġtail ed
Ġbrew ery
hack ers
Ġhook er
alex ander
buck ley
Ġmaul ed
prin ces
astron omers
Ġstraw berry
Ġdisgrace ful
Ġgav in
Ġatlant ic
Ġunderpay ing
Ġinver ell
sad r
drow ning
Ġscaff idi
success ful
Ġdecrim inal
itjul u
c lear
f ils
g rog
m ist
m ade
n ear
p age
p oultry
r ine
s qu
s aving
u als
v ous
w ang
x ens
in land
er ving
Ġt ired
Ġs ails
Ġf odder
ar afat
Ġb ert
Ġd ous
Ġd ane
Ġd fat
Ġd ickson
is as
Ġh udson
Ġo ceans
Ġfor mat
el o
ig ley
and o
ir al
ir ans
ad one
Ġch ess
Ġv su
Ġse oul
Ġcon nor
Ġover land
Ġover power
Ġsp are
Ġsp oils
Ġun sol
em a
ag as
Ġra ft
Ġra vens
Ġar sen
Ġar arat
Ġy ar
Ġhe fty
Ġal cop
Ġfl op
ach i
og o
og ging
Ġdis agree
Ġsc ri
air lines
br al
Ġim plant
Ġstr ange
Ġam mon
Ġam ateur
Ġper jury
ger ies
Ġreg o
gr im
Ġri ewoldt
Ġpe el
ah a
Ġsaf ari
ipp ett
Ġall erg
par ole
Ġdam ond
Ġbill board
gre aves
bar ri
Ġhom estead
Ġhol t
fore cast
Ġhow e
Ġmus cat
Ġboat ies
west s
Ġdav enport
Ġmid night
Ġship ments
Ġcur tin
lin ed
net anyahu
ste ketee
Ġcheck ed
law rence
Ġaddress ing
Ġopp onent
care y
Ġbirth ing
Ġwould nt
yr star
protest ors
Ġpub lished
iro sh
Ġavoid ed
john ny
sk in
sk yd
Ġscr ub
Ġblog ger
Ġfeel ings
euro vision
Ġshake up
Ġkidnapp ers
Ġcomment ator
Ġos aka
Ġnat ale
Ġaccount ability
Ġalloc ated
Ġcub s
virgin ia
Ġbroadcast ing
jim my
run away
Ġnap thine
Ġfoss ils
Ġpione ers
Ġdamp ier
Ġcollect ive
po ison
Ġimpl ications
Ġratt en
Ġwre ak
Ġenrol ment
attack s
champ ions
fle ming
Ġindic ates
summer nats
wr ong
Ġcumm ings
crim inal
Ġholl ow
osph ere
Ġhutch ison
Ġconsc ience
nib al
Ġgob bo
Ġenthusia sts
foss il
Ġarrange ments
Ġclad ding
Ġincred ible
haj er
ouss is
Ġtuss le
Ġning aloo
Ġambit ious
warzene gger
Ġpacqu iao
bhaj an
a q
b oss
g ging
j ub
j ane
l uck
m one
t ear
u ya
w ells
y outube
Ġ ern
Ġ 000
Ġc oul
ar gentine
en ic
Ġd astyari
Ġm orsi
Ġh ia
Ġg ust
ol ics
ig e
ig ins
Ġst if
Ġch en
im an
ew ide
os cars
ri ft
Ġv end
ab inda
ate ful
Ġaf raid
Ġun esco
Ġun wanted
Ġex otic
em on
vi xens
Ġwin eries
oc ese
og y
pl ain
Ġan war
con tractor
Ġman ila
ps u
Ġatt ending
ke elty
be es
be ale
Ġunder dog
Ġcomp ares
Ġwe i
Ġsl apped
Ġmar gin
Ġpar ched
pe ak
ira c
Ġper is
Ġno el
min ation
wor ries
bo arder
Ġdeal ings
Ġsusp ensions
war wick
Ġhead aches
dr igo
Ġrun away
Ġfe at
Ġrecord ings
Ġsay ing
bar ra
Ġcol ony
Ġcol ours
Ġtro p
20 20
Ġlook out
Ġmc guire
mc ginty
Ġbel connen
Ġposs ibly
Ġwr angle
Ġpast or
aling a
Ġtravel s
under ground
Ġest imate
Ġ24 0
protest er
Ġorgan iser
Ġbal ibo
Ġlar ger
Ġmu ir
Ġign or
dou glas
jack sons
Ġdeliver ies
Ġdream ing
iter ra
dan i
Ġje an
Ġregul ate
Ġmour ners
sing leton
wil derness
ori ade
Ġluc rative
Ġbatter ies
nick el
Ġcontrib uting
card inal
Ġdowngra des
Ġthor ough
Ġbranch es
Ġlap se
ti ary
Ġfal ter
Ġbog ut
warr ina
activ ist
anner y
enh ua
award ene
Ġprotocol s
Ġinnoc ent
Ġwrest ling
Ġvid uka
Ġbackbench er
Ġstero ids
Ġplag ued
fal conio
Ġalum inium
Ġbeet le
Ġheck led
Ġobser vers
unup ingu
ishik ori
b ent
c ip
d ance
e ating
f an
g ewater
j ad
k ovco
m umbai
s ens
v ac
v ity
w olf
in ions
Ġt at
Ġs ul
Ġs its
Ġf aulkner
Ġa j
Ġa aco
Ġp als
Ġd yn
Ġw ol
Ġw end
Ġw olves
ing a
is lam
Ġg rieve
el on
ol son
ac ewalk
Ġch ant
all an
Ġk winana
Ġv ines
ul u
ab u
ab ama
qu ine
Ġbe acon
op ener
Ġpl ibersek
Ġle hman
ment ally
Ġex hum
Ġqu eries
Ġal as
Ġag gression
Ġind ec
Ġdr essed
Ġcr us
ater al
ough lin
Ġrec ede
Ġbo ko
Ġunder mining
Ġpar ach
Ġsw elter
ger ard
Ġsm ut
Ġsm iles
ier i
ex ec
Ġcamp ese
Ġste pping
Ġdec ries
back bench
wh ales
uk rainian
Ġfun ction
uth an
mar ia
Ġsol ly
Ġgen ital
Ġben jamin
court ney
Ġ6 000
Ġwall s
Ġinv itation
Ġ8 7
Ġescap ing
Ġge othermal
Ġmot i
ser bia
Ġlegal ise
Ġbor ne
Ġjust ified
Ġlow y
Ġash ore
Ġpriv ile
Ġill icit
Ġpip es
Ġloc ations
bel ts
nam ulla
Ġmarri ed
Ġbroad way
Ġice berg
di abetes
Ġcru z
Ġoppos ing
cal m
fin als
Ġmck enna
Ġmck innon
Ġky neton
Ġsettle ments
Ġrebu ilt
Ġmax imum
Ġpromot ing
Ġmull en
Ġta vern
Ġseal ed
terror ist
Ġfitz gerald
Ġreloc ated
sant a
Ġneglect ing
hicks s
Ġger ard
Ġcontroll er
blast s
dire ct
Ġdistur b
Ġlaugh s
Ġsus an
jac inda
Ġdivid ends
Ġconsc ious
Ġobl ig
insp ect
iat ric
upgra de
Ġlun ar
ramp ant
Ġglac ier
Ġmv p
Ġcondol ences
Ġincurs ion
aband oned
Ġbradd on
irosh ima
6 00
b ust
b ashed
f el
h idden
p ole
s et
t at
t em
u ous
w ada
Ġs owing
es th
es loe
Ġp ics
Ġp essim
Ġb ale
re go
re fer
Ġd umb
Ġw ise
Ġo lds
Ġfor ster
Ġfor ming
Ġn ts
Ġl il
as cus
om era
and ji
am ateur
ad ish
ill ery
ge y
Ġsh ale
ment ieva
Ġsp ells
Ġro pe
ov al
ang lo
Ġfin anc
Ġtra vis
Ġfl avour
Ġdis mantle
Ġpolice mans
Ġbr ussels
for ces
ind al
Ġnot orious
Ġexp ense
Ġunder mine
Ġwater house
Ġcor bell
com bet
per form
pe a
ira sia
gra ph
Ġbu cking
Ġshow grounds
Ġref ur
Ġref ere
Ġla ura
Ġri pped
Ġmon a
Ġmon arch
rol oola
Ġz an
Ġbur rup
Ġsk et
Ġthr illed
Ġappro priate
Ġtur bul
Ġpost er
Ġfar ina
Ġfoot scray
Ġke elty
Ġmus cle
fr ances
ced es
xt el
tra m
Ġbel ief
Ġsun derland
Ġproper ly
cept ive
Ġchurch ill
Ġbad en
Ġeff luent
Ġneg ot
Ġspace craft
Ġign ites
Ġwood ch
Ġbol lywood
meet ings
Ġcrowd funding
Ġsor cery
Ġscrutin ised
Ġmort ality
Ġuns ustainable
Ġther ap
Ġaccept ance
Ġguarant eed
aut ism
Ġmean ing
birds ville
Ġanswer ed
lif ter
Ġaqu atic
Ġduck s
Ġimm ort
claim ed
Ġgal ilee
Ġgill ards
anth am
cred itors
Ġgut wein
bah rain
Ġplat ypus
vo ys
Ġsad r
Ġembarrass ing
Ġpist ol
Ġlaur en
Ġbudd y
brand is
Ġloyal ty
Ġshir ts
Ġconn olly
Ġconven ience
Ġcompan ys
Ġhect ares
Ġkinder garten
Ġinterven es
osex ual
devon port
Ġrefere es
b oston
c un
d ennis
h ou
h ine
k or
n ame
q atar
r w
r er
s us
s ab
z amb
an ke
Ġf osters
Ġf ingers
ar io
Ġd rew
Ġw awrinka
is ol
Ġin stru
Ġh ass
st amp
le l
ra ville
Ġg el
el vis
Ġn ed
Ġn uts
Ġn amb
Ġl enders
Ġre li
as is
Ġr im
Ġr idd
Ġst aged
th ick
Ġth umps
ch us
Ġch ats
ot ed
Ġv ouch
ge ale
Ġj ockeys
ab un
Ġle aps
Ġle yon
Ġun less
Ġun ites
Ġex ceeds
ap ology
sh ed
end our
Ġqu ant
Ġag reed
ach ed
Ġcr an
Ġad vers
Ġback tracks
od ie
Ġbr endon
und red
Ġme agher
Ġme hajer
ib ac
Ġcons ortium
Ġrem ake
ern o
Ġper il
Ġair strike
Ġhome owners
Ġsm ooth
ich el
Ġmo h
ex erc
by pass
int end
sp y
sp ective
ah awk
Ġbush s
Ġgre gan
can ola
wh ooping
uk andji
Ġsn ail
Ġcut backs
ner y
sc ient
Ġappeal ing
Ġsol ving
Ġsal aries
Ġchrist ensen
Ġtas ers
bro thel
Ġma j
Ġge or
ser pine
Ġpen ola
Ġtre ble
Ġwind ows
rib ee
aust rian
Ġbag gage
quest rian
Ġhard ware
Ġmis car
Ġfact ions
har ness
Ġdisapp ears
Ġsan fl
Ġcow ra
uff ed
Ġmess i
storm ers
Ġcop enhagen
Ġcru ising
rich ie
Ġpoor ly
Ġhack er
Ġmel on
kar l
ode i
vol untary
Ġsup rem
Ġ28 0
Ġscre ens
da q
vis itors
Ġcounter feit
saf in
Ġsingle ton
Ġski ing
Ġincreasing ly
Ġbass link
space x
Ġthunder storm
ele ven
Ġprospect or
Ġembar go
Ġug anda
salv ation
Ġdal by
Ġgriffith s
mov ed
Ġox ford
Ġferr er
Ġpa use
cut ting
Ġforesh adows
hu on
Ġelim inate
Ġkh ashoggi
Ġjen kins
Ġprev ents
Ġparticip ation
Ġflex ibility
Ġhep burn
Ġlev ies
georg ia
Ġaccom pl
bang kok
Ġreprim anded
Ġexcell ence
Ġgambl ers
beekeep ers
Ġcompar ison
c ath
g rylls
h ast
k ova
l uxury
p ly
s ink
s ite
v line
w er
w itz
Ġt ay
on ne
Ġf ought
Ġp ats
Ġb atch
ol ine
ac id
Ġl uk
Ġst ef
Ġe ats
ir ates
Ġk remlin
Ġv od
ce voy
Ġse ag
Ġse aweed
Ġpro minent
ds haw
Ġas king
Ġas pir
Ġpl aza
Ġpl umm
Ġle icester
ous in
ne ville
sh ir
ag ogue
Ġra zor
Ġup hill
cc l
Ġhe aven
rom ine
Ġwar ms
Ġag gra
aw ays
og ger
Ġdis charge
Ġcra wl
Ġcra wford
ind on
oll er
Ġtri angle
Ġne ville
Ġele ven
sa ve
Ġsupp lement
li brary
wa iting
Ġsm ile
Ġref s
pro secution
Ġla ure
ile psy
Ġmon ument
war ts
cor bell
par amedic
Ġhar ds
Ġir ans
Ġrele asing
Ġem bro
Ġpat ent
Ġhold ings
Ġeconom ies
Ġpolic ewoman
Ġbeach ed
Ġq c
Ġmer ry
Ġma o
Ġcam bridge
Ġboy le
Ġrac ially
andid os
Ġbor ing
Ġwild fire
val encia
ca utious
Ġlist ening
bul k
bul lying
Ġbel arus
Ġeuro zone
Ġpack ed
Ġrich est
Ġmarri ages
Ġlear ner
Ġcoun ty
Ġsim ilar
Ġcard inal
Ġsome one
Ġgar uda
Ġarch ie
Ġmel issa
Ġisa ac
uat us
Ġaband oning
rob i
kar en
Ġscra pe
Ġcull ing
Ġbon anza
Ġself ie
Ġhapp ening
fra cking
shar p
Ġmorning ton
det ained
expl ain
Ġsoccer oo
Ġdust y
Ġsepar ation
Ġsepar ated
Ġhighlight ed
coll ie
Ġta ught
Ġcouns ellors
aut opsy
hart o
Ġadd itional
Ġinject ing
conf ident
Ġlov es
ju venile
inf eld
Ġexcl uded
load ed
Ġmush rooms
Ġimpl icated
Ġgate crash
Ġwors fold
Ġenjoy ing
Ġfet ch
Ġles bian
Ġfum ing
Ġclock ed
sor ry
Ġdial ogue
wel sh
hind marsh
Ġsi blings
frank lin
Ġshear ers
tun nel
Ġmcle od
onest eel
kill ers
nom inations
trav ellers
disapp oint
pu ppy
Ġsnip er
Ġdispos al
Ġobserv atory
jew ish
Ġparl our
Ġindivid ual
cerem ony
Ġoxy gen
recycl ed
Ġplumm ets
c igar
f us
g um
g ough
h aust
h umpback
l akes
l leyton
o ela
w idespread
Ġ uc
Ġt ons
Ġt icking
Ġt yson
es ian
or us
or ah
ar ity
Ġw c
Ġw inger
is coll
Ġto tt
it ism
ic ia
Ġh ai
ro ts
ro deo
st ake
Ġg le
Ġg idley
Ġfor an
Ġn iels
Ġr ico
am am
im ental
Ġk enn
Ġk ennett
Ġv ick
Ġj ag
Ġse ctors
Ġse ismic
Ġcon roy
Ġthe ories
Ġsh y
Ġsh aft
Ġpro sec
oo chy
op ol
Ġcl ue
ustr ys
Ġsp am
Ġco b
ath ir
ie ck
ber to
Ġup st
Ġwin emaker
Ġfl intoff
Ġby election
Ġind ians
cl air
Ġback ers
ke ane
Ġtr ounce
Ġpre cedent
Ġim migrant
Ġme g
the at
Ġboo ker
Ġmar ries
he ath
Ġdo k
Ġprotest ing
Ġinqu iries
ric ciardo
Ġall ay
Ġpower less
win ton
Ġple ases
Ġir responsible
car p
anc ock
sc ulpt
Ġcol i
Ġbet ts
Ġrev is
ope z
Ġblast ed
eth ical
Ġteach es
Ġdom ain
Ġafl oat
sch u
Ġbay ern
Ġpos ing
Ġdest ined
Ġ9 4
Ġmount ing
market ing
bor o
Ġzeal ands
Ġremain ing
erv ation
elly se
ta it
Ġlog o
christ ine
def iant
bh utto
Ġoppos itions
Ġcriticism s
Ġwood ward
Ġeng age
Ġknife point
leg end
walk ing
Ġtable ts
Ġcell ar
Ġtouch ing
gall ipoli
tw elve
Ġult imate
Ġing ham
Ġok ay
independ ents
bay ern
Ġvigil ance
Ġkay ak
Ġpie ces
controvers y
arn hem
Ġtoy ota
Ġelim ination
Ġbrit ons
celebr ating
coc a
Ġrecre ation
aver age
Ġalum ina
Ġinfest ed
revamp ed
Ġrepatri ation
bou gainville
buff alo
Ġsequ el
Ġinund ated
azar enka
Ġherb icide
Ġpneum onia
sie ge
Ġleyon hjelm
b ones
c ull
f y
f alse
g iving
g astro
j ama
k ath
k ov
l oo
l av
o ecd
r als
r ential
s ustainable
t ank
v ised
y ans
z el
in atory
Ġt abled
Ġs lee
Ġs ullivan
Ġc ans
Ġc dep
on i
Ġf antas
Ġf antastic
Ġb p
Ġb rib
re ce
ed es
Ġm im
Ġw oz
Ġin it
ro sa
ra a
ra ctions
el as
ol ition
Ġn az
ac ists
Ġl ia
Ġre claims
ay ney
Ġe uthan
ch o
Ġon c
ot ics
ri pper
Ġk an
ul fs
Ġj acqui
Ġcon vent
Ġcon vert
Ġat omic
um bling
qu iet
ast rous
out ts
Ġun moved
ath ams
ne ed
ag ency
Ġra pper
Ġy o
Ġbl uff
Ġqu ashes
Ġal ph
Ġfl ick
ee han
Ġdis cre
Ġad min
se par
ind onesians
Ġcomm uter
Ġmin ibus
ign ed
Ġne o
Ġmar eeba
Ġsw ears
Ġsupp orter
min eral
Ġreg ener
bo om
Ġbar ron
Ġend anger
ille tt
gre ater
Ġz uma
Ġimp ounded
io id
udd le
Ġtrans formed
Ġgen ome
Ġhom emade
Ġbank er
Ġfar c
Ġfar rell
Ġfoot print
Ġgreen er
Ġtrack er
Ġfra m
Ġbeat les
ris don
Ġel vis
Ġfest iv
Ġbor es
Ġcross bow
Ġgrand father
Ġruss ians
health watch
high landers
su le
sur d
Ġmis under
cept ions
Ġspark ing
Ġsil k
Ġblues cope
sol o
Ġmotor cyclists
stit utes
Ġdan cer
Ġbrief ings
Ġlack lustre
Ġgener ator
fun ction
murder er
Ġeng aged
Ġeng ulfs
hab ib
rel atives
bow ler
gi ene
park ing
Ġswans ea
del hi
Ġten ure
Ġju ventus
Ġ29 0
Ġknock out
Ġell iot
Ġvolcan ic
Ġpu er
Ġhicks s
Ġbee ch
Ġtag s
Ġredund ant
arth urs
Ġfort night
kok oda
Ġrh et
Ġfactor ies
Ġbrut ality
Ġwif i
coon amble
Ġcomb ine
critic ism
Ġbrow se
Ġpier o
Ġnin th
Ġanth rax
Ġswamp ed
Ġot way
Ġdefer red
neighbour s
Ġgymn astics
Ġshrink ing
Ġbulld o
Ġrack et
sign ificant
Ġdistract ed
fen haus
Ġcriter ia
Ġcongrat ulates
Ġeject ed
Ġcomed ian
bounc er
Ġzar qawi
Ġstereoty pes
wyd ir
alleg ations
adish u
1 000
c atherine
d ir
e agle
f eder
h emp
i ara
m ia
n ad
n arrabri
p un
s in
Ġ ig
Ġs le
Ġs ierra
or ous
Ġa quarium
Ġp ony
Ġd oll
Ġd odd
Ġd ellacqua
Ġm ia
Ġm ansion
Ġm ubarak
Ġin compet
Ġh ug
Ġh inders
Ġg ale
Ġn onsense
Ġl akers
Ġl inger
ur uguay
Ġre h
Ġr ather
Ġr ated
Ġr attle
Ġst icking
Ġe b
Ġth umb
ch witz
ad ed
im port
Ġv oges
Ġbe au
Ġas cot
Ġaf ghans
iv a
sh i
ks wag
Ġfin land
Ġtra dem
Ġind ustrys
aw es
own ed
Ġsc ud
Ġsc allop
ning ham
Ġtr out
Ġgr illing
Ġhel ipad
ib ilities
Ġfound ers
li o
Ġor ica
iraq s
Ġgra phic
bo ats
Ġri pper
ah l
Ġend ures
Ġend eavour
iz a
Ġstor my
Ġso oner
Ġrob bing
Ġcol orado
Ġfree zing
Ġhand icap
Ġstand by
Ġaid ing
Ġke ogh
Ġbeh aved
Ġcrow e
Ġcrow ded
Ġpal estine
rad ical
Ġhal ved
Ġimpact ed
Ġang ler
oms day
sun corp
sun raysia
mc gauran
Ġx injiang
Ġru ined
Ġjack sons
Ġsell ers
Ġearth quakes
Ġouts ourcing
Ġcard iac
Ġmcc ormack
Ġwell being
Ġfair ness
Ġdan i
Ġapproach ed
roll s
fin ch
tax payers
Ġassess ing
Ġpick ers
Ġhapp iness
Ġcomment ary
Ġhamp shire
Ġkick backs
park er
Ġaccept ed
Ġbreast feeding
Ġlamb s
mad ine
Ġprosecut ions
tar ee
esa ver
Ġbern ardi
Ġpump kin
Ġdifficult ies
Ġtel co
Ġbog us
ju ve
Ġjeff rey
Ġexcl usive
Ġadopt ions
Ġbench mark
Ġstret ched
gard ie
Ġjac inda
Ġpod ium
Ġcarol ine
Ġcert ification
Ġnut rition
Ġcul leton
Ġah med
Ġkind y
dev ast
bure auc
Ġbry ce
Ġairstri kes
Ġww f
Ġcoo ber
Ġdv d
Ġcatastro phe
Ġterritor ies
Ġinsult ing
Ġdisgust ed
Ġconqu er
Ġfreck le
administr ator
fev ola
Ġreneg ades
Ġinduct ed
Ġunim pressed
isas ale
a uts
b ells
b ett
d ock
d irt
f ix
g od
h inch
i eth
l ud
l ene
m ouse
n azi
o in
r iss
t ic
t ender
t ander
v ation
w to
w ings
z ic
z ils
Ġt apping
Ġs bs
Ġc afes
an ong
Ġf as
Ġf ading
Ġf ades
Ġf asc
al ong
Ġa y
Ġb ach
Ġb aw
re present
at oes
Ġd ough
Ġd hab
Ġd azz
Ġd inosaurs
Ġm ant
Ġw yd
Ġh em
Ġh eralds
il uka
Ġn hulunbuy
Ġl ighthouse
as ph
as ada
Ġst inger
im er
Ġde es
Ġk amb
Ġv cat
Ġv ettel
Ġj ava
Ġsh elf
Ġcl ing
Ġcom ey
ap ing
sh earing
Ġra bbits
art ificial
ard ing
Ġtra wl
Ġtra pping
Ġal o
Ġal der
Ġal astair
Ġcar pentaria
Ġcar etaker
Ġdis may
Ġcont em
ass oc
yd ay
Ġsch warzer
att ies
ty son
act i
act ew
ents ch
the id
bl atter
Ġsl edge
Ġgu id
Ġhealth ier
Ġconf esses
Ġpar ity
ger anong
min ton
Ġcup s
Ġla verton
Ġste ad
Ġpo ppies
ah y
Ġpres cribed
back yard
par ag
Ġ3 50
Ġstri ps
no on
Ġ4 0000
Ġcol ac
mar adona
Ġpost ed
go ve
ital ia
Ġap ra
Ġfra g
Ġlink ing
Ġmc ph
Ġma ori
Ġer dogan
Ġwatch ers
sm ok
lam ydia
Ġmag pie
dar fur
Ġsav ages
inter land
mayor al
Ġve gie
ilipp oussis
Ġi owa
Ġdiv a
Ġinsp iring
Ġwal t
sol id
Ġ0 3
Ġ0 6
Ġmotor ist
Ġsam urai
Ġtun nels
haw ke
Ġpain ful
Ġimport ation
wal gett
mil ne
mill an
Ġproduc ing
Ġmad ness
Ġcoff in
Ġdeliver ing
Ġprogress ing
fre eway
mus wellbrook
rail corp
Ġkidnapp er
Ġsuffer er
Ġacqu ires
Ġcool um
Ġlad ens
Ġfrustr ate
Ġly ne
Ġsuggest ed
Ġcerem onies
Ġdivers ify
Ġbrand ing
post al
tw ins
Ġaver ted
Ġut ility
uct ive
fil ipino
Ġsmart phone
loe b
Ġbreath ing
Ġfal ters
Ġpartnership s
Ġreass ure
ivan ovic
cri pt
Ġcad ets
hing is
Ġnich olas
prosecut or
but cher
conne ct
Ġbutter worth
Ġrand wick
Ġpatt inson
pear ce
Ġpic nic
Ġhodg son
Ġlaugh ing
sent ence
stat eline
Ġpilgr image
Ġhann ah
Ġnegl igent
cong o
Ġrort ing
Ġbenn elong
Ġvalent ines
rep orter
Ġpoet ry
Ġreflection s
Ġvinc i
Ġpopul ations
pengu in
ingrid a
exerc ise
Ġhai yan
Ġniels en
Ġpuer to
kswag en
Ġdhab i
3 2
b is
b ud
b und
c atal
c bd
d ancing
h ik
h orn
h ony
k nee
m ith
m claren
n ude
o j
p ump
r ide
r ated
t rees
t inkler
z ero
Ġ orth
Ġs edition
Ġc av
Ġc ousin
Ġf illing
Ġf onterra
al ay
al mond
Ġa uspine
Ġp aine
Ġp umm
Ġb ands
Ġb ung
Ġb arton
re in
at m
ed i
Ġw ig
Ġw gc
it ty
Ġin let
Ġh undred
Ġo dd
le ave
le icester
Ġg han
Ġg orgon
Ġn asty
Ġn enw
Ġl leyton
Ġr da
Ġst ung
ch al
Ġch oking
Ġch ogm
ill on
Ġv ff
Ġv fl
um ed
ck e
Ġcl ergy
Ġun sc
Ġex ceed
Ġro ses
Ġco ke
sh an
Ġra cer
ov an
Ġy ous
av ell
av ana
Ġab surd
ang ling
Ġout stri
Ġqu ade
Ġchar lotte
ish man
oc ross
Ġan ning
Ġan asta
od rome
Ġbr its
for ds
Ġsc iss
Ġtr udeau
Ġwh ate
br ig
Ġret rieve
Ġsur ging
itic al
Ġsl ed
Ġgu am
Ġmar red
ax ed
Ġday ers
Ġlaw rie
gra ins
Ġdo zen
Ġstr anger
Ġam ount
Ġli ver
Ġli ken
Ġter esa
Ġla undry
bo th
bo yd
bo ko
Ġmed ibank
Ġpe an
Ġsaf in
fl ames
Ġbar rie
Ġdam ascus
Ġbro kers
iz zy
ves on
Ġrest ores
ai wans
bar rier
amb ula
Ġpost ers
Ġsal ute
ann up
Ġins ol
Ġins ects
Ġpass age
mon ash
la us
la ught
Ġav iv
Ġspr inter
Ġcattle men
Ġinf erno
Ġimpro per
Ġrow er
Ġarri ving
Ġren ovation
Ġmust ering
Ġuk rainian
lin dsay
Ġlast ing
bur dekin
bra very
sur prise
lo xton
Ġclass ification
Ġking dom
Ġhuman ity
Ġlear ns
Ġbeef s
Ġseat belt
tur f
comp o
Ġarm our
Ġexc ites
Ġunh armed
Ġsor ghum
zz y
far ah
Ġpunch es
met gasco
hot els
Ġconfirm ation
trad ing
Ġnar acoorte
Ġdiscrim inatory
Ġcarn age
sim pson
Ġstan ford
gib son
emb attled
Ġrepresent ative
Ġdun n
Ġchoos ing
Ġbuck et
Ġsalv ation
rac v
Ġmick elson
cul osis
ili quin
Ġlov ing
Ġmack lin
Ġmack illop
Ġbrid get
Ġnarrow s
Ġconnect ed
uber culosis
sadd ams
Ġdemocr at
Ġpray ers
sail ors
Ġelim inated
mart yn
Ġeradic ate
surge ons
Ġmood y
Ġlon ely
Ġstrang ling
Ġplag iar
wans ka
Ġblo oms
Ġons laught
Ġlith ium
Ġcanv ass
Ġpla que
Ġprovision al
Ġnegot iation
Ġnamb ucca
abun na
Ġrhet oric
c ambod
f k
f is
f ound
f ielder
h ia
h iker
k ennett
k hawaja
m ember
m aldives
p ract
r atic
s ewer
t anya
u f
u ve
w ling
z io
on ky
Ġf iance
al inta
en za
Ġp enn
Ġp iano
re hab
Ġd ally
Ġm ys
Ġm ention
Ġm utiny
it ects
Ġin con
Ġh ipp
ro hingya
st okes
le vel
Ġl inda
Ġr ous
and ez
Ġe ureka
Ġth redbo
ch ev
ch appell
ad ler
Ġch and
Ġch ill
Ġch ann
ew ays
Ġse men
Ġover pass
ab o
oo f
op inion
Ġle y
Ġco d
Ġco bb
end ale
land t
Ġbl ight
Ġout standing
Ġhe av
Ġtra inees
Ġplan ners
row ers
Ġfac to
Ġsu its
Ġwh ites
se al
se ille
Ġmin t
Ġen list
mp le
ull ah
Ġbre eds
uc aly
ph al
Ġstr ands
Ġair lie
Ġair space
Ġli zard
Ġstud ios
Ġter rible
Ġter tiary
Ġor igins
we i
Ġref lo
bo ards
Ġhit man
Ġmon ks
Ġden is
Ġpres ervation
Ġdeb ated
Ġcap able
Ġrest ricts
Ġce os
Ġfun gus
Ġbur ton
cast ro
Ġpublic ly
Ġtrans l
Ġred iscover
Ġche que
Ġhom etown
Ġrisk ing
bre eding
acc ess
Ġbor o
Ġmid wife
Ġmid wives
Ġmid fielder
Ġyoung sters
Ġdest ination
Ġjun ction
bur ra
Ġcal oundra
au ction
sy n
Ġfact ors
Ġbuy backs
Ġopt us
Ġmemor able
Ġson ny
burn t
Ġic u
Ġaud its
dem olition
hd atis
Ġham ish
Ġmcc ann
Ġgang uly
rock ets
Ġgar lic
Ġstock holm
sk ate
sk illed
odies el
Ġambul ances
Ġattract ing
met ic
Ġven om
Ġdevast ate
zy u
Ġwid odo
Ġhy giene
hunt ers
Ġell en
Ġmeth amphetamine
Ġconservation ists
lis le
ros ie
Ġow es
uka emia
emb ley
Ġrevers al
now ra
Ġcock tail
pop es
bit coin
Ġpump ed
Ġpsych ologist
anth rop
conf idence
ek ka
Ġstab s
Ġcollect ing
football er
special ist
Ġcomb ined
Ġpatt on
engine ers
Ġbrun swick
yu endumu
Ġmoran bah
hero in
Ġfract ured
Ġhyd e
Ġhale p
Ġelig ibility
princip als
Ġgol fer
bab ys
robb ie
Ġpf as
Ġster il
oth y
Ġmolest ing
Ġinvas ive
dung og
dod gy
Ġtrol ley
Ġunsol ved
Ġpals y
ccl estone
Ġprosec ute
Ġdok ic
Ġfram ework
3 8
c oul
d est
f ines
h ouston
i berg
j ill
l ov
m ough
p ul
r uth
t assal
u ik
w ade
Ġ ud
Ġs oy
Ġs elwood
Ġc el
Ġc aval
Ġp amp
Ġb b
at ian
Ġin str
Ġin formed
ro ots
le a
le w
le es
ra ising
Ġg ur
Ġl ga
us ain
Ġr uck
Ġr ica
Ġr alph
id ane
th els
ch ambers
ad as
ts vangirai
Ġk end
Ġk ylie
ice f
Ġpl ots
man aging
Ġle mon
Ġcl ings
Ġsp ears
Ġwith holding
ap se
ath ed
Ġab road
Ġwin ched
Ġqu in
ob olin
age ing
Ġaustral is
Ġfl ip
ee le
Ġdis astrous
Ġan aly
Ġan onymous
Ġcont ender
Ġad missions
Ġback wards
ool ool
Ġop rah
Ġsc outs
Ġsu kum
amp ard
Ġwh os
Ġgr ateful
Ġcan yon
Ġcourt ney
new ly
Ġexp ats
ues e
br iton
Ġim ag
Ġcor ps
Ġwe aker
Ġsl ower
Ġwill ow
ph ew
Ġstr on
ger ys
ger mans
Ġair bnb
Ġli br
Ġinter cepts
Ġaccused s
Ġpart ys
war f
win x
win emaker
Ġrele g
Ġtim ely
ray ney
Ġexpl ode
Ġpri zes
Ġsk ir
Ġsk ating
Ġpublic ity
enn ai
ett est
amb rose
Ġgun fire
let te
work shops
Ġlook ed
Ġprotect ions
Ġplant ed
Ġplant ings
Ġcle aver
Ġcle veland
tas er
Ġtoll s
Ġspr ui
mal aysias
Ġey landt
Ġsqu ads
Ġjust ine
Ġtough est
Ġfear nley
Ġash by
Ġmy st
pal au
Ġbel mont
orse man
oh ern
aed iatric
Ġwr itten
reg ular
Ġpast ures
Ġwalk out
Ġdisapp earing
Ġ0 7
Ġjack man
mor well
sn akes
gas nier
Ġwool mer
Ġbook ed
Ġovers ight
Ġsat ellites
Ġperson ality
erg on
Ġeng ulf
bill ion
Ġbell ied
Ġcontain ing
Ġcooper ative
Ġcull ed
che ap
Ġmort lock
ben ef
cat astro
Ġshr inks
small er
Ġisol ate
bik es
Ġ300 000
Ġappla uded
Ġsymp athy
Ġarg uments
chn ya
Ġjew el
bom ber
qual ified
clark son
Ġtibet an
Ġhyp ocr
Ġwat kins
astron auts
Ġmeteor ology
escap ee
mening a
Ġturb ines
Ġheath row
Ġjol ts
Ġlgbt i
pred ict
Ġintent ions
Ġsizz les
Ġbarbar ians
arri um
Ġarth urs
forg otten
Ġdefra uding
psychiat rist
Ġnull arbor
Ġfev ola
cav endish
ooch yd
Ġdepl oys
Ġrit ual
Ġgent le
Ġzomb ie
Ġstockp ile
Ġindec ency
Ġvouch ers
Ġaggra vated
stake holders
theat re
Ġwoz niacki
madine jad
avana ugh
Ġsprui ks
c otts
d ying
f owler
g ical
g ws
g dp
m ie
p and
p add
r ust
t aste
u ans
y man
Ġt aj
Ġt ahu
Ġs ap
Ġf m
Ġf azed
Ġa par
Ġp or
Ġp ants
re ys
re cession
Ġd ens
Ġd ouse
Ġm ali
Ġm ocks
Ġto t
Ġin her
Ġin fighting
Ġh ens
Ġo tt
le thal
le ighton
ra j
Ġg oss
Ġg aff
Ġg rie
Ġn erves
Ġl oop
Ġst ings
Ġst ink
th ailands
ir u
ch oice
os i
ts onga
ab i
Ġbe an
op tim
Ġpl astics
Ġun ders
Ġro dd
ag ent
end le
ans as
ug uese
Ġqu ite
Ġfl ips
Ġcar ing
Ġcar ve
Ġcar los
old est
Ġcr c
Ġsc out
Ġsc rew
Ġret ract
Ġ20 22
Ġcomp ared
Ġmiss ions
Ġsl ipping
Ġsw ells
Ġstr uct
pro v
pro spect
Ġinj uring
Ġpres erved
dr un
Ġhar old
rol hos
Ġflood water
car er
Ġbomb ed
Ġsol icitor
Ġmor ph
Ġmor occo
Ġcond om
ris k
Ġgirl friends
Ġfest ive
Ġspeed sters
quest ion
Ġpack s
inter im
Ġhard y
Ġevacu ates
turn er
lands lide
Ġbuy out
mor gan
Ġshar pe
uff s
Ġhall oween
author ised
ograph ic
Ġciv oniceva
bomb ala
Ġirrig ator
pil gr
Ġty res
leg ion
pan ama
blaze aid
Ġstress es
poll ution
Ġaccount able
utt gart
Ġpest icide
Ġrein force
Ġbrad man
Ġpu pp
trib ute
Ġcub an
Ġsweep ing
tit ude
pie ce
Ġfaith ful
swim mer
mand urah
Ġoverd oses
istlebl owers
Ġextrem ist
Ġgeorg ian
Ġdrain age
Ġscor cher
Ġats b
Ġstret ches
Ġchile an
Ġpresent ed
Ġabol ition
Ġcole man
Ġshell fish
Ġgram my
Ġwealth y
dev il
Ġhistor ian
shell harbour
Ġgor illa
pension er
Ġdisciplin ed
Ġplott ing
Ġseab ed
Ġmong ol
Ġabus er
inst agram
domin ant
Ġbree zes
Ġtes la
Ġogil vy
eleph ant
Ġprote in
Ġazar enka
esth et
Ġembro iled
Ġtradem ark
b ainimarama
c ops
f ga
f aces
g io
h iddink
m v
o ct
r itt
s amsung
t ag
t ive
Ġt ak
Ġs ag
Ġc en
Ġc pr
Ġb arm
Ġb oll
Ġd aintree
it o
ic ic
ic ian
ic pa
Ġh ump
Ġh ague
Ġh interland
il et
st ir
Ġg az
Ġn ud
Ġn anny
Ġn imbin
ac oss
Ġl pg
Ġre intro
ig ator
ter m
ow ary
all ourn
ak in
ul ent
Ġj esus
pp o
Ġse ym
Ġcon vince
ack s
Ġsh ells
Ġbe i
ut ic
Ġle es
Ġsp acewalk
Ġun cle
der ail
ap ra
ap elle
iv ik
ber lin
ne apolis
ore y
Ġar ia
Ġar af
Ġup rising
Ġy an
Ġbl asph
ob o
Ġcar roll
af one
Ġcont ador
for ums
Ġsc utt
Ġtr inity
ick ed
yd e
Ġmin chin
Ġmin ichiello
uss ain
Ġdef ying
Ġwater way
Ġcor nes
Ġcor pse
Ġmar c
Ġdri ed
Ġjo ey
Ġclos ely
Ġwa ikerie
Ġcons istency
Ġsw aps
Ġam ends
Ġam ended
ger ry
Ġinter n
Ġreg atta
Ġwest on
Ġdes per
Ġmed i
Ġann astacia
Ġcro ok
abb ot
red rea
par ed
Ġcap sule
Ġir ma
car l
Ġsn ork
Ġrel inqu
Ġstar ter
ald a
Ġem my
Ġgun shot
Ġsub marines
Ġrail s
Ġsecond ary
Ġstaff ers
Ġinv ader
cy c
cy prus
Ġrac ers
sch olar
dra vid
Ġdisp ers
Ġob ese
Ġ9 8
ste vens
Ġsafe guards
Ġdi ocese
russ ias
Ġcheck point
mo oney
Ġfilm makers
Ġsil os
gar naut
hun ting
fact ion
Ġcatch ments
Ġsecret ly
Ġmcc aw
Ġcas a
rench ed
Ġgener ous
Ġsmash ing
Ġpurs uits
Ġwrong ly
Ġdry ing
Ġcold est
Ġchem ist
illing ton
Ġgro om
Ġhang over
hel en
Ġos borne
Ġregul ators
Ġba illieu
Ġdevast ates
Ġaccept ing
Ġprior it
Ġsyn agogue
good es
Ġmater ials
she ffield
box er
gill espie
Ġthunder birds
Ġliter ature
rac ism
Ġgradu ation
Ġobs ession
Ġgift ed
Ġgib bs
warr ant
Ġrequ ires
Ġmorris ons
Ġprint ed
nic ola
aky be
Ġhazard ous
doc ument
Ġdemonstr ation
max well
techn ical
explos ions
mod el
Ġsus sex
Ġroman ia
Ġshap ed
neg oti
iah leigh
bring ing
desal ination
kur dish
hodg man
compl aints
Ġov arian
raf ael
Ġskyd iving
Ġsuc ceed
Ġhos p
Ġanton io
Ġinterrog ation
Ġhomophob ic
advoc ates
Ġwick ham
Ġinterrup ts
Ġprest igious
rott nest
dred ging
Ġrook ies
Ġunfold ed
Ġabl aze
explain er
cigar ette
Ġsukum aran
Ġstron gh
oochyd ore
Ġapar theid
pilgr ims
3 80
b utton
b iden
c oss
d ings
f u
f ugitive
f aulkner
h ave
i ences
j ol
j ump
k allis
l ins
m ong
n itschke
p unt
s artor
t ug
t ures
y ip
Ġ um
Ġ ans
in ver
Ġt atters
Ġc ider
Ġf amine
ar oos
ar gent
al ous
Ġp ike
Ġb ets
at j
Ġd und
Ġd well
Ġm ik
Ġm add
Ġw igan
is bury
Ġto x
Ġin stead
Ġh ust
Ġh int
Ġh erald
Ġh oses
Ġo wl
le ay
le ine
ion ic
ra vensthorpe
Ġg inger
Ġg aga
Ġg olds
Ġfor ge
Ġn alder
Ġre ly
Ġre play
ig ans
Ġst ray
Ġe bay
ver beek
os oph
Ġk emp
Ġk allis
Ġk ieran
Ġse min
Ġsh ivers
Ġsh aking
ab ad
Ġpl ates
Ġpl uto
Ġcl ip
Ġun e
ap to
ath ens
ath arra
Ġnew ell
ov ine
av elin
Ġres idence
ang ela
Ġag round
af tersh
ong o
Ġplan ets
Ġback ground
Ġsc ape
se eney
Ġgr ands
Ġcan n
Ġmur rumbidgee
new ton
Ġhigh ways
br its
be ki
sa pp
Ġme ant
Ġconf using
Ġrem inds
Ġsupp ress
Ġopen ers
Ġsouth port
Ġno on
ook a
wor m
du ed
Ġri oli
Ġph osph
Ġconcer ts
Ġconcer ning
sp ate
abb otts
Ġfinal ises
red man
par ad
Ġbar ber
Ġend orsed
Ġmill ar
Ġbro gden
cur tin
Ġsn apped
Ġisland er
Ġsk ill
Ġresc uing
Ġblack water
Ġblack list
Ġsal utes
any e
let ico
Ġins ults
water house
20 13
mon to
mon ty
ved ev
Ġspr uik
Ġint ense
Ġboy cotts
Ġdrum mer
Ġdisp atch
Ġbul ker
Ġmy ki
tle fish
Ġcust om
Ġlank as
gu ide
her vey
Ġcheck ing
roy als
ino chet
mo or
Ġboom er
Ġwal gett
Ġ0 8
Ġic y
Ġfo am
Ġdig ging
Ġsnow don
Ġ24 1
eas y
Ġbook ings
Ġlobby ist
mac edon
Ġbi ological
rel s
rid i
Ġamong st
bow l
Ġbat man
fre ak
Ġdesign ers
da isy
vis a
Ġmang ro
Ġambass adors
comed ian
Ġmanufact urers
Ġwheel ie
dam age
Ġtriumph ant
Ġacad emics
Ġta it
Ġta unts
ros is
une i
Ġspirit ual
Ġtele communications
Ġtele graph
lon ard
Ġspin ner
Ġray mond
Ġbee keepers
Ġut ilities
drink ing
Ġcomprom ised
Ġlit res
Ġsymp ath
Ġentit led
Ġdetect or
Ġtall est
gard en
Ġpa uses
Ġembarrass ment
Ġconcess ion
yon ce
Ġvers ion
wyn dham
Ġfis cher
kh mer
rub y
cong ress
Ġunpre pared
Ġborrow ing
Ġpuzz le
Ġpuzz les
Ġunle ashes
summ ary
Ġlud wig
Ġinvent or
Ġgat eway
volcan o
Ġtex ts
rul es
Ġnob le
Ġadvertise ment
recover y
Ġanch or
Ġpard ons
Ġfranch ise
Ġexagger ated
legisl ation
repair s
Ġparas ite
Ġrelic s
Ġswall ows
Ġlug gage
enom en
Ġsamarit an
izophren ia
Ġhards hip
catastro phic
Ġseym our
6 5
8 5
b m
b uster
g ol
g ans
k r
k uznetsova
l iss
l ax
m ice
m av
m urch
m ardi
s isters
t icket
v ag
y e
y st
er ton
er iksson
on ica
Ġf ah
Ġf mg
Ġf aults
ar et
ar ter
ar ah
ar anka
al f
al ger
Ġp i
Ġb airnsdale
re j
Ġd ons
Ġm und
Ġm ops
Ġw art
Ġw rist
Ġw ows
Ġw mc
Ġw oom
Ġin k
Ġo aks
Ġo ecd
il aro
Ġg s
Ġg ums
Ġg rieving
el ands
ol ivia
Ġn em
Ġn uffield
ac oota
Ġr ug
Ġst ump
th ard
ew itness
ot ov
Ġk ell
Ġk oor
Ġk avanaugh
Ġv on
Ġcon cept
Ġpro sth
up s
op us
ut ely
Ġsp ins
em bass
iv f
ant ic
Ġres ched
Ġtra f
Ġtra inee
ip a
ach ie
arm ers
con tain
Ġrec ipe
Ġtri be
Ġne al
Ġdef use
ale b
Ġwe ird
Ġwill ie
ph ia
wa ites
Ġsm og
Ġdel ights
Ġor angutan
app rent
Ġshow ground
Ġmon k
Ġmon is
Ġmon ica
Ġbar n
Ġhar per
Ġbra hman
Ġmill enn
az er
Ġdisc ounts
Ġland fall
ald o
Ġstate hood
bar ramundi
Ġblack spot
ep isode
Ġhom eland
how ards
water front
form ula
bush walker
20 12
Ġsign ific
Ġmc gee
Ġmc namara
wood ward
Ġint ention
Ġmal eny
Ġcross roads
Ġang ela
Ġhum il
Ġfear ful
Ġarri ved
Ġball oons
ron om
Ġeuro pes
bra ck
Ġmac edon
Ġzealand ers
Ġwal ter
Ġ0 30
dem on
Ġqual ified
Ġtun isia
Ġda up
quar ry
ober on
Ġprob ation
Ġequ ine
Ġfif ita
bat ross
Ġcaps ized
Ġunh urt
rail way
Ġview ers
snow town
Ġmort ar
Ġmour ned
eek atharra
park inson
Ġabattoir s
support ers
Ġshr ug
Ġconduct s
Ġdivers e
thor ne
Ġprincip le
bol ton
Ġunfair ly
Ġquiet ly
run ji
Ġtag ging
Ġurgent ly
Ġsant o
Ġsar ina
surf ing
addaf is
nal bandian
Ġcaution ed
Ġtan ami
Ġcollect s
griff in
burg ess
phot os
Ġhu awei
dal by
Ġachie vement
civ ic
Ġhij acked
Ġabol ished
Ġchef s
Ġload ed
Ġoverwhel ming
Ġapprentices hips
Ġtomat oes
explos ive
Ġfib rosis
Ġjin x
nut rition
Ġmog adishu
Ġflex ible
Ġendorse ment
Ġmam m
Ġshap ing
chile an
Ġunle ash
tab corp
Ġrecapt ure
Ġresil ient
Ġmistaken ly
Ġbarrel s
Ġorphan age
Ġcontrad icts
Ġcray fish
Ġhing es
contam inated
Ġhamb urg
edin ak
Ġard mona
bai jan
ucker berg
Ġimmort al
chev ron
2 9
c able
c ote
d ella
f b
l ng
m om
r ou
t res
w ing
x i
z ale
Ġt uqiri
Ġs illy
Ġc t
Ġc yl
an ese
or ama
Ġf ulf
Ġf nq
Ġa q
Ġa ston
re ven
Ġd ashed
ed wards
Ġw enger
is ocial
Ġo mission
st ing
st un
st ick
Ġg on
Ġn olan
Ġl ured
as p
id ity
Ġth warts
ch ogm
ad i
ad ians
ad ata
Ġch eney
Ġde pressed
Ġv ou
Ġj s
Ġcon secut
Ġsh uns
man ned
der ling
Ġco ins
iv o
Ġra chel
ub ble
Ġhe ater
Ġhe els
ip el
Ġchar m
Ġal abama
ry mg
Ġind icted
ident ity
Ġad ap
Ġcra bb
Ġsu arez
ass ad
Ġtr ench
Ġur ging
Ġcan ned
Ġmay o
Ġunder cover
Ġbre d
Ġboo king
Ġboo ths
Ġconf eder
Ġdo herty
ther ford
Ġor k
Ġinter ns
Ġdes pair
Ġcamp uses
Ġbar angaroo
str ess
Ġtar ga
Ġgl encore
med ibank
Ġso ber
Ġbreak away
anc ou
Ġsk ys
Ġlo ading
Ġant ics
Ġkn ives
Ġtrans forms
mark ed
Ġpost hum
Ġtro t
fer dinand
Ġhom osexual
work shop
ham mad
Ġval uation
Ġliber ian
Ġdom ination
Ġwant ing
Ġleg it
sch warzer
sch warzenegger
Ġhum ili
Ġlow ly
tra ins
mc guire
Ġaust in
gu ccione
Ġsav i
Ġcal ves
mo derate
Ġu y
Ġu z
Ġtrip oli
Ġbik er
under world
mor al
Ġdie back
Ġstra ins
Ġassist ing
Ġmod e
Ġbal anced
camp ers
Ġbi omass
Ġrout ine
motor ist
hum ane
Ġmcg urk
uni que
Ġsever ely
snow don
Ġscrutin ise
che ese
Ġha itian
Ġmck im
Ġcha otic
occ an
elect ronic
Ġgreg ory
bad deley
pot ter
Ġgh ana
post ecoglou
bol lywood
Ġdistr essed
Ġdiss olution
Ġderail ed
run ner
Ġbot any
Ġcomplet ely
ja ques
Ġkat anning
Ġgill espie
hard t
Ġfal con
Ġsymp hony
Ġstab ber
mos que
Ġcorby n
bern ie
mov ie
Ġhast ie
Ġry e
Ġhob bit
but ler
boll inger
Ġpublish er
celebr ations
Ġdistur bed
doc uments
san fl
Ġbit coin
roe bourne
Ġcoon abarabran
Ġrams i
Ġbehead ed
inz o
Ġterritor ians
Ġund eter
Ġhil ton
Ġmich igan
Ġrobin vale
Ġhans en
sleep ing
jc u
Ġtah iti
ethiop ia
ethiop ian
Ġcot ter
mater nity
riv kin
Ġelectroc uted
batt ling
sid dle
Ġgover ning
Ġentreprene urs
Ġconting ent
Ġkoh li
wors fold
Ġmoh amed
Ġfestiv ities
Ġunsc athed
oolool aba
murch ison
Ġtraf ford
Ġdaup hine
zale z
Ġconsecut ive
b rew
c ulture
d ash
d ams
f ab
g ish
g amb
j ur
j ose
k ind
k owski
l ists
m ock
p als
r c
r ists
r uly
t ara
v ian
w ley
y stem
z ia
z oe
z imbabwes
in v
in victus
er osion
Ġt anya
Ġs cone
on ics
Ġf ittler
al up
Ġp isasale
ed ith
Ġh ag
Ġn au
ac s
Ġl ends
Ġl opez
ent h
ent ertain
un h
Ġr umsfeld
id wood
Ġst amps
Ġth aksin
ir b
ad zic
ow ie
os ova
Ġk ava
Ġv oller
ab are
Ġpro vin
ast h
Ġcl ips
Ġro land
Ġcom bet
iv enh
ag ri
Ġwor ms
Ġar gyle
Ġup coming
Ġy unupingu
iss ue
iss ipp
ub urn
Ġhe ating
Ġqu art
Ġfl att
pl in
arm s
Ġad rift
Ġtr uffle
Ġnot ches
und ra
Ġcan nibal
be au
Ġdown play
interview s
Ġ20 50
Ġsl ated
Ġsl ogan
com bes
day light
Ġstr ic
Ġper kins
app les
Ġmo e
pro of
Ġla zar
bo hm
Ġcamp er
Ġpe ac
Ġdec ent
Ġca utions
Ġhar ley
Ġfe athers
oy le
az io
Ġz ak
Ġbur ka
Ġso ap
Ġso ils
sc ra
sc ully
umb ah
ij ah
Ġjobs eeker
Ġred man
Ġgen eva
Ġtur keys
do om
Ġ19 5
hol land
Ġhand lers
Ġ7 20
Ġpoll uting
Ġprotect s
Ġcity s
Ġq anda
Ġbattle ground
Ġhal le
Ġfoc ussed
Ġinv ention
Ġcrack er
Ġcam illa
stand ard
Ġsqu id
Ġdav idson
Ġwind farm
Ġjohn ny
ca utions
Ġpos ed
comm uters
Ġmonth ly
Ġlim estone
Ġ15 000
bul ld
Ġsun k
Ġfuel watch
ste ps
aur ukun
Ġburn out
well ard
Ġwhite ley
Ġaccess ing
Ġu q
Ġu igh
under water
bass link
Ġsnow fall
Ġsnow town
Ġsam o
Ġlog ger
Ġseat belts
Ġavoid ance
Ġsat is
Ġgar nett
teach ing
Ġstat ewide
Ġbun gled
comp ulsory
Ġgener ate
sk ipper
six th
fin n
euro zone
nor wegian
lor ine
Ġexc iting
Ġexam ination
bir ney
Ġvir t
Ġpick er
Ġpig eon
Ġdub lin
Ġflee ce
Ġadop ted
hen jak
mus cat
mus lims
Ġcool ing
tom ato
tre vor
Ġhy ster
Ġsuggest ion
Ġled ger
Ġharm ing
elt z
Ġmeth adone
Ġprepared ness
Ġsmuggl ed
Ġspray ed
Ġbroadcast s
Ġjam al
Ġoffs ets
Ġok eefe
bac on
Ġut ah
Ġthunder storms
Ġpermanent ly
rac ist
Ġpsych ological
Ġgil bert
Ġspons ors
Ġhook es
Ġemb arks
shoot ers
Ġhair dress
Ġfij ians
Ġsad den
aba ab
Ġphys ics
brid get
jon athan
Ġbureauc racy
Ġjess e
Ġsin odinos
Ġcolour ful
affe ine
Ġeduc ate
Ġdeadlock ed
paralymp ian
Ġ77 4
Ġkor an
magn itude
Ġrestrain ing
pill ar
budd y
Ġwo eful
Ġelectroc ution
Ġslay ing
Ġoverfl ow
Ġade quate
tibet an
Ġbrill iant
Ġretro spective
tum ut
Ġsaus age
Ġauton omy
penal ty
Ġalas ka
Ġparach ute
Ġmiscar riage
Ġnaz is
Ġcontem pl
acti ernan
Ġplagiar ism
Ġblasph emy
Ġuy gh
ivenh oe
2 000
3 3
a uspine
b ears
b aker
c u
c afe
d l
d ro
d itch
g my
j ankovic
k is
k il
l achlan
l arkham
l omu
p ike
s ville
s ara
t ort
t ahu
u ited
y es
y ass
y cle
y udhoyono
Ġ ush
Ġ ira
Ġs oward
Ġc q
ar ians
al ison
Ġp ins
Ġp ops
Ġb icycle
at las
Ġd iox
ed ict
Ġm ast
Ġm aldives
Ġw oos
Ġw ettest
Ġin fringe
Ġh ired
Ġh agan
ra chel
un is
un ting
ig or
am bo
ir ra
Ġse bastian
Ġsh abaab
qu iz
ies on
Ġas leep
Ġcl aws
Ġsp aw
Ġsp iders
Ġun iting
der mott
ens ics
em ail
ag ai
ant om
Ġres erved
iss ance
Ġbl u
Ġbl anchett
Ġout lets
Ġout dated
ip h
Ġal ison
Ġal inta
af ghans
Ġdis mant
Ġdr essing
Ġcont acts
Ġad ding
cl ay
Ġsu ch
Ġwh ose
ind abella
de leg
new crest
ff ective
br ut
Ġdown loads
Ġ20 30
Ġmar ion
te xt
lic ts
fire fighting
Ġsm arter
Ġreg istry
du o
sp ray
Ġcap it
Ġcap ricorn
Ġend ure
Ġhar sher
cur tis
Ġz im
ner vous
sc ots
sc ullion
Ġem irates
tr ickett
Ġnt fl
Ġgun ning
Ġtrans formation
ann ual
Ġadv ises
rain bow
Ġins urer
Ġhol the
Ġhand shake
Ġaid es
Ġben ji
Ġbeh ave
rad ine
vic roads
Ġcrime a
Ġdep ends
Ġclean ed
may field
Ġtough ens
sun rice
tra il
Ġball ots
unt ed
Ġdemand ing
Ġwed dings
Ġren amed
Ġstrong est
Ġsafe guard
Ġfer gie
Ġmis using
field ing
cra per
Ġbas is
Ġreal istic
reg istered
Ġanim ation
ext rad
Ġbull ock
pass ion
Ġbik ers
Ġexec s
Ġmet oo
plan ade
Ġisrael is
will umbah
Ġqual ification
Ġstra pped
Ġber ries
kn app
driver less
Ġresign ed
Ġalp aca
Ġmod ified
Ġdomin ic
Ġdomin ant
Ġdomin ated
Ġbanks ia
mac donald
jack ie
Ġdeter mination
Ġram os
lor enzo
Ġthrow ers
Ġworks afe
Ġrush ing
gus mao
Ġdestro yer
ox fam
real istic
Ġtort uring
Ġcommit tees
Ġfrustr ating
Ġadvoc acy
inn ovation
Ġphotograph ers
Ġluc y
Ġtum ut
Ġhaz el
prof essional
mcc artney
Ġrent als
Ġharass ed
Ġpers ist
exp ansion
Ġbuff s
Ġses elja
je an
Ġbounc ing
mons oon
Ġbug ging
Ġescal ating
Ġsens itive
mos quito
Ġcontroll ers
Ġshakes peare
Ġslug gish
but ter
nepal ese
Ġconfront ed
Ġovercrow ded
Ġwire less
Ġtranspar ent
Ġnest ing
incre asing
fro zen
cub bie
Ġmd ba
Ġdug ong
writ ers
Ġretreat s
Ġroe bourne
cour ts
sydneys iders
Ġtug geranong
Ġguitar ist
Ġatlant a
whits undays
Ġdy nam
Ġia af
Ġjur ors
Ġjol ie
Ġcott age
magn ussen
saw mill
psych ologist
hodg son
Ġdemer it
mach ete
Ġrevital ise
consult ant
Ġamb itions
Ġcand le
Ġlect urer
Ġenh ance
Ġrw anda
Ġretali ation
Ġpolynes ia
adel phia
Ġleis ure
Ġcompos er
Ġscri pt
Ġexhum ed
legend ary
Ġalo isi
Ġliken ed
Ġsignific ance
Ġstric ter
a ung
b oot
b elly
b ryan
d oping
d rey
f ia
g onski
h ands
h annah
k ear
k urt
l oss
p owers
p ocock
p armalat
t an
t ack
t arkine
t attoo
u v
w if
in brook
Ġs ult
Ġs oph
Ġc ache
Ġf aking
Ġp oms
Ġb oul
Ġb eware
re cre
at able
Ġd iction
Ġd aryl
Ġw oor
it ate
ic ism
ic ally
ro zi
st ro
le well
ra u
ra v
ra cial
ra bbit
el ight
Ġn ug
Ġn ai
Ġn go
Ġn itschke
Ġl al
Ġl ingers
Ġl isteria
Ġre develop
Ġre iter
as uri
un rest
ig ne
Ġst uttgart
am ines
am aran
am undra
Ġe g
est own
ch loe
Ġch ester
Ġch inchilla
Ġch ennai
ew a
our met
Ġk nox
Ġv ix
Ġover run
Ġsh atters
Ġpl uck
Ġle ukaemia
ain es
Ġsp a
Ġsp ook
ist ribution
ne ver
ant ial
Ġy arloop
ug es
Ġag es
og le
ong ar
Ġcr es
ors che
cl o
mer kel
Ġtr im
se in
ind o
Ġur ine
br ent
Ġmay wald
Ġne pean
Ġban non
Ġfr idge
act ers
act ress
Ġcent uries
Ġconf essed
Ġspe akers
pe at
Ġstr angers
Ġmo derate
we ights
gr ants
Ġgra bb
Ġpe at
Ġpart ing
Ġcro s
Ġhop ed
Ġmon keys
Ġev ict
Ġext inct
wh ich
gy m
Ġsy rias
Ġbro thels
ond ons
Ġgl am
no el
Ġed ged
Ġlaws on
Ġem mys
Ġant ony
Ġcol vin
Ġtrans m
Ġgen ius
vid mar
fer ink
Ġche chnya
Ġ19 80
Ġhol der
hol y
ope c
Ġpoll ies
Ġke v
Ġmc f
mon ster
Ġliber ties
Ġgood win
Ġjohn es
imb ula
Ġcontract ing
Ġwatch ed
Ġren e
Ġsun ni
cra cking
Ġbas ket
Ġfact ional
Ġve ge
ino is
Ġwalk ers
gun gahlin
Ġpot atoes
Ġloc ated
gar cia
pet a
Ġshe et
alys ed
Ġbad minton
Ġfo et
Ġjack pot
stit utions
Ġyour self
Ġblock buster
Ġsim psons
Ġseiz ures
Ġmcc artney
answ ered
Ġgar eth
Ġmeat workers
Ġtom ahawk
Ġattend ant
Ġmel ting
Ġsand wich
Ġelector ates
Ġdemol ishes
Ġmiddle ton
Ġbrother hood
Ġky is
ben itez
Ġembass ies
Ġwarr ing
Ġker ber
Ġcart ing
Ġquick est
Ġfollow ed
bish ops
mel issa
ci uto
ros se
Ġcontrib utions
Ġatm osphere
Ġdeliber ations
Ġbreath e
cust omers
sil ent
Ġbrid gewater
cool er
Ġding oes
pig s
pow der
Ġpatt erson
Ġeas ily
Ġgren fell
Ġdemonstr ators
writ ing
ferr ero
wr ite
Ġwat ts
Ġproced ure
civil ians
Ġrott en
Ġhyd rogen
Ġbackbench ers
surviv or
communic ation
Ġbes ie
ril ova
Ġseparat ist
Ġarth ritis
Ġsovereign ty
Ġachieve ments
Ġdwind ling
cumm ins
cou ples
Ġimmun isation
Ġalger ia
Ġsuspic ion
stey n
azakh stan
Ġdisturb ance
Ġinstru ctor
hast ings
Ġchann els
prov oked
stir ling
Ġwoom era
rymg our
issipp i
lewell yn
b ooks
e co
e ade
f inks
f esa
g ur
g iddings
h ells
k emp
l iter
n aval
p oints
r iders
r onaldinho
s amp
s cone
s angakkara
v igil
in na
Ġt ira
Ġt icks
Ġs ust
Ġs ony
Ġc yan
ar sen
al ore
Ġp ines
Ġb ainimarama
re pl
re cor
re cr
at kinson
Ġd ong
Ġd ome
Ġd ign
Ġd warf
ing aa
it uary
Ġo ath
il pie
st awell
Ġg aw
Ġg odd
Ġl uring
Ġl oud
Ġr ta
id na
Ġst ern
Ġth res
ad den
ad fa
Ġch ook
Ġch aff
Ġch eng
ew here
os c
ri vers
Ġk vitova
Ġk linger
Ġj ared
Ġse aw
Ġsh orter
Ġsh ores
op ic
ut or
Ġle w
Ġle cture
ess o
Ġco ch
Ġco ot
Ġco cos
Ġra ve
Ġar bit
ail ing
ov ak
ard le
Ġhe ffernan
ob yl
Ġind onesians
Ġdis plays
Ġad el
Ġad hd
con vers
mer c
mer ged
de af
Ġen orm
Ġte hran
ign ment
ton a
Ġgu th
Ġcla use
ern obyl
Ġstr ath
li ke
Ġter rifying
Ġor lando
Ġroad show
Ġroad block
min chin
Ġshow ed
Ġmo oney
bo tham
Ġdes ire
can ning
Ġbro om
iz ing
cur rent
Ġir b
Ġrest ing
Ġtar a
ote ch
Ġrel iance
Ġbur row
Ġcountry s
Ġvis ited
ng u
Ġant isocial
me ga
Ġcol beck
Ġgas nier
ral ia
Ġbank ers
Ġpass ports
Ġrev s
Ġhand ing
lebr on
Ġlif esaver
Ġhon orary
Ġbody guard
north am
la idley
ec stasy
Ġmot ives
Ġash more
sm elter
Ġlim elight
Ġcur ve
Ġcur ry
Ġsun raysia
ship wreck
lo han
Ġbow ie
Ġcab les
ene ch
report ing
clos ed
Ġking aroy
har ts
Ġident ification
bel arus
pol ic
dav ies
vin cent
Ġlower ed
sl ain
Ġsam oan
emp orary
Ġcard iff
Ġmcc abe
haw aii
black out
Ġstock ton
Ġrefer ral
Ġscr um
Ġsie v
Ġaw ak
fin ke
Ġfresh water
Ġsummer nats
Ġrecr uited
Ġsand ilands
Ġpair s
rob ots
Ġpract ical
Ġblitz es
Ġtin der
Ġocean ia
Ġdu chess
Ġcommit ments
occ up
Ġrepl acing
poll ing
Ġany one
Ġmars up
tor ch
exp ect
just ine
run ning
mand u
dub ai
Ġbats man
Ġkat y
Ġnepal ese
Ġcondemn ation
Ġdent ists
Ġentit lement
Ġtrigger ed
mult icultural
Ġpurch ases
Ġrelie ve
Ġsett lers
Ġpublish ing
Ġreason able
Ġbrow ns
Ġvene zuelan
imp act
stat istics
conn olly
rub bish
Ġarchitect ure
Ġloot ing
Ġcorre ctional
Ġnas daq
Ġautom atic
Ġcockat oos
Ġbeck ons
Ġmagnet ic
Ġfreck lington
Ġabort ed
oust ed
Ġrept ile
Ġpompe o
Ġnatal ie
cir cus
Ġarrog ant
Ġobsc ene
vandal ism
avoc ado
scam mers
Ġtott enham
Ġalph a
Ġhypocr itical
endle bury
punt ers
Ġwart ime
embass y
asth ma
Ġcyan ide
3 7
c and
c oot
c rock
c psu
d v
d ur
d ue
d aily
e h
g x
h at
h oll
h ounds
j in
k am
k rist
k ashmir
k abul
m ca
n uts
n etherlands
p bl
p ier
p aint
p orter
p izza
r ud
s enden
in ian
in tegr
Ġt ens
Ġt anz
Ġc apped
Ġf aked
Ġa ph
Ġp umps
re con
at lant
Ġd ella
Ġd italia
Ġm apped
Ġw bbl
Ġto ody
ic les
Ġh iroshima
Ġo am
Ġo liv
Ġo grady
st ood
Ġg ing
Ġg us
Ġg em
Ġg atton
Ġn ukes
ac chi
Ġl ashed
Ġl owndes
un iting
ch aser
ow l
Ġk in
Ġk itten
Ġk ahn
Ġj up
Ġj ourn
Ġj avelin
Ġse aling
Ġas p
Ġcl if
Ġcl own
Ġsp ice
Ġsp ieth
ist el
em u
em ies
em ong
Ġco v
Ġco inc
ie val
sh ouse
Ġbl ade
ang atta
Ġhe ather
Ġhe ydon
Ġwar atah
pl ants
cl are
od ox
ool an
Ġop i
Ġrec oup
Ġrec ycle
Ġwh ips
se ag
Ġgr inds
ick i
Ġmur ch
Ġmin aur
Ġpre cautions
ins urers
be van
Ġret ained
Ġele anor
Ġsur geries
Ġmar r
he p
Ġconf er
Ġrem ed
ms f
ira ffe
Ġam anda
Ġsex ting
Ġor bit
ex c
res ort
Ġdes erved
Ġmed dling
int ers
sp in
sp ence
sp ears
ipp y
Ġca us
Ġbar on
eep ing
Ġend urance
ok a
car cer
Ġstar ved
arch ibald
Ġexpl icit
Ġkn ows
Ġkn owing
Ġes cas
Ġred mond
Ġtro lls
ann ers
Ġadv ise
Ġchrist ie
Ġreb oot
Ġben alla
Ġ10 1
Ġsign age
Ġmc in
Ġma uresmo
Ġspr ints
Ġmal oney
ful ham
Ġspec ulate
tra wler
Ġrow dy
Ġcur bs
pal in
Ġwed ge
israel is
Ġcal vary
Ġfer dinand
Ġmis information
reg ion
Ġinc iting
off ice
har rison
Ġ0 50
Ġpredict ing
Ġgar ry
Ġextra ction
Ġarm adale
rench ing
Ġgener als
Ġmission ary
camp aspe
Ġchem otherapy
Ġdream world
Ġjud ging
Ġtrig gs
Ġprevent ing
odd y
dri ving
kin akis
cricket ers
Ġny c
saf ina
Ġinn isfail
todd lers
Ġaus chwitz
drag on
priv acy
tor onto
fo i
hear ts
short age
fat ah
cop ter
Ġkur ri
dig ger
Ġrevolution ise
anu i
math ias
Ġsolid arity
Ġtan ner
Ġconnect s
Ġreign ite
Ġconfr onting
Ġcry ing
rev ised
week ly
Ġvo id
Ġmagn ate
Ġmah er
Ġsprint ers
Ġoutrage ous
Ġwear y
appro val
celebr ity
Ġine ffective
Ġsi ber
Ġmic key
Ġintimid ated
pic asso
Ġbrun y
Ġallen by
soccer oo
Ġscram bles
person al
Ġmam moth
Ġenforce ment
Ġkiss ing
Ġstrang led
salmon ella
Ġgloom y
liqu id
Ġethiop ian
tu valu
Ġdung og
base ball
volcan ic
das co
frustr ation
frustr ated
Ġmoth ball
laur ie
Ġstabil ise
mood y
Ġunderestim ated
rane an
Ġgou ging
Ġpros per
Ġfork lift
Ġsubm its
Ġnumer acy
amac are
48 6
Ġlocker bie
Ġlia ison
Ġonc ology
ucaly pt
predict able
Ġsadden ed
asuri ya
b akery
b ellingen
d iss
d ive
d iffer
f athers
f uels
h ook
h su
j azz
j ennifer
k illing
n atal
p ad
p oss
t ell
t ails
v ar
w ise
y ad
Ġ umb
in ished
Ġt ee
Ġs ig
Ġs ax
ar royo
al er
Ġp onds
Ġb udge
re cent
re action
at own
Ġd w
Ġm es
Ġto ast
Ġto pples
it rov
Ġin cons
Ġin carcer
ic on
Ġh ancock
Ġo ber
Ġo mar
ro it
ro ok
ra g
ra pper
Ġg oo
Ġg ass
Ġn ines
Ġl ls
Ġre e
as ar
ay less
Ġr ickets
Ġst eele
th ar
Ġe cos
Ġth ailands
ch ad
ch ant
Ġch ew
Ġde press
os ity
our ism
Ġk a
Ġk yrgyzstan
Ġcon cord
ab es
Ġpro long
Ġat las
ian i
Ġpl ucky
Ġex haust
em oration
Ġro byn
Ġra ys
Ġar men
Ġar gent
Ġres umption
Ġbl izzard
ub b
Ġfin ks
af ric
ong yang
Ġback stroke
Ġman uka
Ġbr ides
Ġbr ighter
Ġop ec
Ġacc ol
se lectors
ind aby
ick a
Ġwork places
ial ity
are va
Ġpre jud
Ġbo asts
be et
Ġdown fall
Ġme lee
Ġsl aps
Ġmar seille
Ġinvest ing
Ġpar a
Ġpar cel
Ġpar rots
Ġtour ing
li z
Ġreg s
Ġph enomen
Ġpe bble
uck le
Ġmon et
Ġrele vant
ille m
rol og
Ġbeg an
Ġed g
olog ies
son y
Ġbid ders
ific ent
umb in
Ġlo ch
Ġant e
amb i
amb ass
mar c
Ġdriver less
work choices
Ġrev okes
20 14
20 16
Ġcelebr ities
Ġlight ly
Ġwas p
Ġhal al
igr oup
mur phy
Ġpet e
Ġtre m
Ġdon key
Ġfront man
cr unch
Ġob amacare
Ġash ton
Ġmy efo
Ġbel ts
Ġmass age
Ġprofit able
net flix
Ġpack ers
Ġdi aries
ork opoulos
Ġbow led
so chi
reg ulator
Ġ0 5
Ġapolog ies
hun ger
Ġpeter o
Ġbroad er
don nelly
Ġcompens ated
Ġblue fin
haw k
van ia
Ġequ ipped
Ġarm oured
mag ui
Ġpurs uing
Ġmuseum s
Ġarch ae
Ġbott led
Ġgard ening
rim ah
sal im
Ġview ing
che ck
wed ding
tro se
part ners
Ġtrad ies
Ġlaid ley
vis or
vis iting
Ġsick ness
Ġnar rogin
Ġtable t
Ġphil osoph
Ġbatter ing
Ġregister ed
put ting
von areva
Ġdod ging
Ġfisherman s
esc iano
Ġscrap es
lar ry
Ġretain ing
Ġrepresent ed
Ġkir by
Ġkir ibati
Ġread iness
mont gomery
Ġcamps ite
Ġlit re
Ġaccus ation
Ġexplo iting
isa ac
inf ant
Ġportra its
Ġdrun ks
agl ider
ache ck
Ġmart yn
Ġcontroll ing
vill es
mov ing
Ġscar emong
Ġnich olson
hu awei
buck s
prom ising
Ġcult iv
Ġcoord ination
Ġhind u
Ġcul pr
dev ils
Ġradical isation
bott le
bast on
export ers
Ġexplor ers
Ġbm w
dj s
Ġthwart ed
Ġdisarm ament
Ġauth ent
fier ce
Ġovershadow ed
Ġchim ney
Ġweaken ed
pam pling
dug an
Ġlur king
sus an
Ġbrib ie
Ġsciss ors
benef its
Ġdens ity
optim ism
Ġstrongh old
Ġsavi our
Ġvix ens
recor ds
Ġthres hold
Ġtoody ay
indaby ne
' t
b enn
d ell
d amp
d rog
e gypts
f i
f avour
g t
g idley
h ann
i y
l enton
m ire
m ud
n x
r ory
s ac
y eppoon
z inifex
Ġt ou
Ġt ing
Ġt ant
Ġt ippett
Ġs ou
Ġs ow
Ġs amp
Ġs izes
Ġc yr
an ous
Ġf att
Ġf ount
ar ray
Ġa zer
Ġa aa
Ġp ian
re id
Ġd ell
Ġd ances
ed ia
Ġm uck
Ġm utton
Ġm awson
is el
Ġto pless
Ġh ig
Ġh ames
Ġh uxley
ro x
ro copter
ion ova
el ict
Ġn istel
Ġl ens
Ġl ip
Ġl omb
Ġl ender
Ġl aps
Ġl ava
Ġl athams
un licensed
om ar
om odei
Ġr ud
Ġst ur
Ġst ym
ad vert
Ġch ased
Ġch aser
Ġch lamydia
Ġon slow
ow itz
ill es
ri wa
ri ques
oun is
Ġsh in
Ġpro port
ort ing
ort mund
man ager
man jimup
Ġle veson
Ġun healthy
Ġun defeated
Ġco ca
sh akes
end eavour
Ġwar rego
Ġchar acters
Ġind i
Ġind uced
af wa
Ġdis gu
Ġdis array
Ġdr ills
ue gill
Ġad fa
row er
Ġman ual
Ġcra bs
Ġus eless
Ġop inions
se cker
Ġen er
Ġen count
Ġen closure
be yond
Ġne phew
Ġdef lect
Ġfir ies
Ġme ats
Ġunder stands
Ġsl aves
Ġsl oppy
com fort
Ġwom bats
Ġstr angle
Ġam bos
Ġbu derus
Ġdrug ged
app ers
Ġmo le
Ġwest ra
Ġmon ty
back story
red mond
Ġca es
Ġpark ed
dr on
Ġbar ilaro
Ġhar iri
Ġrep aired
Ġcost ume
Ġrest oring
Ġsn elling
Ġstar vation
Ġtim ors
Ġexpl ored
Ġbur ra
ai ian
Ġbreak out
bar ron
Ġsk itt
Ġsk ips
ett le
Ġred istribution
Ġsuper car
Ġbet h
Ġcoll ier
Ġtro be
go ats
ital ians
Ġche chen
Ġ19 70
Ġbank stown
itch ie
Ġap ollo
20 15
my ra
Ġmer cedes
bro ck
Ġmc ew
Ġ8 000
Ġtreat s
Ġpromp ted
Ġdep orts
Ġpil es
Ġball istic
gu am
bor al
lo an
Ġexport ing
Ġwalk way
house hold
liber ian
Ġlat in
off shore
Ġhaw kins
Ġcompet ing
Ġ0 40
Ġsem itic
pol ar
vin cing
Ġexpert ise
Ġinfl ows
gas oulas
Ġber dych
Ġmcc ullum
Ġallow ances
Ġavoid able
super markets
cro ok
Ġmat ure
ko alas
count down
Ġgener ators
Ġnor m
cont ent
pri ately
Ġaw k
bill abong
atto os
Ġkar zai
Ġguard ian
Ġgro ote
ode bt
Ġacqu ired
che chen
Ġpreview s
Ġtank ers
Ġwid ening
Ġswe ats
gen ia
hor will
Ġcart oons
train er
Ġquick er
Ġweigh ing
Ġaccount ant
irrig ator
Ġphotograph s
Ġpu ppies
mcc aw
resp ect
croc odiles
bad en
Ġcub bie
Ġprosecut ed
Ġrum our
Ġjour no
beach es
Ġdun es
Ġrav ages
Ġbounc ers
acad emics
Ġparalymp ians
Ġreass ess
Ġpur ple
Ġpaint ed
lou ise
Ġcos by
Ġtorch ing
Ġsens ation
Ġhob by
zar qawi
itters weet
Ġted dy
Ġpublish es
Ġnaval ny
Ġdoom adgee
Ġbudd hist
het amines
host age
phill ips
sale yards
Ġfract ures
Ġels om
americ as
Ġsym b
Ġcomplac ent
prot ect
kay aker
Ġunderpay ment
Ġcott esloe
barr ister
rae us
impro ved
Ġminim al
account ant
Ġmoham med
coron acheck
Ġvind icated
histor ian
Ġrept iles
Ġskim ming
Ġrenov ations
Ġrepeated ly
Ġembry o
pione er
Ġaftersh ocks
shear er
Ġvit amin
plat ypus
democr atic
Ġallerg ies
inspect or
Ġrefur bish
Ġfantas y
dir ty
chal mers
sewer age
Ġheav ily
Ġgrands on
ronom ist
Ġork opoulos
Ġdiction ary
Ġtira de
recr uit
Ġecos ystem
Ġscaremong ering
a ic
a issance
b ib
c ult
d f
d ial
i ques
j ee
j ake
j ock
k ong
k enn
l ith
m oss
n ull
n korea
r end
s bs
t ully
t aiwans
v ice
v ettori
Ġt one
Ġt du
Ġs os
Ġs sm
Ġc yn
Ġf alk
Ġa ec
Ġp eek
Ġb ible
Ġb earing
Ġb apt
Ġb isc
re becca
re peat
Ġd h
Ġd ot
Ġm lc
Ġm owen
is raels
Ġh k
Ġh aka
Ġo akeshott
il ion
ro a
st adium
Ġg is
Ġg ee
Ġg ould
ol mert
Ġre el
un ate
ay ne
Ġr ink
Ġr bt
Ġst air
Ġst imul
and ah
am is
th aksin
Ġch el
im ents
ot illa
Ġk imber
Ġk ara
Ġsh es
ab il
ia g
Ġbe ers
Ġpl aters
Ġsp ence
Ġsp rawl
Ġun just
Ġun born
if est
ang led
ard ed
ob rien
Ġal batross
ish er
af a
af armers
Ġdis par
cl imb
Ġman jimup
Ġtr an
se aweed
to ilet
de pression
air bnb
Ġtri oli
Ġser ie
ty ler
ins iders
be a
Ġne v
Ġne cess
Ġdef ection
Ġban croft
Ġsl ush
Ġsl iding
ib ia
com ings
ys s
Ġpar ish
lic ans
Ġli kens
Ġhome buyers
[...]
