{"<s>":0,"<pad>":1,"</s>":2,"<unk>":3,"<mask>":4,"!":5,"\"":6,"#":7,"$":8,"%":9,"&":10,"'":11,"(":12,")":13,"*":14,"+":15,",":16,"-":17,".":18,"/":19,"0":20,"1":21,"2":22,"3":23,"4":24,"5":25,"6":26,"7":27,"8":28,"9":29,":":30,";":31,"<":32,"=":33,">":34,"?":35,"@":36,"A":37,"B":38,"C":39,"D":40,"E":41,"F":42,"G":43,"H":44,"I":45,"J":46,"K":47,"L":48,"M":49,"N":50,"O":51,"P":52,"Q":53,"R":54,"S":55,"T":56,"U":57,"V":58,"W":59,"X":60,"Y":61,"Z":62,"[":63,"\\":64,"]":65,"^":66,"_":67,"`":68,"a":69,"b":70,"c":71,"d":72,"e":73,"f":74,"g":75,"h":76,"i":77,"j":78,"k":79,"l":80,"m":81,"n":82,"o":83,"p":84,"q":85,"r":86,"s":87,"t":88,"u":89,"v":90,"w":91,"x":92,"y":93,"z":94,"{":95,"|":96,"}":97,"~":98,"¡":99,"¢":100,"£":101,"¤":102,"¥":103,"¦":104,"§":105,"¨":106,"©":107,"ª":108,"«":109,"¬":110,"®":111,"¯":112,"°":113,"±":114,"²":115,"³":116,"´":117,"µ":118,"¶":119,"·":120,"¸":121,"¹":122,"º":123,"»":124,"¼":125,"½":126,"¾":127,"¿":128,"À":129,"Á":130,"Â":131,"Ã":132,"Ä":133,"Å":134,"Æ":135,"Ç":136,"È":137,"É":138,"Ê":139,"Ë":140,"Ì":141,"Í":142,"Î":143,"Ï":144,"Ð":145,"Ñ":146,"Ò":147,"Ó":148,"Ô":149,"Õ":150,"Ö":151,"×":152,"Ø":153,"Ù":154,"Ú":155,"Û":156,"Ü":157,"Ý":158,"Þ":159,"ß":160,"à":161,"á":162,"â":163,"ã":164,"ä":165,"å":166,"æ":167,"ç":168,"è":169,"é":170,"ê":171,"ë":172,"ì":173,"í":174,"î":175,"ï":176,"ð":177,"ñ":178,"ò":179,"ó":180,"ô":181,"õ":182,"ö":183,"÷":184,"ø":185,"ù":186,"ú":187,"û":188,"ü":189,"ý":190,"þ":191,"ÿ":192,"Ā":193,"ā":194,"Ă":195,"ă":196,"Ą":197,"ą":198,"Ć":199,"ć":200,"Ĉ":201,"ĉ":202,"Ċ":203,"ċ":204,"Č":205,"č":206,"Ď":207,"ď":208,"Đ":209,"đ":210,"Ē":211,"ē":212,"Ĕ":213,"ĕ":214,"Ė":215,"ė":216,"Ę":217,"ę":218,"Ě":219,"ě":220,"Ĝ":221,"ĝ":222,"Ğ":223,"ğ":224,"Ġ":225,"ġ":226,"Ģ":227,"ģ":228,"Ĥ":229,"ĥ":230,"Ħ":231,"ħ":232,"Ĩ":233,"ĩ":234,"Ī":235,"ī":236,"Ĭ":237,"ĭ":238,"Į":239,"į":240,"İ":241,"ı":242,"Ĳ":243,"ĳ":244,"Ĵ":245,"ĵ":246,"Ķ":247,"ķ":248,"ĸ":249,"Ĺ":250,"ĺ":251,"Ļ":252,"ļ":253,"Ľ":254,"ľ":255,"Ŀ":256,"ŀ":257,"Ł":258,"ł":259,"Ń":260,"in":261,"er":262,"Ġt":263,"Ġs":264,"Ġc":265,"on":266,"es":267,"an":268,"or":269,"Ġf":270,"ar":271,"al":272,"en":273,"Ġa":274,"Ġp":275,"Ġb":276,"re":277,"at":278,"Ġd":279,"ed":280,"Ġm":281,"ou":282,"Ġw":283,"ing":284,"is":285,"Ġto":286,"it":287,"Ġin":288,"ic":289,"Ġh":290,"Ġo":291,"il":292,"ro":293,"st":294,"le":295,"ion":296,"ra":297,"Ġg":298,"Ġfor":299,"el":300,"ol":301,"Ġn":302,"ac":303,"Ġl":304,"ur":305,"Ġre":306,"ers":307,"us":308,"as":309,"ent":310,"un":311,"et":312,"ig":313,"ay":314,"om":315,"Ġof":316,"Ġr":317,"id":318,"Ġst":319,"and":320,"am":321,"th":322,"Ġe":323,"est":324,"ver":325,"Ġth":326,"ir":327,"ch":328,"ter":329,"ad":330,"Ġch":331,"ct":332,"Ġon":333,"im":334,"Ġde":335,"ow":336,"ew":337,"ot":338,"os":339,"ts":340,"ill":341,"ri":342,"all":343,"our":344,"ve":345,"ation":346,"Ġk":347,"ak":348,"oun":349,"Ġv":350,"ce":351,"ul":352,"ge":353,"Ġj":354,"ust":355,"ice":356,"pp":357,"Ġse":358,"Ġcon":359,"igh":360,"ack":361,"Ġthe":362,"Ġover":363,"Ġsh":364,"ab":365,"Ġpro":366,"oo":367,"Ġat":368,"um":369,"ia":370,"qu":371,"ds":372,"up":373,"ear":374,"ies":375,"ian":376,"Ġbe":377,"ort":378,"op":379,"Ġas":380,"ut":381,"Ġpl":382,"ate":383,"ast":384,"Ġaf":385,"man":386,"Ġle":387,"ck":388,"ith":389,"ess":390,"out":391,"ain":392,"ld":393,"ment":394,"Ġcl":395,"ustr":396,"Ġsp":397,"ist":398,"olice":399,"Ġun":400,"Ġwith":401,"der":402,"Ġex":403,"ens":404,"em":405,"ire":406,"ine":407,"Ġro":408,"Ġcom":409,"ark":410,"ns":411,"ud":412,"Ġco":413,"ustral":414,"Ġafter":415,"ap":416,"ath":417,"ous":418,"ie":419,"ays":420,"iv":421,"ber":422,"ne":423,"sh":424,"ag":425,"Ġra":426,"ore":427,"if":428,"Ġwor":429,"end":430,"ect":431,"ell":432,"ity":433,"Ġar":434,"Ġand":435,"ail":436,"Ġnew":437,"ans":438,"ight":439,"ov":440,"ged":441,"ant":442,"Ġup":443,"Ġy":444,"ug":445,"ks":446,"av":447,"Ġoff":448,"Ġres":449,"ict":450,"ure":451,"Ġab":452,"land":453,"Ġpr":454,"iss":455,"cc":456,"Ġbl":457,"ang":458,"ly":459,"Ġout":460,"ounc":461,"Ġ2":462,"vi":463,"art":464,"ard":465,"ub":466,"Ġ1":467,"Ġhe":468,"Ġfin":469,"rom":470,"Ġtra":471,"Ġwin":472,"ction":473,"Ġqu":474,"ob":475,"port":476,"ive":477,"age":478,"ild":479,"ide":480,"ip":481,"Ġsays":482,"Ġwar":483,"Ġchar":484,"view":485,"gh":486,"Ġal":487,"Ġaustral":488,"Ġfrom":489,"Ġfl":490,"ee":491,"ry":492,"Ġcar":493,"Ġby":494,"Ġag":495,"ach":496,"Ġind":497,"ence":498,"ish":499,"ood":500,"af":501,"oc":502,"aw":503,"og":504,"police":505,"ake":506,"old":507,"Ġdis":508,"ush":509,"pl":510,"own":511,"ions":512,"als":513,"arm":514,"Ġdr":515,"ong":516,"ident":517,"over":518,"Ġan":519,"Ġcont":520,"Ġcr":521,"ue":522,"Ġad":523,"ors":524,"Ġplan":525,"cl":526,"ase":527,"ouncil":528,"Ġback":529,"Ġpolice":530,"con":531,"Ġis":532,"ets":533,"row":534,"its":535,"od":536,"Ġman":537,"ound":538,"Ġfac":539,"Ġcra":540,"ourt":541,"ps":542,"ree":543,"Ġus":544,"Ġkill":545,"ater":546,"one":547,"Ġbr":548,"Ġatt":549,"ough":550,"ool":551,"Ġop":552,"mer":553,"for":554,"ke":555,"Ġsc":556,"ears":557,"ning":558,"ock":559,"Ġsu":560,"ovt":561,"Ġrec":562,"Ġacc":563,"ass":564,"amp":565,"Ġtr":566,"Ġwh":567,"ash":568,"ome":569,"se":570,"Ġgr":571,"Ġcall":572,"00":573,"ges":574,"ney":575,"to":576,"ind":577,"Ġnot":578,"terview":579,"ick":580,"und":581,"Ġwork":582,"Ġapp":583,"Ġfire":584,"Ġur":585,"yd":586,"outh":587,"de":588,"reat":589,"Ġcan":590,"oll":591,"ost":592,"pit":593,"ise":594,"Ġmur":595,"Ġcourt":596,"ial":597,"are":598,"air":599,"Ġcomm":600,"Ġsch":601,"Ġmin":602,"ary":603,"new":604,"uss":605,"ition":606,"ff":607,"ult":608,"cer":609,"Ġlead":610,"urn":611,"Ġpre":612,"Ġen":613,"Ġdeath":614,"alth":615,"ance":616,"att":617,"Ġexp":618,"ims":619,"Ġte":620,"Ġbo":621,"Ġagain":622,"Ġvict":623,"Ġcrash":624,"orth":625,"ates":626,"ign":627,"Ġhigh":628,"Ġtri":629,"vest":630,"Ġser":631,"ues":632,"Ġhel":633,"ydney":634,"ty":635,"br":636,"ins":637,"Ġmay":638,"mp":639,"be":640,"Ġne":641,"Ġret":642,"Ġele":643,"Ġattack":644,"Ġdef":645,"Ġban":646,"Ġsur":647,"Ġdown":648,"interview":649,"austral":650,"qld":651,"Ġmark":652,"sa":653,"ory":654,"Ġinto":655,"Ġ20":656,"ave":657,"ton":658,"ould":659,"ina":660,"ban":661,"ull":662,"sw":663,"Ġim":664,"Ġfir":665,"Ġfr":666,"ump":667,"Ġmore":668,"Ġme":669,"enc":670,"Ġfarm":671,"Ġunder":672,"get":673,"Ġwater":674,"ings":675,"Ġcor":676,"Ġaustralia":677,"Ġprot":678,"Ġcomp":679,"overn":680,"ospit":681,"Ġbre":682,"Ġagainst":683,"ount":684,"act":685,"Ġsee":686,"ents":687,"Ġmurder":688,"Ġmiss":689,"bour":690,"used":691,"the":692,"Ġcharged":693,"ale":694,"bl":695,"Ġboo":696,"itic":697,"Ġcouncil":698,"ons":699,"oot":700,"Ġwe":701,"Ġcent":702,"Ġsl":703,"Ġgu":704,"Ġhous":705,"ower":706,"Ġmar":707,"ject":708,"ink":709,"ord":710,"Ġwill":711,"ations":712,"ib":713,"te":714,"akes":715,"he":716,"com":717,"Ġchild":718,"Ġjail":719,"Ġdri":720,"ime":721,"Ġjo":722,"Ġcla":723,"per":724,"Ġhealth":725,"Ġinvest":726,"overnment":727,"ax":728,"ze":729,"uc":730,"ont":731,"ospital":732,"ys":733,"Ġday":734,"Ġwom":735,"ism":736,"Ġreport":737,"ural":738,"Ġconf":739,"pt":740,"ational":741,"day":742,"Ġcoast":743,"ite":744,"Ġclos":745,"Ġwa":746,"ises":747,"pr":748,"Ġspe":749,"Ġcons":750,"Ġrem":751,"Ġpar":752,"Ġlaw":753,"ern":754,"Ġtest":755,"Ġschool":756,"ott":757,"pe":758,"oss":759,"rest":760,"ms":761,"ph":762,"ights":763,"ira":764,"irus":765,"ned":766,"ines":767,"Ġserv":768,"Ġbus":769,"wo":770,"Ġabout":771,"ists":772,"gra":773,"eral":774,"ister":775,"Ġsw":776,"ley":777,"vel":778,"Ġgo":779,"lic":780,"ats":781,"Ġset":782,"Ġfound":783,"fire":784,"Ġtour":785,"Ġsydney":786,"Ġdo":787,"Ġelection":788,"Ġtal":789,"Ġsupp":790,"Ġhospital":791,"Ġstr":792,"Ġam":793,"Ġaustralian":794,"ends":795,"Ġ201":796,"Ġper":797,"ger":798,"li":799,"ather":800,"asman":801,"Ġopen":802,"ices":803,"Ġgovt":804,"ace":805,"Ġair":806,"Ġfund":807,"Ġsex":808,"oup":809,"wa":810,"ands":811,"Ġli":812,"Ġnorth":813,"Ġjob":814,"Ġsouth":815,"ange":816,"Ġkilled":817,"eens":818,"Ġboost":819,"co":820,"Ġhome":821,"Ġno":822,"Ġhelp":823,"ther":824,"Ġsm":825,"Ġpol":826,"Ġdel":827,"ones":828,"Ġbu":829,"amil":830,"Ġstud":831,"abor":832,"Ġnsw":833,"Ġdead":834,"omb":835,"ier":836,"avirus":837,"atch":838,"Ġcontin":839,"elbour":840,"usp":841,"Ġthreat":842,"onavirus":843,"Ġter":844,"way":845,"iness":846,"ants":847,"Ġor":848,"council":849,"use":850,"Ġroad":851,"Ġdrug":852,"ich":853,"min":854,"iraq":855,"Ġinter":856,"ix":857,"app":858,"Ġshow":859,"Ġqld":860,"Ġmo":861,"Ġworld":862,"Ġcup":863,"Ġreg":864,"Ġface":865,"govt":866,"Ġdies":867,"ef":868,"ife":869,"elbourne":870,"Ġurged":871,"ison":872,"Ġaccused":873,"Ġwest":874,"ook":875,"Ġarrest":876,"Ġcalls":877,"eensland":878,"les":879,"we":880,"ex":881,"uts":882,"gr":883,"Ġinvestig":884,"wor":885,"Ġgovernment":886,"ela":887,"Ġref":888,"pro":889,"Ġgra":890,"du":891,"res":892,"Ġwins":893,"by":894,"ought":895,"ublic":896,"ble":897,"Ġla":898,"Ġget":899,"cre":900,"bo":901,"Ġhit":902,"ll":903,"Ġpay":904,"ated":905,"Ġprotest":906,"Ġdeal":907,"ives":908,"Ġsa":909,"Ġdes":910,"ame":911,"Ġmed":912,"nsw":913,"Ġyear":914,"Ġcamp":915,"Ġinqu":916,"lear":917,"Ġri":918,"Ġclaims":919,"Ġph":920,"Ġfight":921,"Ġsusp":922,"orts":923,"Ġfirst":924,"ces":925,"igen":926,"els":927,"Ġpe":928,"ally":929,"ief":930,"igenous":931,"Ġtake":932,"int":933,"ric":934,"Ġste":935,"Ġpo":936,"wn":937,"Ġconcer":938,"sp":939,"ah":940,"uck":941,"ctor":942,"Ġann":943,"ury":944,"Ġinj":945,"ile":946,"Ġbush":947,"ss":948,"itt":949,"Ġtrial":950,"Ġsaf":951,"Ġpart":952,"Ġgrow":953,"Ġgre":954,"ipp":955,"able":956,"Ġcro":957,"Ġhop":958,"attle":959,"Ġdec":960,"ren":961,"Ġmon":962,"Ġdet":963,"earch":964,"Ġev":965,"ures":966,"iel":967,"Ġden":968,"ppos":969,"Ġplay":970,"Ġcould":971,"fl":972,"war":973,"abb":974,"Ġfall":975,"Ġall":976,"Ġmissing":977,"Ġtalks":978,"Ġcentre":979,"Ġmarket":980,"Ġpres":981,"cor":982,"idents":983,"Ġcase":984,"Ġfinal":985,"back":986,"Ġhouse":987,"Ġvi":988,"ision":989,"Ġfunding":990,"ames":991,"elaide":992,"ycl":993,"australian":994,"red":995,"Ġca":996,"par":997,"udget":998,"can":999,"Ġassa":1000,"Ġext":1001,"Ġhead":1002,"Ġwel":1003,"Ġgold":1004,"wh":1005,"Ġdeb":1006,"Ġcap":1007,"Ġ3":1008,"Ġiraq":1009,"Ġpower":1010,"Ġpark":1011,"berra":1012,"aks":1013,"dr":1014,"Ġbar":1015,"'s":1016,"Ġrun":1017,"eep":1018,"Ġhun":1019,"vers":1020,"gy":1021,"Ġend":1022,"Ġtax":1023,"Ġconsid":1024,"Ġrise":1025,"vict":1026,"Ġhar":1027,"Ġcount":1028,"win":1029,"Ġone":1030,"Ġdem":1031,"istan":1032,"Ġgroup":1033,"urs":1034,"Ġsy":1035,"Ġneed":1036,"Ġstri":1037,"Ġdam":1038,"Ġbra":1039,"Ġmill":1040,"Ġfe":1041,"Ġpush":1042,"Ġbro":1043,"gl":1044,"Ġbusiness":1045,"Ġchang":1046,"ft":1047,"ected":1048,"ains":1049,"ised":1050,"str":1051,"iz":1052,"miss":1053,"Ġstill":1054,"Ġrep":1055,"Ġbill":1056,"ey":1057,"Ġact":1058,"Ġsupport":1059,"ves":1060,"unch":1061,"Ġplans":1062,"ustry":1063,"Ġoffic":1064,"Ġworkers":1065,"isban":1066,"Ġple":1067,"Ġdra":1068,"wom":1069,"ody":1070,"cur":1071,"Ġir":1072,"Ġcharges":1073,"oy":1074,"Ġassault":1075,"Ġit":1076,"Ġsent":1077,"az":1078,"Ġseek":1079,"ities":1080,"Ġdisc":1081,"ond":1082,"Ġcost":1083,"amily":1084,"ical":1085,"Ġcritic":1086,"Ġrele":1087,"ilty":1088,"ason":1089,"Ġyears":1090,"ok":1091,"Ġtrain":1092,"Ġreject":1093,"ille":1094,"rol":1095,"Ġalle":1096,"iry":1097,"nt":1098,"Ġrest":1099,"Ġstor":1100,"Ġtar":1101,"Ġflood":1102,"isbane":1103,"unity":1104,"Ġgl":1105,"uk":1106,"Ġminister":1107,"ote":1108,"Ġbig":1109,"Ġnews":1110,"Ġmelbourne":1111,"Ġindustry":1112,"ional":1113,"ured":1114,"gal":1115,"Ġce":1116,"ik":1117,"car":1118,"no":1119,"Ġgets":1120,"ugh":1121,"Ġass":1122,"Ġfun":1123,"Ġmine":1124,"ams":1125,"Ġrecord":1126,"Ġguilty":1127,"ert":1128,"ety":1129,"Ġjailed":1130,"ivers":1131,"pposition":1132,"Ġprobe":1133,"ank":1134,"Ġbeg":1135,"Ġlos":1136,"Ġsn":1137,"Ġland":1138,"Ġtasman":1139,"Ġchange":1140,"Ġbomb":1141,"med":1142,"Ġchanges":1143,"Ġmeet":1144,"gre":1145,"Ġrel":1146,"Ġappe":1147,"Ġbudget":1148,"Ġreview":1149,"head":1150,"Ġcut":1151,"Ġshoot":1152,"Ġstar":1153,"ency":1154,"arch":1155,"Ġed":1156,"Ġz":1157,"more":1158,"atal":1159,"Ġmil":1160,"ids":1161,"velop":1162,"Ġtakes":1163,"ias":1164,"Ġtim":1165,"Ġfish":1166,"ray":1167,"Ġris":1168,"Ġsay":1169,"Ġqueensland":1170,"ror":1171,"ner":1172,"Ġreturn":1173,"Ġcoronavirus":1174,"Ġtwo":1175,"ics":1176,"Ġchina":1177,"rist":1178,"ting":1179,"Ġdar":1180,"Ġlaws":1181,"uper":1182,"national":1183,"Ġexpl":1184,"Ġher":1185,"Ġbur":1186,"Ġquest":1187,"Ġear":1188,"Ġcountry":1189,"Ġtop":1190,"australia":1191,"Ġdefends":1192,"Ġso":1193,"Ġhas":1194,"cast":1195,"Ġbacks":1196,"down":1197,"ious":1198,"Ġeast":1199,"olog":1200,"ederal":1201,"Ġinquiry":1202,"ases":1203,"Ġisland":1204,"ai":1205,"curity":1206,"Ġvictor":1207,"son":1208,"Ġservice":1209,"ald":1210,"Ġwoman":1211,"cap":1212,"Ġwee":1213,"uture":1214,"amed":1215,"Ġrul":1216,"Ġhave":1217,"cond":1218,"ating":1219,"Ġtime":1220,"Ġstate":1221,"Ġpri":1222,"Ġbreak":1223,"aff":1224,"Ġindigenous":1225,"Ġfarmers":1226,"Ġdou":1227,"Ġvis":1228,"Ġarrested":1229,"Ġbid":1230,"ute":1231,"anc":1232,"Ġaction":1233,"Ġwarning":1234,"Ġriver":1235,"ient":1236,"sc":1237,"arks":1238,"Ġ4":1239,"Ġem":1240,"Ġare":1241,"ng":1242,"ments":1243,"orn":1244,"bar":1245,"ific":1246,"Ġfail":1247,"Ġsk":1248,"Ġfears":1249,"Ġshort":1250,"Ġhour":1251,"call":1252,"ler":1253,"ven":1254,"woman":1255,"ops":1256,"Ġfaces":1257,"conom":1258,"ward":1259,"Ġviol":1260,"igin":1261,"Ġcare":1262,"ma":1263,"ows":1264,"Ġchief":1265,"former":1266,"umb":1267,"ads":1268,"Ġurges":1269,"Ġhear":1270,"eter":1271,"Ġpm":1272,"Ġahead":1273,"ij":1274,"Ġ5":1275,"Ġsearch":1276,"Ġimp":1277,"ract":1278,"apan":1279,"Ġadelaide":1280,"Ġpublic":1281,"ade":1282,"ird":1283,"Ġrob":1284,"Ġwants":1285,"Ġcuts":1286,"Ġcontinues":1287,"Ġac":1288,"Ġprom":1289,"line":1290,"Ġbut":1291,"Ġlaunch":1292,"Ġport":1293,"abc":1294,"ians":1295,"ness":1296,"Ġjobs":1297,"aign":1298,"Ġfuture":1299,"Ġstre":1300,"ells":1301,"Ġresc":1302,"ely":1303,"Ġnational":1304,"anger":1305,"ended":1306,"uth":1307,"Ġappeal":1308,"Ġrural":1309,"tr":1310,"Ġlo":1311,"allen":1312,"Ġthr":1313,"ocal":1314,"ility":1315,"Ġant":1316,"Ġhill":1317,"Ġnear":1318,"Ġseason":1319,"io":1320,"me":1321,"aze":1322,"Ġkn":1323,"ament":1324,"ling":1325,"enn":1326,"ett":1327,"Ġhits":1328,"Ġnt":1329,"Ġsafety":1330,"nr":1331,"Ġkore":1332,"ased":1333,"ague":1334,"Ġappro":1335,"Ġfind":1336,"ention":1337,"Ġabuse":1338,"ield":1339,"ival":1340,"Ġdenies":1341,"Ġcol":1342,"Ġdevelop":1343,"udd":1344,"Ġfamily":1345,"Ġpat":1346,"Ġwarns":1347,"Ġhold":1348,"Ġes":1349,"amb":1350,"Ġreve":1351,"Ġweather":1352,"two":1353,"Ġcoal":1354,"Ġgun":1355,"mar":1356,"Ġlife":1357,"sydney":1358,"hip":1359,"Ġconcerns":1360,"rew":1361,"Ġfatal":1362,"Ġbrisbane":1363,"Ġpolitic":1364,"Ġcampaign":1365,"Ġtrans":1366,"yl":1367,"Ġmake":1368,"uring":1369,"Ġsol":1370,"akistan":1371,"irl":1372,"Ġblack":1373,"farm":1374,"Ġalleged":1375,"Ġred":1376,"Ġcommiss":1377,"Ġprice":1378,"pos":1379,"Ġeconom":1380,"Ġfunds":1381,"Ġtold":1382,"aul":1383,"Ġperth":1384,"Ġdecision":1385,"ution":1386,"Ġrejects":1387,"Ġsub":1388,"ball":1389,"Ġiss":1390,"Ġmor":1391,"ited":1392,"Ġgen":1393,"ople":1394,"come":1395,"Ġcond":1396,"Ġdro":1397,"Ġresp":1398,"Ġclear":1399,"uses":1400,"vid":1401,"Ġstabb":1402,"Ġpresident":1403,"imate":1404,"ied":1405,"Ġprof":1406,"mark":1407,"ery":1408,"Ġrail":1409,"Ġcommission":1410,"Ġtur":1411,"ual":1412,"Ġshooting":1413,"Ġweek":1414,"Ġfree":1415,"oods":1416,"ator":1417,"Ġtit":1418,"Ġdog":1419,"Ġtrump":1420,"ama":1421,"Ġsuper":1422,"Ġown":1423,"Ġcommunity":1424,"ghan":1425,"Ġproject":1426,"Ġstation":1427,"Ġturn":1428,"fir":1429,"aby":1430,"mier":1431,"Ġleaders":1432,"other":1433,"Ġbet":1434,"gland":1435,"Ġprison":1436,"Ġcoll":1437,"Ġpost":1438,"Ġmem":1439,"Ġprices":1440,"Ġannounc":1441,"Ġsal":1442,"any":1443,"liament":1444,"Ġsecurity":1445,"Ġresidents":1446,"Ġcanberra":1447,"Ġseeks":1448,"ady":1449,"mas":1450,"ep":1451,"Ġchallen":1452,"Ġmov":1453,"let":1454,"Ġlabor":1455,"rural":1456,"Ġtro":1457,"opp":1458,"go":1459,"Ġterror":1460,"hn":1461,"onald":1462,"ital":1463,"Ġclub":1464,"uel":1465,"fer":1466,"ga":1467,"Ġche":1468,"Ġpress":1469,"ann":1470,"Ġhom":1471,"igns":1472,"Ġrain":1473,"ike":1474,"ane":1475,"do":1476,"yal":1477,"Ġgas":1478,"Ġ19":1479,"ral":1480,"pite":1481,"ium":1482,"Ġspeaks":1483,"Ġincre":1484,"oung":1485,"Ġdrought":1486,"Ġviolence":1487,"Ġart":1488,"ese":1489,"Ġinterview":1490,"Ġinjured":1491,"Ġadv":1492,"Ġpeople":1493,"rain":1494,"uge":1495,"eme":1496,"Ġhot":1497,"tasman":1498,"Ġpolic":1499,"Ġsecond":1500,"Ġhis":1501,"Ġbank":1502,"Ġthan":1503,"Ġhousing":1504,"Ġdriver":1505,"Ġwont":1506,"Ġmove":1507,"Ġservices":1508,"how":1509,"aves":1510,"ving":1511,"Ġleague":1512,"Ġvictims":1513,"ages":1514,"Ġins":1515,"Ġfar":1516,"Ġmp":1517,"Ġfour":1518,"work":1519,"ussie":1520,"itch":1521,"nes":1522,"Ġrate":1523,"Ġresearch":1524,"Ġbuild":1525,"ken":1526,"Ġstart":1527,"victor":1528,"Ġrock":1529,"labor":1530,"Ġhol":1531,"hol":1532,"Ġclash":1533,"ative":1534,"Ġchrist":1535,"rael":1536,"Ġpass":1537,"water":1538,"Ġbail":1539,"comes":1540,"Ġrev":1541,"inese":1542,"Ġconsider":1543,"iday":1544,"Ġstrike":1545,"Ġhand":1546,"Ġsale":1547,"ope":1548,"iers":1549,"Ġfoot":1550,"oney":1551,"Ġreb":1552,"Ġsen":1553,"alk":1554,"ental":1555,"Ġcontinue":1556,"Ġtrade":1557,"Ġstaff":1558,"Ġgreen":1559,"Ġrisk":1560,"Ġcharge":1561,"Ġparty":1562,"Ġthrough":1563,"cent":1564,"uit":1565,"Ġsum":1566,"ares":1567,"Ġmining":1568,"Ġdespite":1569,"Ġsold":1570,"Ġemer":1571,"form":1572,"Ġlong":1573,"aking":1574,"Ġfre":1575,"lebr":1576,"Ġoffer":1577,"Ġlive":1578,"Ġregional":1579,"Ġattacks":1580,"Ġap":1581,"Ġstand":1582,"Ġthree":1583,"isis":1584,"bush":1585,"gency":1586,"Ġmen":1587,"Ġloss":1588,"Ġtrack":1589,"Ġaid":1590,"Ġvote":1591,"Ġlif":1592,"Ġtarget":1593,"20":1594,"Ġput":1595,"idence":1596,"Ġlook":1597,"Ġ7":1598,"Ġstudy":1599,"Ġpoll":1600,"Ġparliament":1601,"south":1602,"Ġben":1603,"Ġprogra":1604,"Ġleader":1605,"Ġent":1606,"Ġkeep":1607,"Ġcycl":1608,"Ġbushfire":1609,"ham":1610,"Ġbegins":1611,"uthor":1612,"Ġhur":1613,"Ġhon":1614,"Ġbody":1615,"my":1616,"Ġmayor":1617,"Ġprotect":1618,"Ġblast":1619,"Ġwho":1620,"bull":1621,"Ġfra":1622,"Ġcrisis":1623,"tain":1624,"ctors":1625,"china":1626,"Ġcity":1627,"coronavirus":1628,"eth":1629,"Ġbeach":1630,"icket":1631,"Ġscheme":1632,"Ġplant":1633,"Ġrates":1634,"Ġopposition":1635,"Ġke":1636,"Ġbeh":1637,"Ġteen":1638,"Ġmakes":1639,"ali":1640,"Ġblaze":1641,"men":1642,"Ġwomen":1643,"Ġdiscuss":1644,"Ġfore":1645,"Ġaccident":1646,"Ġstorm":1647,"court":1648,"ere":1649,"ips":1650,"Ġcrow":1651,"Ġclose":1652,"ging":1653,"Ġval":1654,"Ġtitle":1655,"uro":1656,"ylum":1657,"Ġchildren":1658,"Ġtas":1659,"bs":1660,"Ġcelebr":1661,"Ġold":1662,"Ġ6":1663,"Ġkills":1664,"Ġduring":1665,"Ġbeat":1666,"Ġkorea":1667,"ris":1668,"Ġflu":1669,"Ġteam":1670,"bre":1671,"Ġgirl":1672,"Ġinvestigate":1673,"Ġdelay":1674,"Ġlink":1675,"Ġwall":1676,"Ġcle":1677,"Ġcoach":1678,"acific":1679,"Ġq":1680,"Ġ10":1681,"Ġfinds":1682,"vey":1683,"ville":1684,"teen":1685,"oes":1686,"Ġdebate":1687,"Ġmer":1688,"Ġoper":1689,"Ġhost":1690,"bro":1691,"Ġdarwin":1692,"Ġtourism":1693,"tas":1694,"Ġsign":1695,"Ġconfir":1696,"Ġrules":1697,"Ġel":1698,"north":1699,"Ġlight":1700,"Ġtasmania":1701,"Ġpal":1702,"Ġmc":1703,"Ġwas":1704,"Ġprogram":1705,"iginal":1706,"Ġclaim":1707,"obart":1708,"bus":1709,"Ġfood":1710,"Ġclimate":1711,"rup":1712,"mon":1713,"Ġmilit":1714,"Ġbattle":1715,"rad":1716,"Ġhal":1717,"Ġstudents":1718,"yer":1719,"Ġfoc":1720,"Ġrestr":1721,"Ġanti":1722,"Ġshould":1723,"Ġcovid":1724,"ved":1725,"fore":1726,"Ġinv":1727,"Ġhow":1728,"oos":1729,"ards":1730,"la":1731,"acc":1732,"Ġav":1733,"stem":1734,"ael":1735,"Ġfest":1736,"Ġfil":1737,"Ġway":1738,"Ġpropos":1739,"Ġmus":1740,"Ġhopes":1741,"ots":1742,"ploy":1743,"ony":1744,"Ġunion":1745,"Ġvictoria":1746,"Ġtoll":1747,"Ġpleads":1748,"Ġcrack":1749,"Ġrace":1750,"Ġ8":1751,"Ġexpected":1752,"Ġtow":1753,"Ġhighl":1754,"Ġfederal":1755,"Ġteach":1756,"yo":1757,"Ġcancer":1758,"Ġma":1759,"Ġstop":1760,"Ġshare":1761,"ollar":1762,"Ġoly":1763,"ding":1764,"ba":1765,"cess":1766,"Ġsentenc":1767,"Ġliber":1768,"Ġgood":1769,"Ġsparks":1770,"Ġamid":1771,"Ġescap":1772,"Ġtreat":1773,"Ġpolicy":1774,"vir":1775,"kely":1776,"Ġhist":1777,"Ġbeing":1778,"aster":1779,"Ġmarkets":1780,"Ġlab":1781,"Ġpromp":1782,"oint":1783,"Ġshows":1784,"ergy":1785,"Ġolymp":1786,"Ġairport":1787,"stru":1788,"Ġplane":1789,"Ġannounces":1790,"Ġer":1791,"Ġforce":1792,"union":1793,"fight":1794,"Ġconsiders":1795,"Ġvictory":1796,"Ġhunt":1797,"ators":1798,"Ġuse":1799,"vic":1800,"ec":1801,"erson":1802,"Ġstabbing":1803,"ries":1804,"Ġroyal":1805,"Ġmedia":1806,"tion":1807,"igers":1808,"rit":1809,"Ġcam":1810,"pre":1811,"Ġboss":1812,"Ġafghan":1813,"Ġspr":1814,"castle":1815,"wood":1816,"uclear":1817,"ible":1818,"Ġcontrol":1819,"Ġvictim":1820,"ued":1821,"led":1822,"Ġge":1823,"Ġready":1824,"idge":1825,"pped":1826,"Ġhighway":1827,"Ġvisit":1828,"Ġcattle":1829,"icide":1830,"mal":1831,"ichael":1832,"Ġsystem":1833,"cy":1834,"Ġstay":1835,"fr":1836,"Ġwarned":1837,"Ġdom":1838,"Ġmot":1839,"onesia":1840,"Ġint":1841,"bon":1842,"Ġtoo":1843,"Ġlocal":1844,"urch":1845,"wards":1846,"queensland":1847,"Ġboy":1848,"elling":1849,"jo":1850,"ser":1851,"sen":1852,"Ġrac":1853,"ousands":1854,"Ġdevelopment":1855,"Ġafl":1856,"Ġlegal":1857,"Ġsurv":1858,"Ġmal":1859,"airy":1860,"stand":1861,"Ġmillion":1862,"Ġdrum":1863,"Ġits":1864,"andid":1865,"Ġchamp":1866,"Ġabc":1867,"ember":1868,"Ġwant":1869,"Ġsite":1870,"farmers":1871,"ced":1872,"Ġbor":1873,"ster":1874,"Ġprodu":1875,"Ġleg":1876,"Ġey":1877,"Ġdeaths":1878,"Ġreach":1879,"ocks":1880,"Ġsqu":1881,"esh":1882,"igr":1883,"Ġcrime":1884,"Ġdollar":1885,"Ġcompany":1886,"Ġ'":1887,"Ġtruck":1888,"Ġboat":1889,"Ġrestrict":1890,"Ġfestival":1891,"west":1892,"Ġmatch":1893,"ucation":1894,"mur":1895,"gers":1896,"Ġpen":1897,"Ġengland":1898,"Ġfined":1899,"gan":1900,"empt":1901,"pm":1902,"Ġwelcomes":1903,"itish":1904,"Ġjust":1905,"Ġaff":1906,"Ġchallenge":1907,"sch":1908,"government":1909,"dra":1910,"ouse":1911,"Ġdav":1912,"Ġhears":1913,"Ġaward":1914,"Ġpet":1915,"Ġdep":1916,"Ġrecover":1917,"Ġemergency":1918,"Ġcross":1919,"Ġtre":1920,"canberra":1921,"Ġquestions":1922,"Ġbay":1923,"lect":1924,"Ġgrand":1925,"ulation":1926,"Ġproble":1927,"Ġmeeting":1928,"Ġshot":1929,"stud":1930,"Ġdisp":1931,"col":1932,"urns":1933,"public":1934,"Ġpled":1935,"xt":1936,"Ġjapan":1937,"Ġimpact":1938,"na":1939,"Ġdon":1940,"Ġfront":1941,"Ġang":1942,"ination":1943,"ooks":1944,"Ġpremier":1945,"Ġspeed":1946,"dict":1947,"Ġnuclear":1948,"Ġdecl":1949,"Ġpakistan":1950,"Ġbul":1951,"Ġleave":1952,"000":1953,"ager":1954,"cr":1955,"ails":1956,"Ġmid":1957,"Ġbash":1958,"aste":1959,"Ġchristmas":1960,"Ġdrink":1961,"Ġmurray":1962,"Ġoil":1963,"Ġfires":1964,"Ġwind":1965,"cycl":1966,"ology":1967,"Ġwild":1968,"Ġrespon":1969,"Ġopens":1970,"ects":1971,"Ġyouth":1972,"Ġrelease":1973,"oms":1974,"Ġjohn":1975,"Ġinf":1976,"Ġruss":1977,"Ġupgra":1978,"Ġtown":1979,"val":1980,"Ġadm":1981,"Ġleaves":1982,"minister":1983,"Ġinvestigation":1984,"ca":1985,"Ġob":1986,"ford":1987,"Ġlist":1988,"Ġnamed":1989,"rian":1990,"iff":1991,"Ġquestion":1992,"Ġimpro":1993,"Ġclean":1994,"ross":1995,"Ġindia":1996,"Ġhum":1997,"melbourne":1998,"Ġasylum":1999,"ful":2000,"indigenous":2001,"Ġstreet":2002,"rown":2003,"oph":2004,"den":2005,"child":2006,"abies":2007,"Ġlow":2008,"may":2009,"Ġinterest":2010,"itions":2011,"rib":2012,"Ġreports":2013,"Ġelect":2014,"oon":2015,"Ġafric":2016,"Ġhighlights":2017,"Ġquar":2018,"Ġtough":2019,"ults":2020,"Ġcandid":2021,"Ġvol":2022,"bt":2023,"Ġbir":2024,"Ġfear":2025,"Ġenergy":2026,"Ġleads":2027,"Ġspec":2028,"Ġyoung":2029,"opposition":2030,"ending":2031,"Ġfly":2032,"greens":2033,"Ġship":2034,"Ġbefore":2035,"imb":2036,"ffic":2037,"Ġdraw":2038,"itness":2039,"Ġroll":2040,"health":2041,"Ġash":2042,"Ġpos":2043,"Ġrally":2044,"Ġline":2045,"sun":2046,"icks":2047,"ners":2048,"Ġoffers":2049,"iting":2050,"Ġgives":2051,"Ġraid":2052,"Ġvic":2053,"fish":2054,"Ġhobart":2055,"afl":2056,"Ġmarch":2057,"Ġmoves":2058,"Ġrescue":2059,"jor":2060,"Ġforces":2061,"aly":2062,"Ġbehind":2063,"reek":2064,"Ġvot":2065,"Ġloses":2066,"ccer":2067,"avy":2068,"gest":2069,"eat":2070,"Ġprepar":2071,"Ġlock":2072,"Ġdest":2073,"ension":2074,"river":2075,"Ġcontract":2076,"comm":2077,"Ġputs":2078,"ides":2079,"Ġlose":2080,"ince":2081,"Ġsumm":2082,"tra":2083,"umbers":2084,"Ġtheir":2085,"Ġofficer":2086,"Ġrestrictions":2087,"elf":2088,"Ġpacific":2089,"ability":2090,"Ġmy":2091,"Ġwatch":2092,"donald":2093,"Ġspot":2094,"ession":2095,"Ġreleased":2096,"lection":2097,"Ġrow":2098,"Ġfalls":2099,"tle":2100,"Ġmonth":2101,"eline":2102,"Ġnight":2103,"viron":2104,"Ġ9":2105,"Ġarri":2106,"Ġpra":2107,"istr":2108,"Ġfocus":2109,"Ġgrowers":2110,"Ġpil":2111,"less":2112,"Ġball":2113,"Ġdump":2114,"Ġtraining":2115,"sm":2116,"Ġfacing":2117,"Ġbaby":2118,"antas":2119,"mber":2120,"Ġreveals":2121,"Ġ200":2122,"Ġ12":2123,"ench":2124,"mc":2125,"Ġagree":2126,"vironment":2127,"Ġgames":2128,"Ġlim":2129,"Ġ15":2130,"Ġearly":2131,"Ġcust":2132,"gold":2133,"Ġconfident":2134,"outs":2135,"Ġmental":2136,"grand":2137,"high":2138,"Ġmoney":2139,"Ġnet":2140,"ulture":2141,"Ġnumbers":2142,"Ġthreaten":2143,"Ġpromises":2144,"Ġlooks":2145,"Ġsave":2146,"bul":2147,"kes":2148,"ites":2149,"stra":2150,"udge":2151,"iji":2152,"unt":2153,"ret":2154,"Ġbetter":2155,"three":2156,"ussies":2157,"wall":2158,"Ġrobber":2159,"reds":2160,"Ġdrivers":2161,"Ġtroops":2162,"Ġinquest":2163,"olen":2164,"itz":2165,"ugby":2166,"Ġcur":2167,"Ġdriving":2168,"Ġdemand":2169,"su":2170,"Ġdrugs":2171,"que":2172,"pal":2173,"Ġround":2174,"Ġcentral":2175,"Ġhonour":2176,"Ġgoes":2177,"Ġtells":2178,"Ġwed":2179,"Ġdefence":2180,"aust":2181,"Ġaust":2182,"Ġren":2183,"ences":2184,"Ġsea":2185,"Ġabb":2186,"Ġeducation":2187,"ming":2188,"Ġrape":2189,"ils":2190,"add":2191,"Ġrefuge":2192,"federal":2193,"Ġissues":2194,"Ġsentence":2195,"Ġbel":2196,"ose":2197,"Ġ100":2198,"Ġreturns":2199,"Ġauthor":2200,"Ġgiv":2201,"Ġcome":2202,"Ġstrug":2203,"Ġmass":2204,"Ġprofit":2205,"orse":2206,"Ġinjury":2207,"japan":2208,"Ġjoin":2209,"Ġsun":2210,"thers":2211,"Ġmust":2212,"Ġlank":2213,"Ġnorthern":2214,"Ġformer":2215,"Ġdelays":2216,"appy":2217,"Ġavo":2218,"illegal":2219,"erman":2220,"Ġrights":2221,"Ġsigns":2222,"Ġfive":2223,"Ġbuilding":2224,"Ġends":2225,"tasmanian":2226,"Ġhunter":2227,"ying":2228,"Ġuk":2229,"Ġmount":2230,"Ġsix":2231,"cohol":2232,"onesian":2233,"Ġneeded":2234,"Ġfuel":2235,"Ġfix":2236,"lam":2237,"gu":2238,"Ġabor":2239,"search":2240,"Ġincrease":2241,"business":2242,"Ġgrowth":2243,"Ġjun":2244,"dis":2245,"lin":2246,"rial":2247,"Ġpng":2248,"Ġlevel":2249,"Ġlast":2250,"Ġnext":2251,"nrl":2252,"Ġproper":2253,"ughter":2254,"lee":2255,"ron":2256,"Ġbag":2257,"Ġrece":2258,"oner":2259,"residents":2260,"bur":2261,"ints":2262,"ica":2263,"world":2264,"Ġpop":2265,"imber":2266,"Ġdamage":2267,"Ġcyclone":2268,"Ġdire":2269,"Ġstrong":2270,"obal":2271,"israel":2272,"ideo":2273,"aker":2274,"nrn":2275,"net":2276,"png":2277,"adelaide":2278,"umps":2279,"Ġmag":2280,"rudd":2281,"Ġremains":2282,"ste":2283,"bers":2284,"ience":2285,"dar":2286,"Ġtack":2287,"Ġeuro":2288,"quest":2289,"Ġcases":2290,"Ġprompts":2291,"Ġboard":2292,"Ġschools":2293,"Ġsucc":2294,"Ġadmits":2295,"Ġvs":2296,"Ġclosure":2297,"market":2298,"Ġdouble":2299,"Ġsav":2300,"Ġhope":2301,"uary":2302,"Ġpull":2303,"Ġpressure":2304,"Ġyou":2305,"angar":2306,"Ġsales":2307,"Ġposs":2308,"rig":2309,"Ġwoes":2310,"ata":2311,"ouncill":2312,"ourn":2313,"Ġsafe":2314,"fighters":2315,"ship":2316,"estic":2317,"bra":2318,"andal":2319,"Ġmilitary":2320,"Ġjul":2321,"aged":2322,"ught":2323,"aussie":2324,"Ġcal":2325,"Ġgrant":2326,"oul":2327,"Ġreveal":2328,"rap":2329,"Ġdispute":2330,"Ġpack":2331,"bor":2332,"gle":2333,"Ġsmith":2334,"Ġjoins":2335,"Ġgreat":2336,"break":2337,"big":2338,"Ġcollap":2339,"Ġsentenced":2340,"acu":2341,"Ġthird":2342,"Ġsack":2343,"Ġdi":2344,"Ġforest":2345,"aur":2346,"green":2347,"Ġgame":2348,"igo":2349,"Ġrises":2350,"sur":2351,"Ġshortage":2352,"Ġworker":2353,"lo":2354,"Ġfer":2355,"Ġwelcome":2356,"Ġexport":2357,"russ":2358,"Ġclass":2359,"Ġpan":2360,"Ġpriv":2361,"Ġpeace":2362,"au":2363,"ientists":2364,"Ġaboriginal":2365,"Ġsport":2366,"fires":2367,"Ġbest":2368,"Ġdismiss":2369,"dress":2370,"fears":2371,"stor":2372,"Ġresponse":2373,"Ġnz":2374,"sy":2375,"inter":2376,"itor":2377,"Ġhard":2378,"perth":2379,"Ġwaste":2380,"Ġ2015":2381,"four":2382,"Ġze":2383,"Ġborder":2384,"Ġmis":2385,"Ġsoc":2386,"Ġchinese":2387,"mat":2388,"char":2389,"Ġwestern":2390,"ires":2391,"very":2392,"elstra":2393,"Ġfoll":2394,"Ġkey":2395,"Ġlaunches":2396,"grandstand":2397,"ogs":2398,"ami":2399,"ising":2400,"ounce":2401,"Ġslams":2402,"Ġtowns":2403,"gery":2404,"Ġdetention":2405,"field":2406,"cle":2407,"cra":2408,"Ġ11":2409,"Ġbenef":2410,"iger":2411,"her":2412,"nesday":2413,"ansion":2414,"afe":2415,"Ġbas":2416,"Ġfact":2417,"Ġorder":2418,"king":2419,"inks":2420,"Ġcricket":2421,"Ġcheck":2422,"Ġaway":2423,"ancial":2424,"eds":2425,"aint":2426,"Ġflag":2427,"place":2428,"light":2429,"tour":2430,"ole":2431,"uesday":2432,"Ġsing":2433,"bb":2434,"worth":2435,"Ġshares":2436,"Ġclin":2437,"mayor":2438,"Ġpolitical":2439,"Ġhotel":2440,"Ġfraud":2441,"Ġmichael":2442,"Ġevacu":2443,"Ġsought":2444,"key":2445,"oh":2446,"Ġmac":2447,"ork":2448,"Ġburn":2449,"owns":2450,"Ġeconomy":2451,"Ġdoctor":2452,"Ġnr":2453,"Ġve":2454,"ances":2455,"Ġrugby":2456,"ria":2457,"Ġroads":2458,"Ġcosts":2459,"test":2460,"aed":2461,"Ġattempt":2462,"Ġtech":2463,"Ġzeal":2464,"Ġhomes":2465,"arra":2466,"Ġanother":2467,"Ġwhat":2468,"Ġsuicide":2469,"Ġvalley":2470,"eless":2471,"Ġunve":2472,"Ġlikely":2473,"Ġevidence":2474,"Ġwr":2475,"ker":2476,"well":2477,"Ġsuccess":2478,"Ġinternational":2479,"Ġfriday":2480,"Ġdrop":2481,"ewell":2482,"Ġbow":2483,"Ġupgrade":2484,"ords":2485,"Ġhurt":2486,"anded":2487,"law":2488,"ashes":2489,"illard":2490,"roy":2491,"Ġreal":2492,"nab":2493,"Ġaged":2494,"Ġhelps":2495,"Ġfails":2496,"Ġprotection":2497,"ino":2498,"Ġsug":2499,"Ġreop":2500,"state":2501,"Ġcab":2502,"Ġthreatens":2503,"ationals":2504,"Ġcarbon":2505,"aid":2506,"cept":2507,"Ġaustralias":2508,"ene":2509,"turn":2510,"wl":2511,"ana":2512,"Ġstage":2513,"Ġdev":2514,"fall":2515,"gets":2516,"ilipp":2517,"ugust":2518,"Ġtrib":2519,"Ġforeign":2520,"so":2521,"Ġeconomic":2522,"Ġcamer":2523,"iams":2524,"reg":2525,"eder":2526,"endigo":2527,"Ġsets":2528,"ender":2529,"mo":2530,"Ġinc":2531,"Ġbegin":2532,"report":2533,"ursday":2534,"Ġpast":2535,"Ġfilm":2536,"pper":2537,"Ġcrashes":2538,"Ġpushes":2539,"Ġtasmanian":2540,"Ġwhite":2541,"Ġexpansion":2542,"atter":2543,"Ġwalk":2544,"Ġterrorism":2545,"Ġzealand":2546,"Ġx":2547,"oups":2548,"iversity":2549,"Ġsuff":2550,"bu":2551,"Ġowners":2552,"Ġexper":2553,"Ġmans":2554,"gun":2555,"Ġcompl":2556,"Ġmajor":2557,"Ġharvest":2558,"ider":2559,"Ġdise":2560,"Ġsexual":2561,"angers":2562,"house":2563,"Ġcommitt":2564,"Ġabbott":2565,"Ġprotests":2566,"Ġlob":2567,"Ġaugust":2568,"ift":2569,"Ġfishing":2570,"Ġplanning":2571,"Ġi":2572,"Ġstolen":2573,"Ġprotesters":2574,"ruption":2575,"Ġalcohol":2576,"Ġkids":2577,"hns":2578,"lands":2579,"Ġmanage":2580,"Ġname":2581,"Ġdoctors":2582,"Ġdiv":2583,"Ġphot":2584,"Ġtw":2585,"Ġfig":2586,"liber":2587,"Ġfloods":2588,"Ġkilling":2589,"Ġbuy":2590,"cture":2591,"Ġsenate":2592,"clos":2593,"Ġaddress":2594,"Ġpot":2595,"power":2596,"Ġspark":2597,"Ġboom":2598,"ura":2599,"acy":2600,"Ġcloses":2601,"Ġaccess":2602,"thousands":2603,"Ġopp":2604,"Ġnurs":2605,"Ġ2014":2606,"school":2607,"bury":2608,"ients":2609,"Ġliv":2610,"ondon":2611,"Ġillegal":2612,"Ġlat":2613,"aints":2614,"rews":2615,"Ġinsp":2616,"Ġgiven":2617,"Ġconvict":2618,"Ġsil":2619,"concer":2620,"pc":2621,"cos":2622,"care":2623,"ya":2624,"dd":2625,"inal":2626,"aling":2627,"amilies":2628,"Ġbreach":2629,"Ġask":2630,"hold":2631,"Ġtigers":2632,"first":2633,"orter":2634,"iation":2635,"Ġhistory":2636,"unities":2637,"Ġsecre":2638,"Ġdanger":2639,"Ġfinals":2640,"coal":2641,"Ġremain":2642,"Ġanim":2643,"zac":2644,"Ġill":2645,"family":2646,"Ġcrackdown":2647,"off":2648,"Ġvideo":2649,"uty":2650,"Ġupd":2651,"Ġtransport":2652,"Ġnewcastle":2653,"Ġheld":2654,"Ġcritical":2655,"Ġopt":2656,"Ġchampion":2657,"pakistan":2658,"Ġpap":2659,"Ġbans":2660,"omm":2661,"what":2662,"owing":2663,"Ġbridge":2664,"Ġblues":2665,"itive":2666,"Ġform":2667,"works":2668,"Ġcreek":2669,"Ġshire":2670,"Ġplanned":2671,"Ġnow":2672,"Ġking":2673,"orge":2674,"ired":2675,"Ġ$":2676,"Ġconfirms":2677,"Ġbirth":2678,"inet":2679,"Ġaustralians":2680,"Ġenvironment":2681,"har":2682,"Ġ14":2683,"Ġheat":2684,"Ġneeds":2685,"victorian":2686,"ials":2687,"Ġmemor":2688,"emic":2689,"Ġhuman":2690,"itage":2691,"duc":2692,"Ġpip":2693,"Ġleadership":2694,"Ġhaw":2695,"chinese":2696,"Ġpoint":2697,"Ġdeli":2698,"Ġunited":2699,"Ġconditions":2700,"Ġu":2701,"Ġdisapp":2702,"Ġscott":2703,"Ġtrip":2704,"ployment":2705,"oric":2706,"Ġloc":2707,"ext":2708,"Ġtreatment":2709,"Ġblamed":2710,"Ġaussie":2711,"Ġfirm":2712,"Ġdisease":2713,"Ġident":2714,"Ġnrl":2715,"Ġdairy":2716,"ills":2717,"Ġtests":2718,"Ġsec":2719,"Ġdoubt":2720,"Ġhearing":2721,"erence":2722,"Ġbull":2723,"gar":2724,"Ġrole":2725,"undreds":2726,"Ġlic":2727,"unte":2728,"Ġchurch":2729,"brisbane":2730,"Ġtargets":2731,"Ġceo":2732,"Ġgive":2733,"ournal":2734,"ering":2735,"Ġkiller":2736,"Ġsurgery":2737,"Ġsquad":2738,"Ġquits":2739,"Ġtimes":2740,"Ġfull":2741,"Ġacross":2742,"pet":2743,"Ġolympic":2744,"pass":2745,"lds":2746,"Ġbik":2747,"Ġoffice":2748,"flood":2749,"Ġmusic":2750,"Ġsees":2751,"Ġoutback":2752,"Ġterm":2753,"gling":2754,"Ġlanka":2755,"ston":2756,"missing":2757,"Ġsouthern":2758,"Ġthat":2759,"Ġactiv":2760,"Ġsurviv":2761,"epend":2762,"Ġgroups":2763,"ican":2764,"ritory":2765,"des":2766,"ars":2767,"Ġcanc":2768,"Ġswim":2769,"ipped":2770,"victoria":2771,"Ġsoldiers":2772,"Ġshe":2773,"Ġstudent":2774,"Ġson":2775,"rog":2776,"Ġdavid":2777,"Ġmade":2778,"Ġrecords":2779,"Ġwal":2780,"Ġresults":2781,"Ġseries":2782,"Ġdrive":2783,"alys":2784,"Ġtravel":2785,"Ġphone":2786,"ained":2787,"Ġimprove":2788,"local":2789,"ws":2790,"aine":2791,"erv":2792,"Ġexec":2793,"Ġru":2794,"vention":2795,"burn":2796,"ockey":2797,"Ġhigher":2798,"Ġmet":2799,"under":2800,"ior":2801,"Ġsept":2802,"ram":2803,"bel":2804,"cs":2805,"Ġlake":2806,"iant":2807,"Ġwithdra":2808,"osion":2809,"Ġprocess":2810,"Ġvacc":2811,"Ġwine":2812,"sea":2813,"Ġcompet":2814,"Ġsan":2815,"Ġmedical":2816,"Ġbad":2817,"Ġdomestic":2818,"ackay":2819,"Ġcleared":2820,"Ġbri":2821,"Ġplayers":2822,"sol":2823,"Ġ25":2824,"gress":2825,"Ġheads":2826,"Ġ0":2827,"Ġmost":2828,"Ġgrain":2829,"ki":2830,"Ġvows":2831,"Ġic":2832,"Ġfo":2833,"Ġcred":2834,"Ġamer":2835,"best":2836,"lad":2837,"cceroos":2838,"rison":2839,"Ġcaught":2840,"Ġmotor":2841,"bass":2842,"Ġbroken":2843,"Ġturnbull":2844,"aza":2845,"Ġsem":2846,"lines":2847,"yan":2848,"Ġcast":2849,"Ġmps":2850,"Ġeff":2851,"Ġrescued":2852,"Ġjack":2853,"Ġrevamp":2854,"struction":2855,"Ġrich":2856,"Ġretire":2857,"nam":2858,"Ġyet":2859,"Ġconference":2860,"Ġfinancial":2861,"plan":2862,"ipps":2863,"Ġif":2864,"mor":2865,"Ġcolle":2866,"Ġcash":2867,"Ġmarri":2868,"Ġmanagement":2869,"Ġups":2870,"Ġalice":2871,"Ġcandidate":2872,"Ġest":2873,"Ġreform":2874,"Ġtv":2875,"Ġtackle":2876,"book":2877,"agles":2878,"Ġindonesia":2879,"Ġneg":2880,"Ġshar":2881,"Ġfri":2882,"Ġdays":2883,"Ġkid":2884,"riors":2885,"missions":2886,"Ġisrael":2887,"Ġstep":2888,"Ġapolog":2889,"Ġashes":2890,"Ġcour":2891,"Ġfur":2892,"Ġrelief":2893,"Ġsuspended":2894,"Ġstars":2895,"howard":2896,"Ġkeen":2897,"ustrial":2898,"Ġsurf":2899,"Ġrecovery":2900,"Ġproperty":2901,"Ġtheft":2902,"Ġcapt":2903,"top":2904,"stit":2905,"ogn":2906,"hun":2907,"Ġbreaks":2908,"gent":2909,"Ġ2016":2910,"Ġvan":2911,"calls":2912,"Ġiran":2913,"Ġlet":2914,"pol":2915,"vent":2916,"Ġheart":2917,"Ġder":2918,"bert":2919,"ippsland":2920,"Ġpledges":2921,"Ġrad":2922,"Ġdoes":2923,"Ġturns":2924,"imberley":2925,"Ġescape":2926,"ties":2927,"eeps":2928,"Ġax":2929,"Ġaud":2930,"Ġawa":2931,"Ġdogs":2932,"ounds":2933,"Ġdrag":2934,"Ġtimor":2935,"imbab":2936,"Ġafghanistan":2937,"Ġwithout":2938,"Ġsuspect":2939,"Ġmonday":2940,"Ġ30":2941,"dav":2942,"vin":2943,"Ġdig":2944,"Ġwitness":2945,"Ġseekers":2946,"Ġmerger":2947,"will":2948,"Ġcollapse":2949,"Ġawards":2950,"india":2951,"Ġconcerned":2952,"dem":2953,"Ġresum":2954,"Ġtree":2955,"Ġyour":2956,"Ġlinked":2957,"Ġrudd":2958,"Ġlear":2959,"Ġ13":2960,"Ġshut":2961,"Ġcow":2962,"Ġdie":2963,"Ġvictorian":2964,"band":2965,"Ġlift":2966,"Ġ18":2967,"Ġafrica":2968,"nz":2969,"Ġpeter":2970,"Ġonline":2971,"Ġcorruption":2972,"Ġbroad":2973,"migr":2974,"Ġlower":2975,"Ġqual":2976,"Ġarmy":2977,"dle":2978,"Ġver":2979,"Ġblock":2980,"fact":2981,"Ġgreens":2982,"erve":2983,"ola":2984,"Ġthis":2985,"Ġchase":2986,"forts":2987,"Ġcomments":2988,"Ġfarmer":2989,"Ġrobbery":2990,"iran":2991,"Ġorigin":2992,"Ġalleg":2993,"Ġalert":2994,"Ġmother":2995,"Ġglobal":2996,"Ġsnow":2997,"Ġcit":2998,"Ġcoun":2999,"strong":3000,"dog":3001,"Ġ16":3002,"Ġdebt":3003,"uff":3004,"Ġused":3005,"Ġinvestment":3006,"Ġrecogn":3007,"ream":3008,"stone":3009,"premier":3010,"Ġredu":3011,"hd":3012,"Ġsupply":3013,"Ġwarn":3014,"Ġporn":3015,"elly":3016,"Ġprep":3017,"Ġaims":3018,"Ġcrim":3019,"airns":3020,"sl":3021,"Ġstra":3022,"Ġoutbreak":3023,"Ġdisaster":3024,"Ġsurvey":3025,"Ġsocial":3026,"estin":3027,"isters":3028,"Ġsim":3029,"Ġbali":3030,"Ġlost":3031,"elled":3032,"Ġrenew":3033,"Ġham":3034,"Ġpossible":3035,"Ġep":3036,"Ġtipped":3037,"force":3038,"Ġshark":3039,"Ġcoup":3040,"ander":3041,"Ġcause":3042,"Ġ24":3043,"Ġconfidence":3044,"lie":3045,"Ġbird":3046,"duct":3047,"Ġcatch":3048,"Ġwould":3049,"urance":3050,"Ġ50":3051,"Ġliberal":3052,"hnson":3053,"Ġsam":3054,"yr":3055,"Ġground":3056,"gypt":3057,"fare":3058,"Ġtuesday":3059,"Ġremov":3060,"Ġmess":3061,"Ġbeef":3062,"yn":3063,"Ġsuspected":3064,"Ġgall":3065,"Ġgeneral":3066,"Ġseptember":3067,"Ġtalk":3068,"ta":3069,"Ġtakeover":3070,"aussies":3071,"Ġsell":3072,"Ġord":3073,"Ġcustody":3074,"Ġlooking":3075,"wild":3076,"rem":3077,"Ġgay":3078,"ldogs":3079,"Ġlatest":3080,"imbabwe":3081,"Ġspill":3082,"mining":3083,"Ġwednesday":3084,"Ġfa":3085,"Ġfigures":3086,"Ġbox":3087,"Ġraises":3088,"Ġdiscover":3089,"Ġright":3090,"Ġpolitics":3091,"Ġstrikes":3092,"Ġsprings":3093,"Ġchair":3094,"Ġleft":3095,"hope":3096,"Ġdue":3097,"Ġbatt":3098,"Ġbashing":3099,"sn":3100,"Ġfrench":3101,"don":3102,"young":3103,"rie":3104,"emp":3105,"Ġcrop":3106,"xic":3107,"Ġoct":3108,"abbott":3109,"Ġthursday":3110,"ify":3111,"british":3112,"Ġheritage":3113,"Ġdiscusses":3114,"Ġtun":3115,"protest":3116,"ello":3117,"Ġseiz":3118,"Ġquake":3119,"Ġexpert":3120,"Ġagreement":3121,"Ġbrawl":3122,"Ġcabinet":3123,"closer":3124,"Ġease":3125,"Ġflight":3126,"ilippines":3127,"aters":3128,"Ġjuly":3129,"Ġearth":3130,"Ġda":3131,"Ġcover":3132,"alysis":3133,"eas":3134,"Ġtry":3135,"Ġinfl":3136,"Ġhor":3137,"ixed":3138,"Ġmarriage":3139,"Ġexports":3140,"derly":3141,"Ġreef":3142,"Ġsector":3143,"quar":3144,"Ġunderway":3145,"Ġcondem":3146,"ouncillor":3147,"Ġwomens":3148,"boys":3149,"Ġbillion":3150,"community":3151,"ober":3152,"inc":3153,"anium":3154,"Ġtrading":3155,"study":3156,"vy":3157,"urer":3158,"Ġef":3159,"Ġofficers":3160,"Ġprepare":3161,"ders":3162,"Ġleak":3163,"Ġjournal":3164,"berg":3165,"Ġrap":3166,"Ġcouncils":3167,"nabis":3168,"Ġefforts":3169,"ointed":3170,"Ġjune":3171,"Ġparents":3172,"ada":3173,"rio":3174,"Ġproduction":3175,"bled":3176,"Ġice":3177,"Ġouts":3178,"Ġforecast":3179,"Ġlog":3180,"Ġproblems":3181,"Ġuni":3182,"wealth":3183,"Ġsecret":3184,"gas":3185,"artment":3186,"Ġbritish":3187,"Ġcompens":3188,"christ":3189,"Ġber":3190,"Ġpatients":3191,"kn":3192,"wi":3193,"Ġsheep":3194,"bestos":3195,"ishop":3196,"Ġhalf":3197,"Ġcard":3198,"Ġmcc":3199,"Ġlands":3200,"Ġpenal":3201,"Ġthey":3202,"Ġstands":3203,"oncos":3204,"Ġwool":3205,"arke":3206,"Ġbrings":3207,"ung":3208,"Ġshock":3209,"ara":3210,"eng":3211,"ening":3212,"Ġteachers":3213,"def":3214,"bell":3215,"iti":3216,"asing":3217,"Ġbook":3218,"Ġlawyer":3219,"Ġtechn":3220,"driver":3221,"Ġpool":3222,"gn":3223,"storm":3224,"Ġworries":3225,"Ġanzac":3226,"Ġdemands":3227,"Ġfootball":3228,"Ġharbour":3229,"Ġcelebrates":3230,"Ġdata":3231,"Ġallow":3232,"lamic":3233,"Ġjames":3234,"bh":3235,"Ġapr":3236,"Ġdoc":3237,"Ġasked":3238,"owers":3239,"Ġseat":3240,"Ġspace":3241,"Ġfinish":3242,"indonesia":3243,"Ġpredict":3244,"Ġsurge":3245,"qantas":3246,"drought":3247,"change":3248,"answ":3249,"Ġwilliams":3250,"utes":3251,"alle":3252,"Ġiraqi":3253,"Ġforum":3254,"research":3255,"england":3256,"ato":3257,"Ġorgan":3258,"Ġgang":3259,"Ġovers":3260,"opping":3261,"Ġpub":3262,"Ġsurpr":3263,"Ġsolar":3264,"Ġbring":3265,"iro":3266,"Ġsome":3267,"Ġmos":3268,"Ġhorse":3269,"Ġ17":3270,"Ġsyria":3271,"vember":3272,"Ġvill":3273,"Ġproblem":3274,"Ġindustrial":3275,"Ġlondon":3276,"Ġblue":3277,"Ġcauses":3278,"rock":3279,"Ġindian":3280,"Ġassist":3281,"iders":3282,"Ġfinance":3283,"Ġracing":3284,"fa":3285,"Ġfamilies":3286,"extended":3287,"Ġresign":3288,"Ġfrance":3289,"anglad":3290,"Ġapril":3291,"oke":3292,"Ġlate":3293,"Ġbanned":3294,"inj":3295,"Ġoctober":3296,"angladesh":3297,"quake":3298,"Ġboosts":3299,"Ġhappy":3300,"uction":3301,"Ġstarts":3302,"Ġwelfare":3303,"ields":3304,"Ġtsun":3305,"Ġwell":3306,"icious":3307,"crow":3308,"di":3309,"zil":3310,"press":3311,"Ġcop":3312,"cher":3313,"Ġtesting":3314,"Ġtourist":3315,"Ġlike":3316,"Ġnovember":3317,"Ġplayer":3318,"ular":3319,"Ġavoid":3320,"Ġmemorial":3321,"Ġbeats":3322,"ogra":3323,"Ġquarter":3324,"Ġalp":3325,"Ġwrap":3326,"Ġcroc":3327,"Ġflooding":3328,"Ġspending":3329,"Ġmod":3330,"Ġcru":3331,"Ġslow":3332,"sec":3333,"why":3334,"rovers":3335,"Ġhall":3336,"Ġtight":3337,"iles":3338,"Ġforced":3339,"ores":3340,"Ġhomeless":3341,"Ġallegations":3342,"super":3343,"Ġdrow":3344,"Ġsat":3345,"shire":3346,"Ġless":3347,"ential":3348,"Ġwhy":3349,"Ġwil":3350,"election":3351,"invest":3352,"wis":3353,"ooper":3354,"Ġrecomm":3355,"Ġissue":3356,"darwin":3357,"Ġfans":3358,"Ġprob":3359,"Ġblow":3360,"hdad":3361,"Ġbal":3362,"Ġkeeps":3363,"Ġoppos":3364,"Ġgerman":3365,"Ġbust":3366,"Ġmonths":3367,"obama":3368,"Ġ2013":3369,"Ġcaptain":3370,"eding":3371,"ocr":3372,"trump":3373,"ize":3374,"aken":3375,"Ġmigr":3376,"Ġterritory":3377,"Ġgaza":3378,"Ġtsunami":3379,"Ġansw":3380,"Ġgar":3381,"author":3382,"Ġfair":3383,"aving":3384,"Ġrebels":3385,"Ġdarling":3386,"Ġholds":3387,"Ġprepares":3388,"ograph":3389,"yers":3390,"Ġfast":3391,"Ġstrate":3392,"ources":3393,"Ġquiz":3394,"teach":3395,"boy":3396,"Ġislands":3397,"umber":3398,"attie":3399,"Ġweekend":3400,"pair":3401,"Ġteacher":3402,"scott":3403,"Ġcreat":3404,"Ġreact":3405,"Ġsmall":3406,"Ġreporter":3407,"backs":3408,"media":3409,"Ġsri":3410,"of":3411,"pay":3412,"ude":3413,"Ġlosses":3414,"Ġincident":3415,"five":3416,"haw":3417,"van":3418,"alp":3419,"Ġwife":3420,"Ġciv":3421,"cro":3422,"Ġworking":3423,"ses":3424,"Ġlar":3425,"Ġequ":3426,"Ġdelayed":3427,"ultural":3428,"eful":3429,"Ġcriticism":3430,"gin":3431,"tigers":3432,"Ġindepend":3433,"rastru":3434,"Ġscare":3435,"Ġmeat":3436,"push":3437,"Ġfather":3438,"ared":3439,"play":3440,"Ġannounce":3441,"Ġmu":3442,"life":3443,"Ġmat":3444,"Ġplays":3445,"Ġresigns":3446,"Ġbushfires":3447,"Ġcommissioner":3448,"Ġwait":3449,"Ġcriticises":3450,"ko":3451,"Ġextra":3452,"Ġeurope":3453,"rastructure":3454,"dic":3455,"certain":3456,"black":3457,"Ġsummit":3458,"rier":3459,"Ġmilk":3460,"Ġliberals":3461,"Ġprize":3462,"oration":3463,"isation":3464,"osters":3465,"opper":3466,"bomb":3467,"Ġcoalition":3468,"tasmania":3469,"Ġign":3470,"Ġcas":3471,"Ġcompensation":3472,"Ġscandal":3473,"Ġproposed":3474,"Ġcloser":3475,"Ġtor":3476,"Ġdan":3477,"emale":3478,"firefighters":3479,"john":3480,"count":3481,"ified":3482,"Ġmaking":3483,"Ġspre":3484,"Ġplea":3485,"Ġrussia":3486,"Ġkong":3487,"Ġserious":3488,"Ġfighting":3489,"arat":3490,"Ġmain":3491,"ewitt":3492,"Ġjones":3493,"reme":3494,"Ġstates":3495,"Ġfarewell":3496,"Ġeye":3497,"Ġfruit":3498,"bd":3499,"Ġfine":3500,"ovic":3501,"Ġmembers":3502,"Ġurge":3503,"bara":3504,"Ġfif":3505,"enders":3506,"Ġlooms":3507,"tur":3508,"han":3509,"Ġstat":3510,"Ġunf":3511,"Ġknow":3512,"Ġcalled":3513,"ertain":3514,"truck":3515,"cow":3516,"aming":3517,"Ġcommunities":3518,"ka":3519,"Ġbun":3520,"Ġaround":3521,"Ġtraffic":3522,"using":3523,"Ġruling":3524,"lying":3525,"Ġanalysis":3526,"comp":3527,"Ġdetails":3528,"Ġproposal":3529,"hib":3530,"Ġcannabis":3531,"Ġremote":3532,"budget":3533,"ried":3534,"newcastle":3535,"ev":3536,"Ġarm":3537,"cal":3538,"lim":3539,"Ġunit":3540,"Ġbombing":3541,"hospital":3542,"Ġpain":3543,"drug":3544,"oking":3545,"Ġbeen":3546,"Ġwheat":3547,"useum":3548,"murray":3549,"ederer":3550,"oura":3551,"Ġdonald":3552,"ading":3553,"ittle":3554,"regional":3555,"hunter":3556,"cest":3557,"Ġarmed":3558,"thew":3559,"inson":3560,"iversary":3561,"Ġvolunte":3562,"Ġbrief":3563,"mot":3564,"Ġexpect":3565,"Ġdirector":3566,"Ġfactory":3567,"Ġveter":3568,"alleged":3569,"news":3570,"Ġmedic":3571,"rench":3572,"Ġrising":3573,"Ġhours":3574,"hundreds":3575,"Ġyork":3576,"Ġconcern":3577,"fast":3578,"look":3579,"Ġblood":3580,"councils":3581,"cyclone":3582,"mag":3583,"Ġirrig":3584,"Ġmorrison":3585,"Ġpetrol":3586,"Ġspecial":3587,"Ġlack":3588,"Ġfurther":3589,"Ġquestioned":3590,"cost":3591,"bles":3592,"ded":3593,"Ġstock":3594,"Ġflights":3595,"ova":3596,"ature":3597,"utin":3598,"Ġremember":3599,"Ġofficial":3600,"Ġpaul":3601,"Ġzone":3602,"scientists":3603,"Ġbecome":3604,"dou":3605,"Ġperson":3606,"Ġbase":3607,"Ġapologises":3608,"Ġolympics":3609,"Ġfiji":3610,"Ġjustice":3611,"rec":3612,"Ġmonitor":3613,"Ġwallabies":3614,"fiji":3615,"Ġbusinesses":3616,"olf":3617,"Ġstory":3618,"Ġsmug":3619,"Ġanniversary":3620,"Ġsoldier":3621,"Ġath":3622,"asters":3623,"Ġopening":3624,"Ġrefugee":3625,"mother":3626,"Ġmob":3627,"Ġcre":3628,"Ġweap":3629,"Ġapproach":3630,"blues":3631,"likely":3632,"Ġrunning":3633,"Ġsugar":3634,"Ġspl":3635,"Ġgener":3636,"bushfire":3637,"Ġowner":3638,"Ġcars":3639,"Ġrecall":3640,"Ġcbd":3641,"overs":3642,"Ġnom":3643,"Ġpipeline":3644,"Ġnor":3645,"Ġever":3646,"Ġimport":3647,"grow":3648,"cont":3649,"fun":3650,"Ġbrown":3651,"Ġdomin":3652,"onting":3653,"gg":3654,"nings":3655,"anch":3656,"ctions":3657,"Ġrefer":3658,"yle":3659,"Ġtodd":3660,"Ġjudge":3661,"mans":3662,"Ġcompo":3663,"gillard":3664,"Ġuranium":3665,"Ġvirus":3666,"Ġleast":3667,"artin":3668,"erald":3669,"Ġpositive":3670,"bn":3671,"tt":3672,"Ġuniversity":3673,"avour":3674,"Ġhad":3675,"second":3676,"Ġapproval":3677,"ospitals":3678,"Ġlives":3679,"Ġclosed":3680,"pack":3681,"Ġthousands":3682,"Ġstabbed":3683,"develop":3684,"Ġpassen":3685,"mine":3686,"icop":3687,"Ġmission":3688,"Ġtaking":3689,"Ġwaiting":3690,"Ġstorms":3691,"Ġgranted":3692,"pat":3693,"Ġchance":3694,"Ġunlikely":3695,"anti":3696,"ampton":3697,"migration":3698,"Ġindonesian":3699,"Ġenc":3700,"Ġdocum":3701,"sk":3702,"Ġwinning":3703,"forms":3704,"Ġhonours":3705,"Ġgri":3706,"Ġstocks":3707,"body":3708,"Ġdrops":3709,"Ġtreas":3710,"rich":3711,"Ġaim":3712,"Ġhay":3713,"Ġexchange":3714,"Ġbanks":3715,"Ġdeadly":3716,"exper":3717,"Ġlevels":3718,"Ġdismisses":3719,"avi":3720,"ween":3721,"pil":3722,"Ġlobby":3723,"Ġvaccine":3724,"akers":3725,"Ġagric":3726,"Ġeyes":3727,"Ġkidn":3728,"most":3729,"club":3730,"ula":3731,"Ġraise":3732,"mac":3733,"pri":3734,"pool":3735,"Ġplace":3736,"Ġhistoric":3737,"ua":3738,"Ġdece":3739,"quarie":3740,"ensive":3741,"10":3742,"Ġexplosion":3743,"Ġrule":3744,"Ġarrests":3745,"Ġbaghdad":3746,"eech":3747,"dead":3748,"Ġcredit":3749,"Ġscr":3750,"Ġpackage":3751,"camp":3752,"Ġken":3753,"Ġminers":3754,"prison":3755,"Ġjoy":3756,"susp":3757,"indonesian":3758,"Ġbi":3759,"Ġwood":3760,"Ġinfrastructure":3761,"Ġlicence":3762,"job":3763,"concerns":3764,"david":3765,"Ġsie":3766,"icking":3767,"Ġsmash":3768,"Ġblasts":3769,"Ġwinds":3770,"erg":3771,"isl":3772,"Ġreth":3773,"shine":3774,"aboriginal":3775,"wal":3776,"ighter":3777,"Ġraids":3778,"cons":3779,"Ġrout":3780,"haul":3781,"Ġsteps":3782,"letes":3783,"amer":3784,"Ġiron":3785,"Ġkangar":3786,"Ġdist":3787,"murder":3788,"Ġcommittee":3789,"wind":3790,"Ġjump":3791,"Ġhero":3792,"Ġbetween":3793,"fe":3794,"Ġfreed":3795,"Ġandrew":3796,"Ġtrou":3797,"Ġofficials":3798,"Ġarrives":3799,"olic":3800,"mil":3801,"mill":3802,"Ġdid":3803,"Ġpledge":3804,"Ġaw":3805,"Ġshop":3806,"Ġeng":3807,"Ġorders":3808,"Ġmum":3809,"mers":3810,"mond":3811,"ters":3812,"Ġpurs":3813,"omers":3814,"Ġmarine":3815,"Ġmach":3816,"Ġkimberley":3817,"Ġdebut":3818,"Ġanimal":3819,"oice":3820,"Ġblog":3821,"fs":3822,"bill":3823,"Ġfield":3824,"Ġfollowing":3825,"Ġflags":3826,"Ġexecut":3827,"Ġoffences":3828,"Ġbol":3829,"Ġretirement":3830,"Ġcrush":3831,"Ġprivate":3832,"Ġlevy":3833,"Ġwrong":3834,"Ġlib":3835,"cks":3836,"Ġinternet":3837,"Ġpopulation":3838,"Ġbikie":3839,"unday":3840,"french":3841,"jack":3842,"lock":3843,"Ġjohnson":3844,"lers":3845,"Ġband":3846,"Ġnine":3847,"mission":3848,"Ġtribute":3849,"Ġsports":3850,"Ġalive":3851,"forest":3852,"bat":3853,"uce":3854,"oured":3855,"Ġnative":3856,"sex":3857,"Ġfeel":3858,"Ġdry":3859,"Ġoverhaul":3860,"Ġmanager":3861,"itter":3862,"Ġbenefits":3863,"Ġblame":3864,"Ġobama":3865,"Ġunveils":3866,"roll":3867,"Ġoutside":3868,"nett":3869,"six":3870,"wool":3871,"Ġhelping":3872,"Ġsummary":3873,"ari":3874,"Ġwet":3875,"Ġaffect":3876,"Ġdestroy":3877,"road":3878,"Ġton":3879,"Ġgather":3880,"Ġasia":3881,"zens":3882,"Ġcs":3883,"Ġfights":3884,"Ġreplace":3885,"Ġrussian":3886,"Ġnations":3887,"Ġappeals":3888,"fin":3889,"Ġcrews":3890,"iser":3891,"elsea":3892,"olution":3893,"bank":3894,"ted":3895,"oud":3896,"onga":3897,"Ġcaps":3898,"Ġsnub":3899,"Ġannounced":3900,"formation":3901,"ador":3902,"cla":3903,"Ġore":3904,"Ġeagles":3905,"Ġboys":3906,"Ġbasin":3907,"Ġlions":3908,"Ġgrowing":3909,"Ġproduc":3910,"fund":3911,"ny":3912,"Ġjan":3913,"Ġpoor":3914,"Ġreleases":3915,"hab":3916,"bany":3917,"Ġrefused":3918,"Ġtelstra":3919,"rel":3920,"Ġcrops":3921,"Ġdeter":3922,"aysia":3923,"Ġpromise":3924,"Ġsail":3925,"Ġbendigo":3926,"thai":3927,"Ġthom":3928,"peter":3929,"share":3930,"Ġbombers":3931,"Ġtownsville":3932,"euro":3933,"itain":3934,"Ġgippsland":3935,"Ġspeech":3936,"Ġretail":3937,"Ġgeorge":3938,"Ġextended":3939,"Ġcold":3940,"Ġgains":3941,"aps":3942,"Ġcriticised":3943,"Ġbound":3944,"stery":3945,"Ġlaunched":3946,"Ġhoward":3947,"Ġage":3948,"Ġconstruction":3949,"ahs":3950,"rees":3951,"Ġseeker":3952,"Ġedge":3953,"estinian":3954,"Ġchem":3955,"Ġassoc":3956,"colm":3957,"Ġmad":3958,"Ġmuseum":3959,"istic":3960,"Ġtom":3961,"Ġring":3962,"Ġfresh":3963,"Ġallegedly":3964,"Ġcivil":3965,"father":3966,"anies":3967,"aedoph":3968,"Ġty":3969,"atto":3970,"Ġonly":3971,"employment":3972,"ifies":3973,"Ġarch":3974,"Ġwhale":3975,"Ġcomple":3976,"Ġcoff":3977,"Ġenough":3978,"Ġdate":3979,"Ġ21":3980,"Ġinvol":3981,"Ġdecember":3982,"Ġreaches":3983,"ipl":3984,"Ġinsurance":3985,"Ġgirls":3986,"ohler":3987,"Ġauction":3988,"Ġnumber":3989,"ipper":3990,"Ġapproves":3991,"Ġvotes":3992,"star":3993,"umbies":3994,"Ġkorean":3995,"girl":3996,"oil":3997,"western":3998,"coalition":3999,"ena":4000,"Ġmt":4001,"Ġsharks":4002,"Ġram":4003,"odies":4004,"Ġteens":4005,"Ġtourists":4006,"Ġsiege":4007,"long":4008,"Ġambul":4009,"rid":4010,"tax":4011,"ala":4012,"Ġstore":4013,"hampton":4014,"Ġmeets":4015,"Ġconsult":4016,"ieves":4017,"Ġdefeat":4018,"authorities":4019,"Ġaut":4020,"Ġcorp":4021,"sri":4022,"Ġmillions":4023,"icopter":4024,"cing":4025,"Ġsame":4026,"Ġbike":4027,"etnam":4028,"bruary":4029,"Ġamong":4030,"Ġattempted":4031,"Ġcitiz":4032,"Ġcouple":4033,"nor":4034,"telstra":4035,"ape":4036,"russia":4037,"asion":4038,"Ġfarming":4039,"Ġplead":4040,"aces":4041,"Ġuncertain":4042,"Ġexhib":4043,"Ġcontrovers":4044,"Ġfisher":4045,"Ġpasses":4046,"dicts":4047,"rens":4048,"uke":4049,"Ġgm":4050,"Ġsuspicious":4051,"Ġevent":4052,"Ġweeks":4053,"lor":4054,"Ġfle":4055,"Ġhack":4056,"Ġupdate":4057,"Ġtechnology":4058,"Ġquit":4059,"Ġattend":4060,"Ġfuneral":4061,"Ġquarant":4062,"Ġdeliver":4063,"cover":4064,"Ġcommon":4065,"Ġescapes":4066,"Ġvisits":4067,"elong":4068,"bow":4069,"ove":4070,"spe":4071,"Ġjet":4072,"Ġstrategy":4073,"ona":4074,"Ġstun":4075,"Ġexc":4076,"Ġfebruary":4077,"Ġholiday":4078,"Ġemissions":4079,"Ġrefuses":4080,"amo":4081,"Ġdesc":4082,"Ġsummer":4083,"Ġnetwork":4084,"Ġfriend":4085,"Ġunh":4086,"Ġpilot":4087,"ancy":4088,"Ġcy":4089,"Ġpatient":4090,"atic":4091,"Ġpoints":4092,"turnbull":4093,"Ġnick":4094,"uries":4095,"Ġwinner":4096,"Ġscam":4097,"Ġassess":4098,"Ġfootage":4099,"nationals":4100,"Ġhands":4101,"Ġasbestos":4102,"aj":4103,"Ġbott":4104,"Ġbreakfast":4105,"laughter":4106,"motor":4107,"Ġarson":4108,"Ġextrad":4109,"Ġregion":4110,"dairy":4111,"udi":4112,"athan":4113,"Ġusing":4114,"Ġrecr":4115,"Ġslam":4116,"Ġbiggest":4117,"doctors":4118,"Ġadvice":4119,"rangers":4120,"Ġanger":4121,"urse":4122,"utch":4123,"eway":4124,"Ġkar":4125,"Ġprogress":4126,"Ġreopen":4127,"Ġpowers":4128,"pping":4129,"Ġour":4130,"Ġdream":4131,"ailand":4132,"live":4133,"Ġnames":4134,"meet":4135,"Ġmel":4136,"indian":4137,"Ġelectric":4138,"Ġrefugees":4139,"Ġsand":4140,"cean":4141,"Ġcollege":4142,"Ġaccuses":4143,"Ġworried":4144,"Ġangry":4145,"Ġhospitals":4146,"Ġcrowd":4147,"record":4148,"Ġelections":4149,"gi":4150,"australias":4151,"Ġoffered":4152,"ouch":4153,"inger":4154,"thing":4155,"Ġ22":4156,"Ġdowns":4157,"Ġmackay":4158,"Ġcomeback":4159,"defence":4160,"Ġriot":4161,"cial":4162,"hum":4163,"anged":4164,"iance":4165,"Ġrethink":4166,"michael":4167,"Ġcomes":4168,"Ġcharity":4169,"coroner":4170,"accused":4171,"Ġpraises":4172,"Ġnation":4173,"Ġshake":4174,"Ġque":4175,"Ġisa":4176,"Ġcapital":4177,"Ġlegisl":4178,"verpool":4179,"Ġwhen":4180,"nel":4181,"Ġexam":4182,"atholic":4183,"ibility":4184,"Ġthrow":4185,"Ġwarriors":4186,"itional":4187,"bling":4188,"Ġambulance":4189,"ymp":4190,"Ġlang":4191,"Ġwinter":4192,"Ġhopeful":4193,"uat":4194,"Ġgard":4195,"Ġcham":4196,"Ġfemale":4197,"Ġdropped":4198,"Ġradio":4199,"ress":4200,"Ġnationals":4201,"Ġtrail":4202,"capital":4203,"ided":4204,"aders":4205,"Ġprime":4206,"elson":4207,"Ġemploy":4208,"Ġpalmer":4209,"Ġasian":4210,"corp":4211,"Ġknife":4212,"leg":4213,"earing":4214,"Ġaband":4215,"Ġspeak":4216,"Ġcelebrate":4217,"wallabies":4218,"ored":4219,"ground":4220,"australians":4221,"asa":4222,"Ġmeas":4223,"german":4224,"Ġcareer":4225,"hist":4226,"Ġsor":4227,"oned":4228,"arct":4229,"investig":4230,"Ġmand":4231,"Ġseven":4232,"Ġbell":4233,"Ġburns":4234,"bir":4235,"Ġsmoking":4236,"Ġprojects":4237,"foot":4238,"hous":4239,"Ġpair":4240,"country":4241,"Ġride":4242,"Ġdelivers":4243,"Ġvir":4244,"Ġcontain":4245,"ennis":4246,"rob":4247,"Ġpole":4248,"Ġfed":4249,"Ġshopping":4250,"oping":4251,"ambod":4252,"holders":4253,"Ġpick":4254,"sters":4255,"estock":4256,"death":4257,"Ġattacked":4258,"Ġfees":4259,"Ġbirthday":4260,"Ġbom":4261,"Ġlimit":4262,"liberals":4263,"np":4264,"Ġresources":4265,"Ġspring":4266,"oli":4267,"Ġworst":4268,"Ġguard":4269,"Ġtaxi":4270,"Ġchallenges":4271,"goor":4272,"Ġcourse":4273,"nurs":4274,"Ġrub":4275,"illing":4276,"Ġlove":4277,"Ġpig":4278,"Ġgp":4279,"Ġqantas":4280,"oor":4281,"ester":4282,"pres":4283,"atherine":4284,"kar":4285,"Ġprem":4286,"Ġgoing":4287,"Ġoperation":4288,"central":4289,"Ġauthorities":4290,"Ġworks":4291,"ella":4292,"Ġdangerous":4293,"iter":4294,"Ġgro":4295,"Ġblacks":4296,"Ġstruggling":4297,"Ġcooper":4298,"Ġwhile":4299,"Ġfirefighters":4300,"Ġliving":4301,"Ġforward":4302,"ode":4303,"Ġgam":4304,"Ġ40":4305,"Ġsubur":4306,"Ġcompetition":4307,"Ġmessage":4308,"Ġdub":4309,"stri":4310,"ships":4311,"Ġraised":4312,"ovts":4313,"Ġauthority":4314,"Ġfavour":4315,"Ġjud":4316,"Ġheavy":4317,"Ġordered":4318,"Ġscra":4319,"Ġdecide":4320,"iet":4321,"Ġmom":4322,"parents":4323,"Ġavoids":4324,"tal":4325,"Ġmasters":4326,"Ġgovern":4327,"Ġislamic":4328,"Ġattract":4329,"itchell":4330,"rim":4331,"Ġcandidates":4332,"Ġweapons":4333,"50":4334,"Ġpays":4335,"ilities":4336,"beattie":4337,"Ġrush":4338,"Ġ23":4339,"dan":4340,"pacific":4341,"wan":4342,"zz":4343,"Ġferry":4344,"aberg":4345,"Ġworlds":4346,"enda":4347,"pson":4348,"0000":4349,"group":4350,"Ġunveil":4351,"Ġnurses":4352,"Ġeight":4353,"Ġtask":4354,"Ġbulldogs":4355,"Ġstruggle":4356,"alice":4357,"Ġbat":4358,"Ġ26":4359,"undaberg":4360,"ministr":4361,"Ġsurvivors":4362,"Ġdept":4363,"Ġbarrier":4364,"Ġeaster":4365,"sal":4366,"algoor":4367,"Ġaussies":4368,"Ġhang":4369,"Ġbenefit":4370,"Ġparis":4371,"Ġburning":4372,"Ġrevealed":4373,"Ġministers":4374,"Ġlifts":4375,"northern":4376,"native":4377,"Ġcull":4378,"ulf":4379,"Ġmacquarie":4380,"Ġcant":4381,"anda":4382,"attoir":4383,"Ġbon":4384,"Ġinformation":4385,"idel":4386,"Ġinvasion":4387,"gus":4388,"vol":4389,"Ġcairns":4390,"Ġcompanies":4391,"ength":4392,"ildura":4393,"Ġphilippines":4394,"Ġfourth":4395,"algoorlie":4396,"cats":4397,"hel":4398,"ux":4399,"royal":4400,"Ġcontam":4401,"Ġcontest":4402,"Ġdraft":4403,"Ġviolent":4404,"Ġsemi":4405,"fre":4406,"Ġsup":4407,"Ġflee":4408,"Ġreforms":4409,"Ġscientists":4410,"Ġrio":4411,"Ġreduce":4412,"baby":4413,"Ġself":4414,"Ġlittle":4415,"Ġsecure":4416,"Ġenvironmental":4417,"apore":4418,"Ġtrig":4419,"Ġconserv":4420,"Ġoptions":4421,"Ġcat":4422,"Ġpract":4423,"Ġmcg":4424,"Ġupset":4425,"19":4426,"cott":4427,"Ġdisability":4428,"Ġpredicts":4429,"mid":4430,"Ġtaken":4431,"Ġchopper":4432,"Ġfines":4433,"bendigo":4434,"ockers":4435,"Ġelector":4436,"broken":4437,"Ġchairman":4438,"uatu":4439,"Ġsince":4440,"uncest":4441,"Ġbypass":4442,"Ġfacility":4443,"Ġdestro":4444,"Ġpenalty":4445,"low":4446,"inas":4447,"tony":4448,"Ġprov":4449,"Ġblames":4450,"afghan":4451,"Ġsteph":4452,"funding":4453,"usion":4454,"Ġsubs":4455,"inqu":4456,"Ġdont":4457,"Ġoutlook":4458,"Ġadop":4459,"Ġrecycl":4460,"Ġentertain":4461,"emer":4462,"hen":4463,"ortion":4464,"Ġrespons":4465,"tourism":4466,"bed":4467,"Ġhus":4468,"agers":4469,"Ġscience":4470,"far":4471,"mus":4472,"Ġblitz":4473,"Ġbuil":4474,"Ġreflect":4475,"east":4476,"rough":4477,"Ġsoon":4478,"Ġhapp":4479,"ulp":4480,"Ġexperts":4481,"Ġfalling":4482,"Ġcruise":4483,"acts":4484,"Ġdenied":4485,"Ġsurvives":4486,"Ġverdict":4487,"Ġpunch":4488,"Ġwim":4489,"rail":4490,"raine":4491,"aging":4492,"Ġ27":4493,"omba":4494,"Ġafrican":4495,"Ġwitnesses":4496,"uru":4497,"idy":4498,"Ġmedal":4499,"Ġprompt":4500,"tim":4501,"ection":4502,"Ġcane":4503,"Ġmanslaughter":4504,"politic":4505,"vive":4506,"lib":4507,"atory":4508,"Ġwide":4509,"adal":4510,"airs":4511,"Ġdefend":4512,"Ġintro":4513,"Ġcondemns":4514,"Ġhonoured":4515,"pies":4516,"erem":4517,"beat":4518,"Ġpotential":4519,"umer":4520,"socceroos":4521,"aviour":4522,"unceston":4523,"Ġtony":4524,"Ġmult":4525,"asylum":4526,"uni":4527,"osur":4528,"heat":4529,"Ġdaughter":4530,"Ġkidnapp":4531,"bi":4532,"cattle":4533,"united":4534,"Ġproducers":4535,"urst":4536,"Ġapology":4537,"Ġtin":4538,"Ġgap":4539,"uds":4540,"Ġrare":4541,"iller":4542,"Ġerup":4543,"ales":4544,"Ġgetting":4545,"Ġdrinking":4546,"secut":4547,"iffer":4548,"rett":4549,"aedophile":4550,"Ġquarantine":4551,"fri":4552,"church":4553,"Ġchris":4554,"outback":4555,"agga":4556,"Ġsuffer":4557,"Ġunt":4558,"oe":4559,"Ġalan":4560,"Ġslump":4561,"students":4562,"osh":4563,"ijing":4564,"home":4565,"Ġdoping":4566,"Ġmist":4567,"Ġhub":4568,"Ġconsidered":4569,"fatal":4570,"aper":4571,"russian":4572,"eel":4573,"climate":4574,"Ġview":4575,"Ġparks":4576,"Ġpulls":4577,"Ġprobes":4578,"Ġskills":4579,"Ġcrossing":4580,"Ġnursing":4581,"Ġocean":4582,"Ġreven":4583,"athon":4584,"Ġprevent":4585,"Ġzimbabwe":4586,"Ġvisa":4587,"ufact":4588,"inquest":4589,"ashing":4590,"Ġappear":4591,"Ġdraws":4592,"Ġevacuated":4593,"Ġjanuary":4594,"Ġmatt":4595,"Ġcomment":4596,"atham":4597,"umph":4598,"Ġdepartment":4599,"Ġhaul":4600,"ounts":4601,"Ġasks":4602,"israeli":4603,"ocrats":4604,"Ġmobile":4605,"odd":4606,"atson":4607,"vert":4608,"Ġseen":4609,"Ġprofits":4610,"atta":4611,"Ġsend":4612,"another":4613,"urra":4614,"Ġstance":4615,"Ġ2020":4616,"Ġconfirmed":4617,"Ġexhibition":4618,"Ġplot":4619,"Ġcode":4620,"Ġresume":4621,"not":4622,"ined":4623,"Ġos":4624,"Ġreds":4625,"ounded":4626,"Ġdeadline":4627,"resc":4628,"women":4629,"Ġbehaviour":4630,"protesters":4631,"Ġ28":4632,"Ġknights":4633,"Ġspotlight":4634,"hewitt":4635,"night":4636,"towns":4637,"omons":4638,"cyclist":4639,"liberal":4640,"rent":4641,"Ġegypt":4642,"oop":4643,"ished":4644,"Ġarea":4645,"Ġposts":4646,"eraldton":4647,"iplom":4648,"Ġsight":4649,"Ġsends":4650,"Ġculture":4651,"Ġtowards":4652,"Ġje":4653,"Ġmarks":4654,"Ġsaving":4655,"Ġconviction":4656,"fields":4657,"Ġsever":4658,"Ġmixed":4659,"Ġhamp":4660,"Ġscore":4661,"Ġretires":4662,"Ġjapanese":4663,"supp":4664,"Ġswan":4665,"thur":4666,"list":4667,"Ġads":4668,"enty":4669,"Ġencoura":4670,"Ġbroncos":4671,"Ġacqu":4672,"Ġreceive":4673,"snow":4674,"Ġscrutin":4675,"lan":4676,"youth":4677,"aries":4678,"Ġbangladesh":4679,"Ġec":4680,"Ġramp":4681,"Ġreduc":4682,"Ġqaed":4683,"Ġflying":4684,"Ġarrive":4685,"oulburn":4686,"Ġseize":4687,"ensions":4688,"rupt":4689,"serv":4690,"walk":4691,"ened":4692,"Ġincl":4693,"duction":4694,"Ġcitizens":4695,"bts":4696,"rick":4697,"Ġdeep":4698,"Ġopener":4699,"Ġpilbara":4700,"Ġchemical":4701,"Ġprim":4702,"awarra":4703,"ashed":4704,"Ġreported":4705,"Ġsupports":4706,"Ġshel":4707,"iraqi":4708,"Ġfeed":4709,"Ġzoo":4710,"gue":4711,"Ġgiant":4712,"amworth":4713,"Ġresult":4714,"Ġestate":4715,"housing":4716,"Ġmartin":4717,"accc":4718,"che":4719,"Ġextends":4720,"Ġdeputy":4721,"rus":4722,"Ġsocceroos":4723,"Ġbulls":4724,"yard":4725,"oti":4726,"abled":4727,"emma":4728,"Ġcool":4729,"Ġlockdown":4730,"Ġoverseas":4731,"Ġhen":4732,"fra":4733,"Ġdemol":4734,"Ġguns":4735,"Ġpresidential":4736,"emergency":4737,"Ġeth":4738,"Ġha":4739,"Ġbrazil":4740,"judge":4741,"time":4742,"Ġide":4743,"Ġpreview":4744,"Ġregul":4745,"ucky":4746,"smith":4747,"Ġsacked":4748,"hobart":4749,"uation":4750,"Ġrehab":4751,"ctv":4752,"Ġalter":4753,"Ġminer":4754,"Ġruled":4755,"Ġmiddle":4756,"Ġqaeda":4757,"11":4758,"Ġspir":4759,"Ġstranded":4760,"Ġthreatened":4761,"Ġiv":4762,"Ġnat":4763,"orses":4764,"Ġpand":4765,"Ġfailed":4766,"iam":4767,"met":4768,"reck":4769,"Ġmort":4770,"Ġentertainment":4771,"Ġseized":4772,"inquiry":4773,"hom":4774,"oons":4775,"Ġkick":4776,"Ġpaid":4777,"Ġdu":4778,"Ġlod":4779,"Ġglory":4780,"wed":4781,"Ġtem":4782,"Ġba":4783,"aylor":4784,"Ġclar":4785,"udan":4786,"trans":4787,"adium":4788,"Ġagenda":4789,"Ġadministr":4790,"Ġunhappy":4791,"Ġtank":4792,"rell":4793,"Ġlinks":4794,"board":4795,"Ġbrother":4796,"Ġlosing":4797,"Ġcondition":4798,"ially":4799,"roos":4800,"Ġstories":4801,"dom":4802,"pan":4803,"ennett":4804,"pts":4805,"Ġmour":4806,"Ġreceives":4807,"za":4808,"ero":4809,"Ġgillard":4810,"eef":4811,"ource":4812,"anson":4813,"lake":4814,"Ġfake":4815,"edest":4816,"Ġinjuries":4817,"Ġdamages":4818,"Ġjoyce":4819,"Ġlegislation":4820,"lies":4821,"Ġside":4822,"ades":4823,"Ġtimber":4824,"Ġsky":4825,"Ġearthquake":4826,"iding":4827,"Ġven":4828,"security":4829,"build":4830,"hot":4831,"owo":4832,"mance":4833,"eek":4834,"Ġhelicopter":4835,"Ġpatrol":4836,"Ġassociation":4837,"Ġdeport":4838,"Ġpoison":4839,"spca":4840,"Ġextension":4841,"japanese":4842,"nest":4843,"Ġcook":4844,"oral":4845,"Ġprisoner":4846,"Ġsenator":4847,"Ġmck":4848,"icit":4849,"unk":4850,"through":4851,"Ġplus":4852,"Ġfindings":4853,"Ġagriculture":4854,"ollong":4855,"Ġcentury":4856,"orid":4857,"Ġscre":4858,"icken":4859,"Ġcrew":4860,"Ġgolf":4861,"Ġgrants":4862,"Ġaffected":4863,"Ġdevast":4864,"hic":4865,"wave":4866,"itation":4867,"shar":4868,"avan":4869,"Ġtraff":4870,"Ġsuspects":4871,"Ġpok":4872,"watch":4873,"iners":4874,"adian":4875,"Ġshield":4876,"iforn":4877,"Ġyach":4878,"Ġchampions":4879,"ollongong":4880,"ox":4881,"blaze":4882,"Ġclubs":4883,"ha":4884,"Ġsink":4885,"Ġcouncillor":4886,"inge":4887,"Ġtrust":4888,"Ġinvestigates":4889,"Ġvoters":4890,"Ġmystery":4891,"link":4892,"real":4893,"unal":4894,"Ġlee":4895,"Ġfreight":4896,"Ġsells":4897,"Ġhike":4898,"Ġuns":4899,"Ġ2018":4900,"Ġdesign":4901,"Ġlanding":4902,"Ġmorning":4903,"Ġdavis":4904,"Ġawarded":4905,"bbit":4906,"Ġawaits":4907,"Ġtrying":4908,"owoomba":4909,"Ġtort":4910,"mantle":4911,"Ġairs":4912,"weather":4913,"Ġopport":4914,"aro":4915,"Ġky":4916,"Ġhanded":4917,"Ġcats":4918,"Ġwere":4919,"Ġassistance":4920,"amation":4921,"Ġcha":4922,"mann":4923,"grain":4924,"Ġconfirm":4925,"zy":4926,"utton":4927,"ipping":4928,"Ġareas":4929,"teachers":4930,"ewer":4931,"Ġprovid":4932,"Ġanswers":4933,"era":4934,"Ġmary":4935,"endum":4936,"ben":4937,"mount":4938,"sing":4939,"aiwan":4940,"funds":4941,"da":4942,"ways":4943,"Ġbishop":4944,"Ġtops":4945,"Ġthai":4946,"Ġtrials":4947,"Ġpolls":4948,"Ġpaper":4949,"Ġvolunteers":4950,"det":4951,"tom":4952,"Ġagrees":4953,"banon":4954,"Ġjournalist":4955,"Ġconne":4956,"Ġcentres":4957,"Ġimmigration":4958,"jok":4959,"tre":4960,"xit":4961,"Ġlad":4962,"ouncillors":4963,"Ġindependent":4964,"park":4965,"paul":4966,"asy":4967,"Ġarts":4968,"Ġfired":4969,"Ġdamaged":4970,"ani":4971,"Ġstall":4972,"Ġoffender":4973,"Ġsettle":4974,"injured":4975,"town":4976,"Ġaired":4977,"Ġther":4978,"Ġembass":4979,"Ġtrees":4980,"alyst":4981,"Ġsunshine":4982,"oring":4983,"leep":4984,"teens":4985,"Ġupdates":4986,"Ġdestroys":4987,"hop":4988,"tro":4989,"Ġbodies":4990,"Ġdark":4991,"Ġnurse":4992,"Ġswans":4993,"Ġaccept":4994,"Ġtougher":4995,"part":4996,"berts":4997,"Ġabattoir":4998,"Ġthreats":4999,"glish":5000,"Ġforestry":5001,"ours":5002,"Ġbullying":5003,"joy":5004,"pac":5005,"alla":5006,"Ġtrad":5007,"Ġcommit":5008,"Ġexploration":5009,"thony":5010,"Ġfacebook":5011,"Ġfraser":5012,"Ġcsg":5013,"bie":5014,"occ":5015,"Ġhail":5016,"imul":5017,"Ġtoddler":5018,"unions":5019,"Ġmarsh":5020,"Ġaxe":5021,"Ġbriefing":5022,"Ġcommonwealth":5023,"Ġmissile":5024,"Ġtermin":5025,"Ġpriest":5026,"Ġcrimes":5027,"james":5028,"Ġhockey":5029,"illa":5030,"Ġworth":5031,"Ġ2017":5032,"aven":5033,"Ġparties":5034,"Ġclarke":5035,"Ġfrustr":5036,"Ġamerica":5037,"dri":5038,"Ġtwe":5039,"elderly":5040,"Ġrank":5041,"Ġintervention":5042,"Ġcrown":5043,"Ġconvicted":5044,"Ġdestroyed":5045,"bhp":5046,"cat":5047,"spr":5048,"Ġlin":5049,"Ġko":5050,"Ġappoint":5051,"Ġconfl":5052,"Ġgraz":5053,"Ġsteve":5054,"okes":5055,"Ġprior":5056,"Ġdiplom":5057,"Ġshed":5058,"Ġgolden":5059,"aud":5060,"Ġlaid":5061,"Ġsplit":5062,"Ġbomber":5063,"Ġconflict":5064,"bali":5065,"Ġdaw":5066,"Ġplun":5067,"Ġflat":5068,"Ġliqu":5069,"Ġadvoc":5070,"vens":5071,"inda":5072,"doctor":5073,"wil":5074,"Ġemp":5075,"ective":5076,"Ġpredicted":5077,"Ġvision":5078,"ense":5079,"emor":5080,"ireland":5081,"Ġroom":5082,"Ġtrapped":5083,"Ġwarr":5084,"Ġcrows":5085,"Ġresumes":5086,"amilton":5087,"ification":5088,"Ġmember":5089,"Ġuntil":5090,"fif":5091,"illed":5092,"Ġinvestors":5093,"Ġinvestigated":5094,"bsite":5095,"Ġsuffers":5096,"Ġstadium":5097,"ustain":5098,"Ġhawks":5099,"Ġdaniel":5100,"Ġwid":5101,"Ġtoday":5102,"Ġly":5103,"Ġeases":5104,"astic":5105,"Ġreserve":5106,"Ġsaid":5107,"Ġissued":5108,"Ġgallery":5109,"offic":5110,"oints":5111,"vis":5112,"adstone":5113,"Ġbecomes":5114,"Ġflow":5115,"Ġclinic":5116,"Ġsanctions":5117,"Ġcreate":5118,"atives":5119,"Ġwage":5120,"Ġeu":5121,"ickets":5122,"Ġbreast":5123,"Ġartist":5124,"Ġsecures":5125,"Ġmuch":5126,"cus":5127,"Ġfat":5128,"Ġegg":5129,"Ġjets":5130,"Ġcoroner":5131,"Ġswe":5132,"Ġbreaking":5133,"teenager":5134,"guson":5135,"miner":5136,"Ġparking":5137,"Ġsyn":5138,"oster":5139,"white":5140,"Ġexplain":5141,"Ġcomplaints":5142,"trad":5143,"Ġrequest":5144,"Ġappointed":5145,"Ġprisoners":5146,"Ġwanted":5147,"fair":5148,"mackay":5149,"erc":5150,"oush":5151,"Ġworkplace":5152,"Ġappears":5153,"jail":5154,"Ġsick":5155,"Ġmang":5156,"Ġhy":5157,"Ġelderly":5158,"Ġnegoti":5159,"Ġisraeli":5160,"Ġletter":5161,"Ġresignation":5162,"Ġreaction":5163,"Ġlights":5164,"Ġrepl":5165,"Ġker":5166,"Ġexpos":5167,"phy":5168,"Ġlabour":5169,"Ġdeclared":5170,"Ġsuggest":5171,"chi":5172,"perance":5173,"packer":5174,"support":5175,"gen":5176,"hor":5177,"kin":5178,"Ġscores":5179,"Ġdied":5180,"Ġafford":5181,"prince":5182,"crews":5183,"Ġsuspension":5184,"Ġsue":5185,"Ġcart":5186,"Ġmaint":5187,"Ġinst":5188,"Ġother":5189,"inated":5190,"Ġwake":5191,"Ġspy":5192,"Ġregions":5193,"boat":5194,"Ġruns":5195,"Ġevacuation":5196,"econom":5197,"food":5198,"good":5199,"pope":5200,"Ġperfor":5201,"Ġcollision":5202,"Ġshr":5203,"armed":5204,"Ġpartner":5205,"Ġbroome":5206,"cricket":5207,"Ġcancelled":5208,"growers":5209,"train":5210,"anas":5211,"Ġhalt":5212,"arctic":5213,"Ġhails":5214,"Ġwhaling":5215,"rare":5216,"inn":5217,"bligh":5218,"Ġlawyers":5219,"Ġgrass":5220,"global":5221,"ientist":5222,"bulls":5223,"councillor":5224,"enter":5225,"Ġalmost":5226,"Ġrocks":5227,"Ġvehic":5228,"Ġlivestock":5229,"researchers":5230,"Ġfu":5231,"Ġpga":5232,"Ġconduct":5233,"lett":5234,"Ġspecies":5235,"Ġlogging":5236,"del":5237,"face":5238,"Ġnavy":5239,"Ġfailure":5240,"Ġtiger":5241,"Ġkim":5242,"Ġclearing":5243,"Ġdonations":5244,"Ġfox":5245,"Ġembassy":5246,"egypt":5247,"woods":5248,"Ġny":5249,"Ġcruel":5250,"Ġchildrens":5251,"Ġderby":5252,"jokovic":5253,"ori":5254,"Ġadj":5255,"Ġphill":5256,"Ġphotos":5257,"Ġlocals":5258,"federer":5259,"ple":5260,"Ġpulp":5261,"Ġmater":5262,"Ġnar":5263,"Ġroosters":5264,"Ġrage":5265,"clarke":5266,"Ġwomans":5267,"Ġambass":5268,"ports":5269,"Ġsites":5270,"Ġpict":5271,"Ġnbn":5272,"ched":5273,"Ġnever":5274,"Ġdeny":5275,"Ġtargeted":5276,"Ġmilitants":5277,"itting":5278,"Ġsurprise":5279,"Ġsorry":5280,"townsville":5281,"17":5282,"ually":5283,"Ġtable":5284,"oning":5285,"Ġfit":5286,"earth":5287,"shark":5288,"endra":5289,"Ġwaters":5290,"ado":5291,"Ġcowboys":5292,"Ġpandemic":5293,"kangar":5294,"ighbour":5295,"Ġassaulted":5296,"downer":5297,"Ġlonger":5298,"senate":5299,"Ġpanel":5300,"uart":5301,"anks":5302,"comed":5303,"expl":5304,"Ġshorten":5305,"jul":5306,"va":5307,"Ġthink":5308,"ches":5309,"Ġsoccer":5310,"jury":5311,"Ġsession":5312,"otton":5313,"Ġapplic":5314,"Ġenter":5315,"Ġties":5316,"onts":5317,"environment":5318,"Ġpun":5319,"Ġwarnings":5320,"Ġrebu":5321,"Ġboycott":5322,"Ġinspect":5323,"bledon":5324,"Ġpursuit":5325,"ifornia":5326,"Ġip":5327,"Ġresort":5328,"Ġfarms":5329,"incip":5330,"Ġrecruit":5331,"bishop":5332,"oma":5333,"Ġmatthew":5334,"Ġten":5335,"Ġdust":5336,"Ġju":5337,"Ġquick":5338,"Ġdiscrim":5339,"Ġ500":5340,"Ġspread":5341,"costello":5342,"Ġexecutive":5343,"ket":5344,"Ġgreater":5345,"Ġrelation":5346,"arters":5347,"seven":5348,"Ġhoping":5349,"Ġincreases":5350,"Ġpsy":5351,"Ġwoods":5352,"Ġnod":5353,"Ġkings":5354,"Ġsues":5355,"Ġdoesnt":5356,"Ġcarn":5357,"Ġweigh":5358,"Ġstress":5359,"Ġtriple":5360,"Ġdocuments":5361,"isers":5362,"Ġled":5363,"warriors":5364,"Ġrestaur":5365,"Ġveterans":5366,"imulus":5367,"poll":5368,"olymp":5369,"endon":5370,"Ġ29":5371,"Ġreopens":5372,"Ġpremiers":5373,"Ġscrutiny":5374,"elect":5375,"hay":5376,"hill":5377,"anges":5378,"Ġdetained":5379,"Ġseeking":5380,"pes":5381,"Ġbath":5382,"Ġhong":5383,"ydro":5384,"Ġfronts":5385,"Ġfollow":5386,"Ġlamb":5387,"Ġmisses":5388,"Ġrisks":5389,"Ġtower":5390,"france":5391,"ky":5392,"elle":5393,"Ġswine":5394,"wy":5395,"Ġod":5396,"aced":5397,"Ġstrength":5398,"itted":5399,"who":5400,"Ġraiders":5401,"Ġdisappointed":5402,"stan":5403,"Ġrange":5404,"common":5405,"Ġ2012":5406,"Ġproduct":5407,"Ġmassive":5408,"survey":5409,"Ġcounter":5410,"Ġgovernor":5411,"iety":5412,"zimbabwe":5413,"Ġstations":5414,"umm":5415,"Ġaccount":5416,"Ġsemis":5417,"hunt":5418,"iban":5419,"Ġki":5420,"aysian":5421,"Ġabduction":5422,"coming":5423,"Ġchildcare":5424,"Ġremem":5425,"ricane":5426,"Ġoptim":5427,"Ġaudit":5428,"Ġvillage":5429,"mass":5430,"Ġspend":5431,"Ġoutlines":5432,"Ġextend":5433,"Ġbrain":5434,"Ġharm":5435,"Ġstoush":5436,"Ġprince":5437,"Ġsyrian":5438,"Ġchampionship":5439,"Ġtunnel":5440,"fur":5441,"hood":5442,"Ġunemployment":5443,"antan":5444,"Ġsupermarket":5445,"voy":5446,"room":5447,"irrig":5448,"Ġfee":5449,"elt":5450,"Ġunions":5451,"Ġflo":5452,"Ġphil":5453,"Ġassaults":5454,"inos":5455,"Ġlakes":5456,"Ġmarathon":5457,"azley":5458,"Ġsupreme":5459,"70":5460,"free":5461,"oen":5462,"ran":5463,"arant":5464,"Ġalex":5465,"Ġadam":5466,"Ġpoliceman":5467,"Ġvietnam":5468,"Ġballarat":5469,"Ġupper":5470,"Ġcontamination":5471,"uter":5472,"icro":5473,"Ġgst":5474,"Ġpopular":5475,"Ġcamera":5476,"development":5477,"omon":5478,"Ġsurvive":5479,"Ġturkey":5480,"Ġclashes":5481,"Ġdumped":5482,"Ġtreasurer":5483,"last":5484,"Ġcell":5485,"Ġitaly":5486,"Ġhills":5487,"Ġwatchdog":5488,"Ġnightclub":5489,"Ġchaos":5490,"saf":5491,"wick":5492,"Ġtennis":5493,"Ġfc":5494,"Ġcombat":5495,"Ġmanufact":5496,"Ġsmoke":5497,"Ġstreets":5498,"anish":5499,"utt":5500,"reece":5501,"southern":5502,"Ġpath":5503,"Ġmax":5504,"Ġnaur":5505,"Ġtrains":5506,"swan":5507,"Ġhospitalised":5508,"Ġsolution":5509,"inder":5510,"Ġsadd":5511,"atahs":5512,"mental":5513,"plus":5514,"Ġpromot":5515,"Ġengine":5516,"Ġapproved":5517,"Ġlearn":5518,"wine":5519,"Ġcir":5520,"Ġkelly":5521,"Ġprosp":5522,"Ġwheel":5523,"sim":5524,"Ġhunting":5525,"Ġswimming":5526,"Ġlangu":5527,"horse":5528,"Ġworry":5529,"Ġdeclares":5530,"Ġirrigation":5531,"dy":5532,"Ġtheat":5533,"Ġteenager":5534,"Ġhostage":5535,"senal":5536,"hong":5537,"Ġinn":5538,"Ġstops":5539,"Ġsepar":5540,"Ġconstit":5541,"Ġpayments":5542,"marine":5543,"Ġpest":5544,"Ġwave":5545,"Ġhighlight":5546,"Ġsentencing":5547,"Ġroute":5548,"bag":5549,"Ġwrit":5550,"Ġswitch":5551,"markets":5552,"ribes":5553,"Ġremoval":5554,"nurses":5555,"eu":5556,"zed":5557,"Ġdiffer":5558,"Ġtoxic":5559,"Ġroar":5560,"Ġjails":5561,"Ġfeature":5562,"yne":5563,"Ġresident":5564,"Ġplaying":5565,"Ġbraces":5566,"Ġpollution":5567,"Ġicac":5568,"Ġquality":5569,"Ġgermany":5570,"experts":5571,"fort":5572,"Ġrein":5573,"Ġclimb":5574,"Ġbreakthrough":5575,"ees":5576,"keep":5577,"Ġrepe":5578,"Ġvandal":5579,"Ġbeijing":5580,"phoon":5581,"Ġknock":5582,"kins":5583,"andals":5584,"inders":5585,"Ġheading":5586,"Ġexplains":5587,"small":5588,"uffle":5589,"pical":5590,"Ġsinks":5591,"Ġcoming":5592,"Ġcops":5593,"Ġbed":5594,"Ġalbany":5595,"odile":5596,"Ġwhere":5597,"Ġactivists":5598,"Ġsurvivor":5599,"Ġremoved":5600,"Ġrecycling":5601,"Ġambassador":5602,"Ġnauru":5603,"great":5604,"org":5605,"ellers":5606,"Ġpregn":5607,"Ġsilver":5608,"Ġeffort":5609,"bench":5610,"Ġmull":5611,"Ġagency":5612,"Ġwebsite":5613,"Ġinterviews":5614,"children":5615,"gentina":5616,"ponting":5617,"igence":5618,"Ġterrorist":5619,"Ġid":5620,"eness":5621,"oming":5622,"emen":5623,"Ġisol":5624,"Ġchanging":5625,"Ġanimals":5626,"lions":5627,"Ġgovts":5628,"Ġwales":5629,"Ġkangaroo":5630,"friend":5631,"edestrian":5632,"Ġperformance":5633,"12":5634,"aked":5635,"workers":5636,"Ġrockhampton":5637,"antanamo":5638,"Ġhim":5639,"Ġspike":5640,"Ġhosts":5641,"suicide":5642,"Ġdragons":5643,"Ġannouncement":5644,"Ġmix":5645,"Ġhuge":5646,"Ġstan":5647,"Ġwary":5648,"Ġexpand":5649,"Ġclosures":5650,"Ġdoor":5651,"Ġfever":5652,"Ġstreaming":5653,"Ġmeasures":5654,"hockey":5655,"Ġmitchell":5656,"Ġlam":5657,"urday":5658,"Ġunrest":5659,"ashion":5660,"Ġgoal":5661,"angered":5662,"Ġcrowds":5663,"Ġcerem":5664,"Ġeels":5665,"bridge":5666,"Ġguide":5667,"Ġpercent":5668,"Ġrejected":5669,"Ġfinding":5670,"Ġpalestinian":5671,"Ġresponds":5672,"istrate":5673,"Ġtrouble":5674,"Ġqueen":5675,"Ġguarant":5676,"Ġfeared":5677,"bik":5678,"brown":5679,"erves":5680,"Ġtouch":5681,"Ġsom":5682,"ference":5683,"Ġclinton":5684,"Ġphotograph":5685,"Ġwithdraws":5686,"ality":5687,"Ġchelsea":5688,"Ġlease":5689,"ifts":5690,"Ġmexic":5691,"knights":5692,"Ġcasino":5693,"Ġell":5694,"cepts":5695,"Ġwithin":5696,"afp":5697,"Ġwedding":5698,"crows":5699,"spring":5700,"essor":5701,"Ġbond":5702,"ione":5703,"Ġspain":5704,"Ġdisplay":5705,"Ġteams":5706,"apple":5707,"Ġremembered":5708,"Ġreflects":5709,"anim":5710,"Ġhims":5711,"broncos":5712,"Ġresearchers":5713,"retail":5714,"Ġhimself":5715,"coll":5716,"dam":5717,"loc":5718,"right":5719,"cking":5720,"Ġfrank":5721,"Ġreduction":5722,"Ġmaintain":5723,"sam":5724,"todd":5725,"Ġluc":5726,"etic":5727,"Ġany":5728,"deal":5729,"Ġstealing":5730,"international":5731,"craft":5732,"Ġunveiled":5733,"tles":5734,"Ġmas":5735,"Ġpoliticians":5736,"dozens":5737,"Ġstandards":5738,"commonwealth":5739,"iving":5740,"Ġtriumph":5741,"Ġtaliban":5742,"Ġrepublic":5743,"foreign":5744,"oenix":5745,"Ġess":5746,"Ġmeth":5747,"lton":5748,"Ġbh":5749,"Ġbounce":5750,"Ġkohler":5751,"Ġprepared":5752,"europe":5753,"30":5754,"hi":5755,"waters":5756,"anmar":5757,"Ġaus":5758,"Ġwwi":5759,"Ġbackl":5760,"Ġtransfer":5761,"Ġconservation":5762,"bish":5763,"Ġtell":5764,"rash":5765,"Ġsnap":5766,"farmer":5767,"Ġ60":5768,"Ġgeelong":5769,"Ġvolcan":5770,"Ġcontracts":5771,"Ġmedicare":5772,"Ġsmuggl":5773,"mixed":5774,"Ġtum":5775,"adam":5776,"Ġandrews":5777,"Ġbeaches":5778,"charges":5779,"hus":5780,"oices":5781,"vals":5782,"Ġdivers":5783,"Ġtoget":5784,"andrew":5785,"Ġcausing":5786,"Ġcameras":5787,"Ġcriminal":5788,"Ġmodel":5789,"idelines":5790,"gall":5791,"Ġmish":5792,"Ġclues":5793,"Ġparts":5794,"Ġriverland":5795,"fighting":5796,"Ġpitch":5797,"Ġhaz":5798,"ums":5799,"Ġcraig":5800,"Ġmars":5801,"Ġbrad":5802,"Ġloan":5803,"Ġtogether":5804,"Ġpu":5805,"doch":5806,"Ġsingle":5807,"hawks":5808,"vision":5809,"Ġbatter":5810,"Ġhicks":5811,"Ġstimulus":5812,"rif":5813,"dec":5814,"Ġsurplus":5815,"prof":5816,"Ġpassenger":5817,"Ġcoffs":5818,"Ġsong":5819,"Ġresol":5820,"Ġ70":5821,"bulldogs":5822,"Ġchecks":5823,"Ġcruelty":5824,"Ġcliff":5825,"Ġwelcomed":5826,"Ġacad":5827,"Ġsenior":5828,"Ġdiscovery":5829,"Ġpassengers":5830,"treas":5831,"Ġbob":5832,"edy":5833,"arton":5834,"Ġbills":5835,"Ġbigger":5836,"Ġeuropean":5837,"enz":5838,"acre":5839,"Ġmurderer":5840,"Ġliverpool":5841,"Ġdesert":5842,"Ġpartners":5843,"Ġcease":5844,"kish":5845,"oa":5846,"anz":5847,"Ġgamb":5848,"ohs":5849,"Ġlearning":5850,"hopes":5851,"Ġta":5852,"Ġbin":5853,"Ġgain":5854,"Ġnab":5855,"uls":5856,"oogle":5857,"Ġperm":5858,"gles":5859,"Ġtaylor":5860,"Ġmalaysia":5861,"company":5862,"trib":5863,"yards":5864,"Ġtemp":5865,"Ġexit":5866,"Ġarab":5867,"parliament":5868,"Ġcouns":5869,"Ġrecommends":5870,"Ġgriff":5871,"fuel":5872,"Ġchanged":5873,"ota":5874,"Ġexerc":5875,"Ġflock":5876,"Ġinside":5877,"Ġmosque":5878,"Ġinvolved":5879,"mel":5880,"rba":5881,"olph":5882,"Ġthrash":5883,"Ġabs":5884,"Ġ300":5885,"Ġpostp":5886,"Ġcomplete":5887,"city":5888,"fect":5889,"Ġpir":5890,"Ġlebanon":5891,"Ġwarm":5892,"Ġvoting":5893,"Ġcens":5894,"Ġfan":5895,"unic":5896,"Ġleaving":5897,"Ġincreased":5898,"Ġreferendum":5899,"Ġrebuild":5900,"mcc":5901,"nity":5902,"Ġthailand":5903,"Ġleading":5904,"brary":5905,"Ġmoving":5906,"lawyer":5907,"Ġii":5908,"bbitohs":5909,"Ġkicks":5910,"Ġsaved":5911,"bob":5912,"fed":5913,"ainees":5914,"Ġextradition":5915,"hur":5916,"oom":5917,"Ġselling":5918,"Ġmall":5919,"Ġnon":5920,"Ġcommer":5921,"Ġwinners":5922,"Ġimports":5923,"Ġdiam":5924,"Ġcontroversial":5925,"Ġtheatre":5926,"Ġabortion":5927,"banks":5928,"philippines":5929,"Ġjackson":5930,"payers":5931,"building":5932,"Ġmexico":5933,"Ġtips":5934,"racy":5935,"Ġstays":5936,"Ġunc":5937,"sey":5938,"Ġregister":5939,"Ġalloc":5940,"Ġbroadband":5941,"Ġelectoral":5942,"aut":5943,"ten":5944,"Ġgrower":5945,"Ġmuslim":5946,"malcolm":5947,"Ġbelie":5948,"15":5949,"ci":5950,"Ġbure":5951,"Ġmean":5952,"miners":5953,"Ġbirds":5954,"Ġprivat":5955,"britain":5956,"Ġmurdered":5957,"wednesday":5958,"rey":5959,"away":5960,"insula":5961,"Ġjoe":5962,"Ġgrows":5963,"Ġsoft":5964,"Ġfailing":5965,"Ġphoto":5966,"Ġdiscovered":5967,"birds":5968,"Ġtrafficking":5969,"chester":5970,"cane":5971,"Ġcape":5972,"major":5973,"Ġfooty":5974,"friday":5975,"Ġdigital":5976,"Ġpokies":5977,"eagles":5978,"Ġpms":5979,"ref":5980,"ati":5981,"aco":5982,"Ġross":5983,"Ġapple":5984,"Ġundergo":5985,"Ġslide":5986,"Ġclears":5987,"concern":5988,"Ġelectricity":5989,"gippsland":5990,"mad":5991,"Ġpension":5992,"Ġalarm":5993,"Ġinvestigating":5994,"Ġassaulting":5995,"Ġconsidering":5996,"storms":5997,"Ġfederer":5998,"Ġmaster":5999,"Ġelected":6000,"Ġmoment":6001,"bail":6002,"naby":6003,"Ġpaedophile":6004,"education":6005,"lywood":6006,"Ġdeficit":6007,"Ġweb":6008,"Ġdollars":6009,"Ġsmuggling":6010,"Ġgambling":6011,"bangladesh":6012,"nick":6013,"stosur":6014,"abet":6015,"early":6016,"Ġgreg":6017,"carr":6018,"borough":6019,"Ġtribunal":6020,"Ġrecommend":6021,"lis":6022,"Ġryan":6023,"Ġpayment":6024,"Ġfriends":6025,"human":6026,"gage":6027,"put":6028,"una":6029,"estone":6030,"Ġfinally":6031,"monday":6032,"Ġdonation":6033,"Ġamerican":6034,"Ġoppose":6035,"Ġerupts":6036,"bird":6037,"enoph":6038,"Ġmildura":6039,"ros":6040,"Ġjury":6041,"ellow":6042,"eeper":6043,"Ġairlines":6044,"Ġpeak":6045,"Ġnearly":6046,"Ġsingapore":6047,"Ġduty":6048,"legal":6049,"iants":6050,"Ġspray":6051,"apy":6052,"ugs":6053,"rican":6054,"facebook":6055,"ining":6056,"Ġho":6057,"Ġevery":6058,"osis":6059,"Ġmurdering":6060,"Ġbrace":6061,"Ġfishers":6062,"Ġkevin":6063,"Ġmountains":6064,"Ġcreates":6065,"claims":6066,"bet":6067,"tough":6068,"Ġsleep":6069,"Ġbundaberg":6070,"Ġoperations":6071,"Ġpeninsula":6072,"inery":6073,"Ġodi":6074,"dern":6075,"dep":6076,"Ġjobless":6077,"Ġmoon":6078,"Ġlaunceston":6079,"Ġexplos":6080,"Ġthanks":6081,"cairns":6082,"hart":6083,"george":6084,"Ġcaused":6085,"enny":6086,"Ġhandling":6087,"Ġsacking":6088,"Ġboxing":6089,"present":6090,"Ġhiv":6091,"Ġgulf":6092,"Ġbeer":6093,"Ġoffenders":6094,"Ġdisabled":6095,"cancer":6096,"front":6097,"alymp":6098,"matthew":6099,"Ġadjour":6100,"bike":6101,"dale":6102,"Ġsnowy":6103,"christmas":6104,"ini":6105,"arian":6106,"Ġgoulburn":6107,"Ġprove":6108,"Ġposition":6109,"brazil":6110,"williams":6111,"Ġfro":6112,"Ġrent":6113,"ooter":6114,"Ġscene":6115,"resp":6116,"Ġloans":6117,"drag":6118,"Ġlimits":6119,"Ġstyle":6120,"thor":6121,"akart":6122,"construction":6123,"Ġdesal":6124,"Ġmoved":6125,"Ġtroop":6126,"historic":6127,"Ġprimary":6128,"Ġprin":6129,"Ġjournalists":6130,"cass":6131,"alone":6132,"Ġmike":6133,"Ġwounded":6134,"Ġoval":6135,"Ġcontrib":6136,"Ġidentify":6137,"Ġdiscrimination":6138,"Ġtrav":6139,"ipe":6140,"Ġcarry":6141,"Ġaccepts":6142,"Ġanswer":6143,"Ġceremony":6144,"ae":6145,"von":6146,"Ġbased":6147,"Ġreward":6148,"she":6149,"Ġadvert":6150,"Ġcameron":6151,"croc":6152,"investigation":6153,"Ġtape":6154,"ily":6155,"abe":6156,"banese":6157,"carbon":6158,"Ġgunman":6159,"Ġera":6160,"Ġterminal":6161,"Ġbrand":6162,"Ġattacker":6163,"swich":6164,"Ġcelebrations":6165,"Ġdecline":6166,"Ġprocessing":6167,"Ġrecognised":6168,"Ġwimbledon":6169,"Ġsit":6170,"Ġsustain":6171,"Ġcatholic":6172,"Ġluke":6173,"istle":6174,"Ġtrio":6175,"peace":6176,"cars":6177,"Ġreturned":6178,"Ġfifth":6179,"nesty":6180,"card":6181,"ring":6182,"asx":6183,"Ġrick":6184,"Ġprop":6185,"Ġski":6186,"tuesday":6187,"Ġsunday":6188,"Ġhouses":6189,"Ġbombings":6190,"Ġspeculation":6191,"Ġstatus":6192,"Ġfishermen":6193,"Ġyacht":6194,"Ġtorture":6195,"Ġseal":6196,"Ġresist":6197,"Ġbrumbies":6198,"greg":6199,"Ġqualif":6200,"drivers":6201,"wide":6202,"ora":6203,"Ġhundreds":6204,"Ġvet":6205,"Ġsaudi":6206,"meeting":6207,"future":6208,"hod":6209,"Ġdod":6210,"Ġseats":6211,"Ġbuys":6212,"Ġglass":6213,"Ġoperators":6214,"Ġveget":6215,"Ġtip":6216,"itors":6217,"ounder":6218,"Ġasx":6219,"Ġfisherman":6220,"annel":6221,"Ġwithdrawal":6222,"Ġdescribes":6223,"cit":6224,"caine":6225,"Ġvoice":6226,"mera":6227,"Ġexpects":6228,"Ġskipper":6229,"marsh":6230,"Ġillness":6231,"Ġstraight":6232,"priv":6233,"daniel":6234,"bad":6235,"case":6236,"Ġhed":6237,"ildas":6238,"Ġdowngra":6239,"Ġgrape":6240,"Ġchampionships":6241,"Ġhammer":6242,"Ġathletes":6243,"alg":6244,"Ġnewsp":6245,"Ġ2019":6246,"Ġveteran":6247,"gios":6248,"pot":6249,"esc":6250,"terror":6251,"Ġrelations":6252,"ologist":6253,"akarta":6254,"mates":6255,"tor":6256,"Ġaids":6257,"une":6258,"Ġmany":6259,"Ġburgl":6260,"Ġracism":6261,"Ġwildlife":6262,"Ġexperience":6263,"Ġlnp":6264,"ette":6265,"aga":6266,"Ġneighbour":6267,"Ġpraise":6268,"volunte":6269,"lif":6270,"Ġdone":6271,"adow":6272,"Ġselection":6273,"Ġcocaine":6274,"Ġmines":6275,"Ġparade":6276,"Ġsupplies":6277,"proper":6278,"Ġsupporters":6279,"Ġcustomers":6280,"Ġdrowns":6281,"Ġdominate":6282,"Ġspirit":6283,"nasa":6284,"Ġsaints":6285,"Ġcub":6286,"Ġmurders":6287,"Ġbanking":6288,"Ġtinto":6289,"Ġlanguage":6290,"leading":6291,"Ġprincip":6292,"Ġcycling":6293,"brook":6294,"Ġmallee":6295,"yrgios":6296,"Ġintroduc":6297,"Ġfashion":6298,"Ġwagga":6299,"Ġnathan":6300,"Ġcanada":6301,"heavy":6302,"Ġalliance":6303,"Ġoperator":6304,"virgin":6305,"ellington":6306,"Ġmassacre":6307,"Ġfault":6308,"bola":6309,"Ġtafe":6310,"Ġsaves":6311,"onic":6312,"allies":6313,"Ġkalgoorlie":6314,"Ġproves":6315,"Ġprosecut":6316,"Ġcalm":6317,"Ġallowed":6318,"ambodia":6319,"Ġpractice":6320,"Ġnears":6321,"Ġrat":6322,"Ġthought":6323,"Ġsurr":6324,"box":6325,"Ġthriller":6326,"Ġconsultation":6327,"Ġcitizenship":6328,"Ġgambier":6329,"fol":6330,"fax":6331,"gro":6332,"ucture":6333,"Ġsars":6334,"Ġmens":6335,"abba":6336,"Ġbrothers":6337,"Ġeastern":6338,"Ġspeeding":6339,"gunns":6340,"Ġhorror":6341,"pilot":6342,"lish":6343,"umers":6344,"Ġtraged":6345,"Ġwilliam":6346,"Ġbarnett":6347,"Ġrelated":6348,"Ġfocuses":6349,"Ġrestaurant":6350,"kimberley":6351,"Ġfitz":6352,"Ġjumps":6353,"Ġworse":6354,"brumbies":6355,"Ġproperties":6356,"Ġreality":6357,"stitute":6358,"cel":6359,"Ġrobert":6360,"plant":6361,"Ġexpress":6362,"encies":6363,"Ġsweep":6364,"Ġharry":6365,"enophon":6366,"rice":6367,"Ġfence":6368,"Ġdna":6369,"utious":6370,"Ġtrick":6371,"Ġcampbell":6372,"ughes":6373,"Ġbashed":6374,"Ġponting":6375,"Ġgh":6376,"Ġstamp":6377,"Ġtele":6378,"resh":6379,"Ġgrey":6380,"Ġawait":6381,"post":6382,"Ġhab":6383,"orida":6384,"Ġireland":6385,"ully":6386,"sharks":6387,"Ġcaravan":6388,"Ġboats":6389,"Ġdoing":6390,"Ġorange":6391,"Ġrainfall":6392,"gow":6393,"uers":6394,"Ġou":6395,"Ġtamworth":6396,"Ġdockers":6397,"Ġhod":6398,"Ġanalyst":6399,"Ġburma":6400,"centre":6401,"cycle":6402,"fruit":6403,"lon":6404,"Ġspin":6405,"athers":6406,"plane":6407,"Ġlibrary":6408,"Ġpleased":6409,"Ġirrigators":6410,"bol":6411,"alian":6412,"Ġdance":6413,"lets":6414,"Ġeve":6415,"worths":6416,"tw":6417,"Ġvery":6418,"Ġgrabs":6419,"Ġharass":6420,"Ġtreated":6421,"fo":6422,"fts":6423,"inations":6424,"Ġwages":6425,"Ġhik":6426,"osecurity":6427,"Ġkangaroos":6428,"rate":6429,"Ġniger":6430,"Ġenglish":6431,"Ġbrexit":6432,"Ġpolicies":6433,"Ġgiving":6434,"Ġburnt":6435,"fest":6436,"trio":6437,"Ġnets":6438,"igning":6439,"Ġclark":6440,"swans":6441,"Ġclosing":6442,"Ġrolls":6443,"Ġsaturday":6444,"Ġquizzed":6445,"Ġprovide":6446,"Ġmishap":6447,"bal":6448,"Ġult":6449,"Ġrivers":6450,"Ġenters":6451,"Ġdocument":6452,"kim":6453,"Ġticket":6454,"igg":6455,"agan":6456,"Ġqueens":6457,"Ġbritain":6458,"Ġdoubts":6459,"Ġcyclist":6460,"witness":6461,"Ġdistr":6462,"Ġrum":6463,"Ġcards":6464,"Ġdefamation":6465,"Ġheatwave":6466,"democrats":6467,"Ġvehicle":6468,"Ġvolcano":6469,"lide":6470,"mt":6471,"Ġhort":6472,"Ġhanson":6473,"iring":6474,"Ġscrap":6475,"ulla":6476,"pression":6477,"Ġlegend":6478,"Ġnetball":6479,"race":6480,"ocracy":6481,"plans":6482,"Ġusers":6483,"Ġtrumps":6484,"azed":6485,"Ġstatement":6486,"Ġparliamentary":6487,"Ġmountain":6488,"Ġcomplaint":6489,"Ġrecognition":6490,"ecent":6491,"Ġlashes":6492,"Ġrba":6493,"Ġray":6494,"Ġappoints":6495,"Ġimpress":6496,"Ġremove":6497,"Ġsuspends":6498,"floods":6499,"going":6500,"Ġrebel":6501,"Ġpalm":6502,"Ġracist":6503,"Ġcommitted":6504,"jobs":6505,"latham":6506,"mps":6507,"onents":6508,"islamic":6509,"third":6510,"Ġidentified":6511,"belt":6512,"teacher":6513,"Ġrelationship":6514,"Ġhwy":6515,"Ġjour":6516,"alse":6517,"Ġparole":6518,"uthanas":6519,"Ġactivist":6520,"uthanasia":6521,"die":6522,"lar":6523,"tiger":6524,"idden":6525,"Ġscot":6526,"Ġscientist":6527,"Ġtitans":6528,"Ġ80":6529,"Ġproducer":6530,"Ġgarden":6531,"tit":6532,"Ġvow":6533,"elligence":6534,"Ġbacking":6535,"odation":6536,"perate":6537,"Ġdetainees":6538,"Ġevans":6539,"Ġukraine":6540,"Ġinflu":6541,"cowboys":6542,"zen":6543,"inct":6544,"Ġlure":6545,"abeth":6546,"ivals":6547,"Ġweak":6548,"barnett":6549,"Ġstruggles":6550,"Ġbreaches":6551,"dp":6552,"dogs":6553,"Ġgeraldton":6554,"Ġunite":6555,"Ġbron":6556,"blue":6557,"Ġguantanamo":6558,"Ġexplained":6559,"Ġprix":6560,"senator":6561,"Ġmalcolm":6562,"Ġbuyers":6563,"Ġbroadcast":6564,"Ġtragedy":6565,"pie":6566,"Ġaqu":6567,"Ġbart":6568,"Ġbite":6569,"acqu":6570,"Ġjam":6571,"Ġroof":6572,"Ġupbeat":6573,"Ġindies":6574,"Ġhighest":6575,"Ġbusy":6576,"broome":6577,"malaysia":6578,"Ġdepart":6579,"garet":6580,"Ġstephen":6581,"Ġodds":6582,"Ġtensions":6583,"Ġace":6584,"iagn":6585,"Ġanderson":6586,"viol":6587,"Ġretain":6588,"Ġgovernments":6589,"Ġsteel":6590,"Ġsoar":6591,"Ġcalifornia":6592,"estinians":6593,"hear":6594,"anol":6595,"Ġaver":6596,"Ġoption":6597,"Ġmoore":6598,"Ġcostello":6599,"Ġbombs":6600,"Ġfixing":6601,"toddler":6602,"Ġexercise":6603,"jets":6604,"rspca":6605,"Ġpear":6606,"Ġdiss":6607,"short":6608,"Ġreloc":6609,"Ġthreatening":6610,"Ġpanthers":6611,"Ġunfair":6612,"Ġphillip":6613,"london":6614,"tar":6615,"ule":6616,"Ġmh":6617,"Ġhole":6618,"Ġlines":6619,"Ġthere":6620,"ables":6621,"Ġanthony":6622,"Ġmening":6623,"ether":6624,"Ġbattles":6625,"Ġmonitoring":6626,"Ġtemper":6627,"Ġwatson":6628,"Ġrallies":6629,"Ġremanded":6630,"Ġturned":6631,"Ġshutdown":6632,"Ġremembers":6633,"ih":6634,"Ġpace":6635,"Ġstuart":6636,"chris":6637,"Ġplate":6638,"redbacks":6639,"Ġlisting":6640,"gib":6641,"pa":6642,"Ġcultural":6643,"isode":6644,"Ġow":6645,"Ġoffs":6646,"uka":6647,"gay":6648,"Ġing":6649,"Ġsudan":6650,"Ġbee":6651,"Ġplants":6652,"Ġharris":6653,"Ġdoubles":6654,"Ġstreak":6655,"Ġprofile":6656,"Ġeffect":6657,"taxi":6658,"ketball":6659,"jim":6660,"sold":6661,"Ġpers":6662,"Ġtoowoomba":6663,"ico":6664,"Ġhorses":6665,"Ġrice":6666,"epa":6667,"Ġchamber":6668,"refuge":6669,"families":6670,"chief":6671,"action":6672,"Ġsworn":6673,"Ġdozens":6674,"Ġstrip":6675,"Ġproposes":6676,"Ġdismissed":6677,"Ġgeneration":6678,"Ġfreedom":6679,"Ġmachine":6680,"Ġchamps":6681,"few":6682,"Ġsons":6683,"Ġbear":6684,"Ġwreck":6685,"Ġhydro":6686,"Ġchoice":6687,"emb":6688,"Ġroberts":6689,"ivity":6690,"Ġshowdown":6691,"exp":6692,"Ġharvey":6693,"Ġdemons":6694,"Ġincreasing":6695,"Ġkeeping":6696,"rising":6697,"Ġcurb":6698,"rieve":6699,"Ġlargest":6700,"olympic":6701,"gie":6702,"just":6703,"mir":6704,"nee":6705,"amedics":6706,"ambul":6707,"Ġredbacks":6708,"syrian":6709,"Ġfriendly":6710,"100":6711,"sug":6712,"saints":6713,"organ":6714,"Ġrepresent":6715,"uted":6716,"Ġspree":6717,"Ġoutra":6718,"Ġdetain":6719,"Ġmovie":6720,"Ġsociety":6721,"Ġtwenty":6722,"Ġian":6723,"Ġok":6724,"Ġlay":6725,"thom":6726,"ppy":6727,"uters":6728,"manent":6729,"Ġprevention":6730,"Ġdrives":6731,"Ġfreeway":6732,"Ġdumping":6733,"Ġtwitter":6734,"Ġoppn":6735,"Ġhusband":6736,"Ġfame":6737,"atures":6738,"Ġmaker":6739,"Ġward":6740,"Ġthor":6741,"Ġboot":6742,"Ġchiefs":6743,"crash":6744,"Ġpastoral":6745,"Ġcancels":6746,"Ġstrait":6747,"Ġdrowning":6748,"Ġexpecting":6749,"Ġmul":6750,"chelsea":6751,"obel":6752,"ples":6753,"Ġrespond":6754,"Ġinflation":6755,"Ġmigrants":6756,"14":6757,"Ġfol":6758,"Ġmoot":6759,"igan":6760,"sever":6761,"Ġprec":6762,"Ġbreeding":6763,"Ġdoors":6764,"Ġitalian":6765,"libs":6766,"eels":6767,"Ġmap":6768,"ilt":6769,"thursday":6770,"Ġaccc":6771,"Ġgoldfields":6772,"Ġrichard":6773,"Ġcapture":6774,"turkey":6775,"bac":6776,"fat":6777,"onial":6778,"orm":6779,"Ġincome":6780,"utions":6781,"Ġindecent":6782,"Ġfacilities":6783,"Ġcollection":6784,"Ġrocket":6785,"Ġcyber":6786,"gil":6787,"ho":6788,"Ġcafe":6789,"arson":6790,"Ġom":6791,"Ġcongress":6792,"Ġblaz":6793,"Ġbranch":6794,"Ġbooks":6795,"Ġinjures":6796,"render":6797,"Ġdemocracy":6798,"Ġesperance":6799,"Ġfreeze":6800,"Ġlabors":6801,"Ġpenalties":6802,"coup":6803,"ym":6804,"orney":6805,"Ġbang":6806,"Ġhat":6807,"igil":6808,"ckham":6809,"Ġfirms":6810,"izabeth":6811,"queen":6812,"solar":6813,"Ġcitrus":6814,"Ġrevenue":6815,"cam":6816,"fighter":6817,"Ġwon":6818,"roar":6819,"Ġforg":6820,"urning":6821,"umby":6822,"astro":6823,"beach":6824,"Ġcoastal":6825,"apped":6826,"Ġcampus":6827,"Ġlocust":6828,"Ġmight":6829,"Ġmind":6830,"Ġrevers":6831,"Ġresolution":6832,"Ġweed":6833,"listen":6834,"kers":6835,"Ġhav":6836,"Ġcontact":6837,"people":6838,"elbournes":6839,"gae":6840,"Ġuncertainty":6841,"domestic":6842,"Ġstem":6843,"istry":6844,"Ġquiet":6845,"Ġaccomm":6846,"Ġfireworks":6847,"Ġpayout":6848,"Ġgladstone":6849,"Ġsolomons":6850,"fisher":6851,"Ġlankan":6852,"Ġheroin":6853,"jet":6854,"leton":6855,"Ġgear":6856,"igar":6857,"Ġthrown":6858,"Ġconced":6859,"Ġplastic":6860,"afood":6861,"Ġ45":6862,"Ġcracks":6863,"Ġpetition":6864,"Ġlifted":6865,"Ġsecretary":6866,"vanuatu":6867,"Ġmanufacturing":6868,"nine":6869,"uits":6870,"bery":6871,"Ġnewman":6872,"ocial":6873,"ordan":6874,"Ġintens":6875,"petrol":6876,"Ġopposes":6877,"Ġindependence":6878,"forestry":6879,"ashington":6880,"occal":6881,"cop":6882,"Ġut":6883,"erry":6884,"Ġwollongong":6885,"Ġoy":6886,"Ġjosh":6887,"Ġarms":6888,"conduct":6889,"Ġrecession":6890,"lier":6891,"Ġrapist":6892,"Ġadjourned":6893,"now":6894,"esity":6895,"Ġdun":6896,"roke":6897,"lement":6898,"Ġgong":6899,"Ġreporting":6900,"Ġperfect":6901,"Ġderail":6902,"sub":6903,"tri":6904,"Ġsights":6905,"Ġways":6906,"Ġeating":6907,"shore":6908,"ococcal":6909,"drink":6910,"azi":6911,"Ġidentity":6912,"Ġfaith":6913,"Ġfoster":6914,"Ġcock":6915,"ilda":6916,"ocol":6917,"swim":6918,"coff":6919,"Ġrebate":6920,"Ġbowl":6921,"camer":6922,"fresh":6923,"Ġble":6924,"Ġkir":6925,"planning":6926,"Ġabandoned":6927,"Ġreduced":6928,"kohler":6929,"lat":6930,"sant":6931,"enger":6932,"Ġditch":6933,"isions":6934,"elter":6935,"Ġbruce":6936,"Ġsched":6937,"lican":6938,"Ġfundra":6939,"Ġbiden":6940,"Ġemployment":6941,"ballarat":6942,"riverland":6943,"Ġcollapses":6944,"Ġsuburbs":6945,"lob":6946,"run":6947,"Ġtag":6948,"Ġrival":6949,"chan":6950,"Ġvolunteer":6951,"milit":6952,"Ġfeeling":6953,"mand":6954,"ni":6955,"Ġferal":6956,"Ġkur":6957,"aval":6958,"Ġbuff":6959,"Ġredund":6960,"Ġhenry":6961,"Ġalternative":6962,"safety":6963,"Ġcommercial":6964,"orary":6965,"albany":6966,"Ġawar":6967,"Ġdir":6968,"Ġdad":6969,"stolen":6970,"Ġgrog":6971,"pparton":6972,"Ġadd":6973,"Ġbackpacker":6974,"conserv":6975,"airport":6976,"Ġtested":6977,"Ġrepair":6978,"Ġsnatch":6979,"Ġgeoff":6980,"palestinian":6981,"Ġnatural":6982,"Ġduck":6983,"Ġhewitt":6984,"Ġrental":6985,"Ġchances":6986,"Ġdeals":6987,"uma":6988,"Ġdowner":6989,"Ġsubmissions":6990,"Ġ90":6991,"Ġrenewable":6992,"ambulance":6993,"pga":6994,"Ġtorn":6995,"esa":6996,"leaders":6997,"rah":6998,"aca":6999,"Ġshift":7000,"mentia":7001,"Ġweight":7002,"oppers":7003,"Ġintelligence":7004,"clean":7005,"Ġdisappear":7006,"irrigators":7007,"couple":7008,"catholic":7009,"dig":7010,"gill":7011,"veter":7012,"Ġfounder":7013,"Ġbot":7014,"Ġbass":7015,"Ġthief":7016,"Ġkatherine":7017,"Ġdownturn":7018,"Ġcompletes":7019,"Ġsurvival":7020,"questions":7021,"Ġvanuatu":7022,"Ġbottle":7023,"Ġadministration":7024,"iors":7025,"ji":7026,"zer":7027,"Ġcotton":7028,"ingwood":7029,"Ġmothers":7030,"space":7031,"Ġcautious":7032,"Ġendangered":7033,"ennant":7034,"Ġvisitors":7035,"Ġplunge":7036,"sugar":7037,"Ġawareness":7038,"Ġmol":7039,"eld":7040,"amy":7041,"Ġwords":7042,"Ġantarctic":7043,"Ġrailway":7044,"Ġvalue":7045,"wler":7046,"wheat":7047,"Ġses":7048,"arth":7049,"chair":7050,"Ġblocks":7051,"independ":7052,"ordon":7053,"boks":7054,"Ġriots":7055,"Ġsteady":7056,"Ġlabels":7057,"Ġclassic":7058,"Ġcontroversy":7059,"Ġhedland":7060,"Ġdying":7061,"Ġchoos":7062,"ima":7063,"clar":7064,"deb":7065,"Ġbuck":7066,"extra":7067,"Ġputin":7068,"ledge":7069,"johnson":7070,"Ġsquare":7071,"matic":7072,"expert":7073,"uct":7074,"igious":7075,"iden":7076,"Ġjong":7077,"Ġthem":7078,"Ġspots":7079,"clin":7080,"Ġurgent":7081,"Ġsydneys":7082,"Ġperform":7083,"Ġ400":7084,"Ġxi":7085,"ramatta":7086,"Ġpriority":7087,"Ġjourney":7088,"dry":7089,"mex":7090,"video":7091,"inch":7092,"otic":7093,"otional":7094,"Ġflash":7095,"Ġmeans":7096,"Ġcutting":7097,"Ġgunns":7098,"Ġupgrades":7099,"remote":7100,"Ġcoverage":7101,"deadly":7102,"Ġcomplex":7103,"nadal":7104,"oir":7105,"orate":7106,"Ġgabba":7107,"adv":7108,"Ġoverd":7109,"Ġprefer":7110,"Ġcomplet":7111,"probe":7112,"borg":7113,"Ġlarge":7114,"Ġexamine":7115,"pen":7116,"leigh":7117,"asbestos":7118,"Ġrider":7119,"Ġthieves":7120,"Ġseriously":7121,"doubt":7122,"bun":7123,"kinson":7124,"Ġbeds":7125,"Ġdale":7126,"iling":7127,"Ġthunder":7128,"emy":7129,"ipment":7130,"forum":7131,"Ġcommits":7132,"Ġminor":7133,"Ġtries":7134,"Ġjoint":7135,"Ġstorage":7136,"Ġsniff":7137,"Ġedges":7138,"Ġembra":7139,"Ġsentences":7140,"Ġ150":7141,"syria":7142,"csiro":7143,"Ġbhp":7144,"Ġhamilton":7145,"states":7146,"Ġfort":7147,"urances":7148,"Ġseals":7149,"Ġmanus":7150,"Ġevents":7151,"Ġpreselection":7152,"Ġrecovering":7153,"Ġsilence":7154,"Ġillawarra":7155,"Ġneglect":7156,"private":7157,"ja":7158,"Ġraces":7159,"Ġwars":7160,"policeman":7161,"Ġwhales":7162,"Ġsexually":7163,"Ġzones":7164,"Ġcaptured":7165,"Ġtriggers":7166,"Ġappointment":7167,"cctv":7168,"namb":7169,"Ġtoil":7170,"roads":7171,"Ġredevelopment":7172,"Ġcloud":7173,"Ġuncover":7174,"sheep":7175,"Ġresh":7176,"Ġcharles":7177,"kevin":7178,"Ġholding":7179,"ddick":7180,"strike":7181,"jones":7182,"Ġfill":7183,"alem":7184,"icac":7185,"Ġnadal":7186,"urg":7187,"Ġguards":7188,"Ġrescues":7189,"bushrangers":7190,"Ġsettlement":7191,"Ġapplication":7192,"nelson":7193,"Ġfitness":7194,"Ġbabies":7195,"Ġmicro":7196,"icult":7197,"Ġlucky":7198,"Ġspott":7199,"shop":7200,"Ġmanly":7201,"Ġconsumer":7202,"Ġpermanent":7203,"Ġdetail":7204,"Ġfremantle":7205,"student":7206,"Ġwindies":7207,"ronic":7208,"Ġmisconduct":7209,"Ġrubbish":7210,"Ġaccommodation":7211,"hound":7212,"nar":7213,"onds":7214,"Ġdiagn":7215,"roosters":7216,"lewis":7217,"Ġarn":7218,"Ġaddict":7219,"assie":7220,"Ġimm":7221,"encing":7222,"Ġflooded":7223,"Ġsolve":7224,"cause":7225,"businesses":7226,"Ġpapua":7227,"Ġwilson":7228,"claim":7229,"Ġprivatisation":7230,"abetes":7231,"dub":7232,"from":7233,"asic":7234,"ellite":7235,"saudi":7236,"steve":7237,"cil":7238,"ele":7239,"paid":7240,"some":7241,"Ġbennett":7242,"Ġstone":7243,"Ġchap":7244,"apova":7245,"newman":7246,"Ġguine":7247,"coast":7248,"Ġemail":7249,"holds":7250,"Ġactivity":7251,"Ġshocked":7252,"bombers":7253,"Ġoptimistic":7254,"animal":7255,"bay":7256,"eight":7257,"xas":7258,"Ġsister":7259,"thailand":7260,"Ġargentina":7261,"Ġkillings":7262,"Ġmotion":7263,"ifficult":7264,"Ġaddresses":7265,"Ġcaptures":7266,"Ġmourns":7267,"ault":7268,"rans":7269,"Ġmatter":7270,"Ġlord":7271,"Ġstake":7272,"Ġflows":7273,"Ġbright":7274,"ption":7275,"Ġdirect":7276,"Ġsimon":7277,"talks":7278,"istlebl":7279,"iate":7280,"Ġcouncillors":7281,"Ġfalse":7282,"Ġlap":7283,"uster":7284,"ube":7285,"ishes":7286,"Ġconcert":7287,"Ġassets":7288,"Ġownership":7289,"Ġcasts":7290,"Ġepisode":7291,"Ġcommitment":7292,"je":7293,"mate":7294,"pop":7295,"Ġbern":7296,"Ġbats":7297,"Ġgiants":7298,"olar":7299,"Ġoffensive":7300,"Ġdrone":7301,"Ġcontra":7302,"Ġhealthy":7303,"Ġearns":7304,"Ġlightning":7305,"senior":7306,"Ġcrocodile":7307,"Ġthompson":7308,"Ġdubbo":7309,"Ġbacklash":7310,"Ġsaw":7311,"Ġnap":7312,"Ġplaces":7313,"army":7314,"Ġsalv":7315,"Ġequipment":7316,"aus":7317,"non":7318,"Ġape":7319,"Ġmont":7320,"iton":7321,"lements":7322,"Ġgal":7323,"Ġislam":7324,"Ġreturning":7325,"commission":7326,"iracy":7327,"Ġstruck":7328,"apping":7329,"Ġannual":7330,"Ġreviews":7331,"lawyers":7332,"Ġaxed":7333,"Ġaceh":7334,"dont":7335,"Ġkat":7336,"plays":7337,"Ġmarketing":7338,"Ġglen":7339,"motorcyclist":7340,"rect":7341,"imum":7342,"class":7343,"Ġartists":7344,"Ġerror":7345,"Ġreplacement":7346,"Ġvirgin":7347,"Ġmooted":7348,"kok":7349,"Ġtaiwan":7350,"alcohol":7351,"raiders":7352,"Ġliter":7353,"overty":7354,"Ġuses":7355,"victory":7356,"Ġlegacy":7357,"dragons":7358,"80":7359,"log":7360,"Ġpow":7361,"Ġcarr":7362,"joe":7363,"Ġdivided":7364,"Ġrd":7365,"idd":7366,"chinas":7367,"antage":7368,"medical":7369,"Ġbunbury":7370,"Ġblazes":7371,"fil":7372,"navy":7373,"Ġsant":7374,"arrest":7375,"Ġgill":7376,"Ġthings":7377,"vement":7378,"Ġrav":7379,"Ġarsenal":7380,"Ġgraham":7381,"itten":7382,"ancies":7383,"Ġrollout":7384,"stein":7385,"cas":7386,"reach":7387,"elton":7388,"Ġstick":7389,"territory":7390,"Ġvigil":7391,"clive":7392,"Ġlocked":7393,"Ġferguson":7394,"Ġmadrid":7395,"Ġtraditional":7396,"Ġharassment":7397,"Ġwra":7398,"usive":7399,"Ġguidelines":7400,"otten":7401,"Ġregulation":7402,"Ġassurances":7403,"Ġturning":7404,"Ġpictures":7405,"bas":7406,"Ġread":7407,"Ġagent":7408,"Ġappla":7409,"anna":7410,"nauru":7411,"kyo":7412,"aris":7413,"rac":7414,"Ġrh":7415,"Ġrating":7416,"idale":7417,"iron":7418,"Ġchinas":7419,"Ġshuts":7420,"ovation":7421,"Ġnepal":7422,"Ġsmart":7423,"Ġterms":7424,"Ġ35":7425,"loe":7426,"Ġlobster":7427,"mont":7428,"Ġbounc":7429,"Ġiniti":7430,"Ġgradu":7431,"Ġofficially":7432,"Ġgender":7433,"Ġbuildings":7434,"Ġtaser":7435,"Ġhalts":7436,"Ġcamps":7437,"Ġsuns":7438,"beef":7439,"hicks":7440,"ti":7441,"Ġtact":7442,"reb":7443,"Ġtotal":7444,"Ġcomprom":7445,"Ġstudio":7446,"Ġ36":7447,"Ġsnake":7448,"Ġlifeline":7449,"Ġsevere":7450,"Ġbathurst":7451,"hem":7452,"mob":7453,"inem":7454,"ately":7455,"robe":7456,"Ġgreek":7457,"Ġnbl":7458,"Ġjim":7459,"psy":7460,"Ġsuit":7461,"Ġama":7462,"warning":7463,"Ġheard":7464,"Ġbuilt":7465,"Ġopportunities":7466,"Ġpremiership":7467,"giant":7468,"energy":7469,"Ġmick":7470,"Ġproof":7471,"Ġatm":7472,"Ġafp":7473,"berry":7474,"Ġblows":7475,"Ġcron":7476,"grath":7477,"Ġsteal":7478,"Ġ31":7479,"Ġmagic":7480,"Ġfactor":7481,"Ġseizes":7482,"suspected":7483,"jackson":7484,"financial":7485,"Ġpoisoning":7486,"Ġliquor":7487,"Ġsuggests":7488,"cia":7489,"kings":7490,"point":7491,"Ġlit":7492,"aburra":7493,"ardi":7494,"Ġbanana":7495,"Ġspeaker":7496,"spot":7497,"Ġhung":7498,"Ġapartment":7499,"Ġaffair":7500,"Ġangers":7501,"steph":7502,"anderers":7503,"fraser":7504,"Ġute":7505,"Ġsar":7506,"anzac":7507,"eden":7508,"Ġhendra":7509,"rod":7510,"Ġlas":7511,"ugabe":7512,"Ġabove":7513,"Ġcommunic":7514,"ificant":7515,"alking":7516,"Ġproduce":7517,"Ġdeliber":7518,"Ġmigrant":7519,"Ġspreads":7520,"political":7521,"lnp":7522,"timber":7523,"rass":7524,"Ġrangers":7525,"Ġrains":7526,"Ġbreath":7527,"Ġfiles":7528,"Ġkyi":7529,"Ġdolph":7530,"Ġmounts":7531,"iri":7532,"sham":7533,"Ġaccidents":7534,"Ġserial":7535,"Ġsurges":7536,"Ġimage":7537,"blair":7538,"Ġmariners":7539,"Ġordeal":7540,"Ġpulled":7541,"Ġmigration":7542,"Ġpersonal":7543,"Ġsailor":7544,"Ġconstitution":7545,"bit":7546,"social":7547,"review":7548,"Ġobs":7549,"essing":7550,"Ġwhit":7551,"Ġcoral":7552,"meat":7553,"interest":7554,"Ġdisappoint":7555,"Ġcondemn":7556,"campaign":7557,"Ġnickel":7558,"wright":7559,"ffiti":7560,"liverpool":7561,"Ġcheese":7562,"Ġbowen":7563,"petition":7564,"Ġsharing":7565,"Ġthomas":7566,"Ġwwii":7567,"hard":7568,"Ġfal":7569,"Ġfate":7570,"Ġpump":7571,"ryan":7572,"Ġadds":7573,"Ġcomputer":7574,"nedy":7575,"Ġrobbed":7576,"italian":7577,"kalgoorlie":7578,"Ġpadd":7579,"Ġdred":7580,"Ġchannel":7581,"Ġvent":7582,"shot":7583,"Ġflorida":7584,"Ġaccus":7585,"Ġschoolies":7586,"Ġnothing":7587,"Ġbasketball":7588,"Ġcourts":7589,"enzie":7590,"haven":7591,"lab":7592,"matt":7593,"Ġdangers":7594,"Ġdutch":7595,"ounter":7596,"Ġseed":7597,"agues":7598,"acher":7599,"industry":7600,"Ġnote":7601,"ika":7602,"Ġriverina":7603,"Ġeyre":7604,"Ġtaskforce":7605,"Ġinstall":7606,"treasurer":7607,"inary":7608,"Ġment":7609,"Ġnic":7610,"Ġstunt":7611,"thorn":7612,"Ġrod":7613,"Ġquad":7614,"Ġwarming":7615,"Ġshowing":7616,"Ġsaleyards":7617,"Ġhurting":7618,"Ġbandit":7619,"Ġtyphoon":7620,"Ġsubsid":7621,"Ġresponsible":7622,"Ġgift":7623,"Ġdepos":7624,"Ġdepression":7625,"Ġbeattie":7626,"Ġroo":7627,"deo":7628,"Ġfloodwaters":7629,"surf":7630,"Ġrichmond":7631,"Ġbalance":7632,"Ġunfazed":7633,"brad":7634,"Ġdifficult":7635,"Ġebola":7636,"graz":7637,"Ġtours":7638,"Ġrepairs":7639,"untary":7640,"Ġrobberies":7641,"Ġameric":7642,"rockhampton":7643,"Ġscorecentre":7644,"Ġidea":7645,"Ġmango":7646,"Ġpy":7647,"Ġdent":7648,"Ġspanish":7649,"ousins":7650,"Ġdefe":7651,"Ġorch":7652,"Ġburke":7653,"cape":7654,"anny":7655,"Ġavail":7656,"Ġbolster":7657,"Ġthrows":7658,"Ġlaments":7659,"nambool":7660,"13":7661,"rugby":7662,"alo":7663,"acad":7664,"iple":7665,"Ġservants":7666,"Ġphoenix":7667,"Ġexplo":7668,"Ġmatches":7669,"disability":7670,"Ġprivacy":7671,"Ġdidnt":7672,"Ġlibs":7673,"walker":7674,"Ġguarantee":7675,"Ġdiamond":7676,"cul":7677,"oal":7678,"Ġhoney":7679,"este":7680,"Ġseas":7681,"Ġaside":7682,"Ġclim":7683,"ookaburra":7684,"ahill":7685,"vene":7686,"Ġturtle":7687,"Ġmisleading":7688,"ilippine":7689,"Ġmaintains":7690,"16":7691,"gic":7692,"Ġach":7693,"Ġrecon":7694,"uded":7695,"iction":7696,"vietnam":7697,"Ġcanadian":7698,"Ġtried":7699,"Ġswing":7700,"Ġsymp":7701,"ography":7702,"Ġresponsibility":7703,"Ġapec":7704,"wet":7705,"erial":7706,"osa":7707,"cca":7708,"print":7709,"Ġcampa":7710,"Ġskin":7711,"Ġcoaching":7712,"Ġhomelessness":7713,"chiat":7714,"kid":7715,"uj":7716,"Ġbab":7717,"Ġeasy":7718,"Ġeuthanasia":7719,"aile":7720,"ancing":7721,"ancis":7722,"Ġrevolution":7723,"Ġentit":7724,"solomons":7725,"cust":7726,"Ġcctv":7727,"arts":7728,"Ġdental":7729,"Ġinject":7730,"Ġkillers":7731,"Ġchristian":7732,"Ġputting":7733,"Ġorganisers":7734,"Ġdeportation":7735,"Ġpsych":7736,"electric":7737,"Ġtel":7738,"anth":7739,"Ġlot":7740,"university":7741,"amber":7742,"thieves":7743,"Ġvul":7744,"apt":7745,"Ġrabbitohs":7746,"Ġreserves":7747,"weed":7748,"canadian":7749,"whale":7750,"Ġapprovals":7751,"Ġopponents":7752,"Ġtrigger":7753,"wd":7754,"Ġcities":7755,"Ġdeleg":7756,"otts":7757,"conf":7758,"beazley":7759,"ibet":7760,"web":7761,"Ġfallen":7762,"Ġcritics":7763,"Ġopera":7764,"Ġwithdraw":7765,"pressure":7766,"cov":7767,"sach":7768,"Ġborn":7769,"atar":7770,"Ġships":7771,"cliff":7772,"flooding":7773,"Ġfarewelled":7774,"Ġpunish":7775,"Ġspotted":7776,"dockers":7777,"rann":7778,"anu":7779,"Ġretains":7780,"Ġpushing":7781,"Ġdrama":7782,"Ġassass":7783,"Ġwalker":7784,"Ġpregnant":7785,"ek":7786,"Ġsew":7787,"Ġfta":7788,"Ġpoised":7789,"crime":7790,"Ġsuccessful":7791,"kangaroos":7792,"vale":7793,"Ġcigar":7794,"Ġgil":7795,"Ġstab":7796,"osed":7797,"Ġvac":7798,"Ġovernight":7799,"Ġrose":7800,"Ġflaw":7801,"Ġcommemor":7802,"Ġbrett":7803,"Ġtrophy":7804,"annuation":7805,"monds":7806,"Ġwalks":7807,"Ġmotorcycle":7808,"Ġduo":7809,"bes":7810,"gain":7811,"Ġpope":7812,"Ġbog":7813,"Ġhints":7814,"ader":7815,"Ġanc":7816,"Ġparalymp":7817,"Ġrenews":7818,"Ġfinishes":7819,"bundaberg":7820,"hal":7821,"sil":7822,"Ġpage":7823,"Ġpoverty":7824,"Ġdock":7825,"Ġnba":7826,"Ġkem":7827,"Ġkyrgios":7828,"apans":7829,"convict":7830,"Ġlipped":7831,"Ġhostages":7832,"bracks":7833,"Ġrecommendations":7834,"gri":7835,"mour":7836,"mick":7837,"mons":7838,"martin":7839,"Ġfoss":7840,"sth":7841,"adu":7842,"Ġsheds":7843,"Ġlewis":7844,"Ġexempt":7845,"Ġkept":7846,"westpac":7847,"Ġignored":7848,"Ġarmstrong":7849,"Ġbiosecurity":7850,"Ġawb":7851,"Ġvandalism":7852,"Ġpione":7853,"Ġgib":7854,"Ġknee":7855,"Ġyemen":7856,"Ġcommander":7857,"Ġmonaro":7858,"izz":7859,"Ġirish":7860,"Ġsoil":7861,"Ġtracks":7862,"Ġ66":7863,"fishing":7864,"Ġhacking":7865,"Ġscrapped":7866,"Ġpartnership":7867,"conservation":7868,"hall":7869,"Ġincent":7870,"icing":7871,"Ġnelson":7872,"immigration":7873,"Ġshine":7874,"Ġ1000":7875,"Ġplanes":7876,"ashmir":7877,"Ġnotice":7878,"Ġbuying":7879,"Ġshortfall":7880,"Ġadvis":7881,"Ġkidnapped":7882,"Ġdemolition":7883,"Ġceasefire":7884,"cold":7885,"full":7886,"nbn":7887,"watson":7888,"isa":7889,"stasy":7890,"chen":7891,"reserve":7892,"Ġdesperate":7893,"Ġadvances":7894,"addaf":7895,"Ġsurprised":7896,"Ġknowledge":7897,"Ġhamper":7898,"Ġaverage":7899,"ea":7900,"iemma":7901,"jer":7902,"mol":7903,"wim":7904,"Ġcou":7905,"Ġdjokovic":7906,"Ġmelbournes":7907,"ili":7908,"Ġhelped":7909,"Ġtasmanias":7910,"Ġshareholders":7911,"Ġagricultural":7912,"Ġmulti":7913,"property":7914,"gm":7915,"kat":7916,"urers":7917,"ewart":7918,"avers":7919,"Ġmarcus":7920,"Ġhitting":7921,"Ġextreme":7922,"Ġmagistrate":7923,"Ġmandatory":7924,"environmental":7925,"Ġprospect":7926,"gender":7927,"late":7928,"sunday":7929,"Ġpond":7930,"Ġgone":7931,"Ġlov":7932,"Ġech":7933,"Ġflies":7934,"owners":7935,"Ġsla":7936,"orders":7937,"phone":7938,"Ġfighters":7939,"Ġadvance":7940,"Ġpraised":7941,"Ġnegative":7942,"Ġforecasts":7943,"Ġlessons":7944,"pilbara":7945,"campbell":7946,"european":7947,"lims":7948,"mes":7949,"Ġwent":7950,"Ġstuck":7951,"Ġalgae":7952,"awi":7953,"Ġfeels":7954,"Ġcostly":7955,"Ġrestructure":7956,"Ġlibya":7957,"Ġrevenge":7958,"Ġacquitted":7959,"Ġipswich":7960,"nal":7961,"Ġactor":7962,"Ġbac":7963,"Ġmack":7964,"Ġjakarta":7965,"udds":7966,"lyn":7967,"Ġtraders":7968,"prime":7969,"Ġgrave":7970,"Ġbars":7971,"Ġembar":7972,"italy":7973,"Ġteenagers":7974,"Ġpilots":7975,"planet":7976,"Ġhamas":7977,"Ġoust":7978,"ju":7979,"math":7980,"Ġtender":7981,"thel":7982,"Ġkil":7983,"shares":7984,"agher":7985,"Ġbackyard":7986,"Ġairline":7987,"warr":7988,"Ġfallout":7989,"Ġobesity":7990,"Ġaugusta":7991,"rescue":7992,"Ġlodge":7993,"yond":7994,"Ġsir":7995,"Ġwashington":7996,"Ġhidden":7997,"Ġlists":7998,"Ġreass":7999,"acked":8000,"Ġroos":8001,"rome":8002,"Ġalong":8003,"Ġslip":8004,"pher":8005,"worlds":8006,"Ġbailout":8007,"Ġfleet":8008,"Ġshelter":8009,"Ġivan":8010,"bin":8011,"cab":8012,"fig":8013,"kore":8014,"ping":8015,"tali":8016,"Ġfert":8017,"Ġhughes":8018,"Ġgreece":8019,"changes":8020,"Ġkay":8021,"Ġovert":8022,"eller":8023,"Ġflinders":8024,"warne":8025,"ukraine":8026,"ennon":8027,"sunshine":8028,"Ġviews":8029,"taliban":8030,"aria":8031,"Ġbump":8032,"Ġwast":8033,"Ġhan":8034,"akadu":8035,"Ġshane":8036,"Ġheats":8037,"Ġcruc":8038,"Ġimages":8039,"Ġhunger":8040,"ijsters":8041,"Ġwayne":8042,"Ġmalaysian":8043,"palmer":8044,"Ġprecinct":8045,"ookaburras":8046,"bies":8047,"enance":8048,"idency":8049,"Ġbecause":8050,"Ġarg":8051,"Ġsolomon":8052,"Ġelizabeth":8053,"Ġjulia":8054,"Ġcivilians":8055,"Ġethanol":8056,"independent":8057,"mildura":8058,"too":8059,"Ġpur":8060,"rot":8061,"ersey":8062,"agon":8063,"Ġquarters":8064,"Ġoldest":8065,"serena":8066,"Ġattracts":8067,"Ġmaternity":8068,"niger":8069,"oz":8070,"inf":8071,"Ġpaint":8072,"Ġdamp":8073,"ceed":8074,"Ġseam":8075,"Ġarthur":8076,"Ġwaratahs":8077,"Ġfoundation":8078,"Ġamalg":8079,"cred":8080,"riverina":8081,"matildas":8082,"Ġschedule":8083,"eal":8084,"geraldton":8085,"mary":8086,"ski":8087,"taiwan":8088,"ware":8089,"Ġfeder":8090,"Ġthefts":8091,"Ġbackfl":8092,"flu":8093,"Ġextrem":8094,"Ġdiabetes":8095,"Ġappearance":8096,"transport":8097,"dpp":8098,"dutch":8099,"Ġug":8100,"Ġtaste":8101,"Ġbug":8102,"iona":8103,"Ġalone":8104,"Ġlawsuit":8105,"Ġportra":8106,"coffs":8107,"lou":8108,"Ġcave":8109,"Ġwellington":8110,"lete":8111,"asian":8112,"Ġapprent":8113,"Ġeleph":8114,"propos":8115,"Ġdecade":8116,"Ġcheap":8117,"Ġaffairs":8118,"Ġcurfew":8119,"Ġconcedes":8120,"rebels":8121,"Ġvulner":8122,"ien":8123,"trial":8124,"wart":8125,"Ġbio":8126,"Ġmail":8127,"Ġinstitute":8128,"Ġstable":8129,"anderson":8130,"Ġchasing":8131,"Ġoverturn":8132,"ument":8133,"weight":8134,"Ġallows":8135,"Ġlooming":8136,"Ġescal":8137,"singapore":8138,"dubbo":8139,"Ġsac":8140,"Ġger":8141,"Ġrough":8142,"Ġrivals":8143,"Ġdementia":8144,"Ġvital":8145,"Ġspons":8146,"Ġdownplays":8147,"Ġcaution":8148,"Ġdemocrats":8149,"Ġdeveloper":8150,"Ġprograms":8151,"Ġmaiden":8152,"Ġracial":8153,"Ġinspires":8154,"Ġsubsidy":8155,"Ġkidnapping":8156,"Ġsaddam":8157,"istleblower":8158,"cash":8159,"same":8160,"Ġcos":8161,"Ġfier":8162,"eland":8163,"Ġreax":8164,"atha":8165,"Ġsurve":8166,"Ġsolid":8167,"tourist":8168,"Ġtorch":8169,"Ġrecalls":8170,"Ġregulations":8171,"Ġgraziers":8172,"25":8173,"final":8174,"lift":8175,"som":8176,"Ġtan":8177,"Ġnov":8178,"chn":8179,"Ġabalone":8180,"Ġdrilling":8181,"Ġbrut":8182,"phil":8183,"mined":8184,"Ġpolitician":8185,"Ġhunters":8186,"coles":8187,"Ġtuna":8188,"richard":8189,"clinton":8190,"jam":8191,"uing":8192,"wagga":8193,"Ġtoad":8194,"Ġsting":8195,"Ġstood":8196,"Ġjon":8197,"Ġunable":8198,"should":8199,"undine":8200,"Ġproteas":8201,"Ġmilestone":8202,"Ġgeorg":8203,"Ġimproving":8204,"trade":8205,"germany":8206,"Ġjeff":8207,"ricanes":8208,"respond":8209,"fme":8210,"mult":8211,"nats":8212,"Ġtap":8213,"Ġlane":8214,"Ġlatham":8215,"Ġcler":8216,"Ġexcl":8217,"Ġurban":8218,"Ġcanola":8219,"womens":8220,"Ġcollect":8221,"Ġhurricane":8222,"Ġgirlfriend":8223,"schools":8224,"Ġapologise":8225,"packers":8226,"Ġtanker":8227,"Ġfuels":8228,"Ġhavoc":8229,"liv":8230,"nia":8231,"pent":8232,"Ġtail":8233,"Ġkos":8234,"employ":8235,"ifer":8236,"Ġdisrupt":8237,"etery":8238,"Ġdeclar":8239,"Ġassessment":8240,"homeless":8241,"Ġadvocate":8242,"thorpe":8243,"Ġavailable":8244,"bing":8245,"pour":8246,"orange":8247,"Ġamp":8248,"Ġpine":8249,"Ġonto":8250,"Ġmurdoch":8251,"Ġfrancis":8252,"Ġsurfing":8253,"Ġbonus":8254,"councillors":8255,"Ġump":8256,"Ġpurch":8257,"elwood":8258,"Ġstopp":8259,"ivan":8260,"Ġbrid":8261,"Ġenvoy":8262,"Ġrestore":8263,"Ġtariff":8264,"Ġburied":8265,"Ġdiver":8266,"Ġlandslide":8267,"Ġbungle":8268,"Ġmoments":8269,"Ġscreen":8270,"bikie":8271,"Ġcounselling":8272,"Ġwraps":8273,"jd":8274,"Ġcem":8275,"Ġdive":8276,"ici":8277,"Ġlag":8278,"ersen":8279,"ulpt":8280,"Ġtrek":8281,"Ġdelivery":8282,"ambodian":8283,"Ġladen":8284,"Ġcarnival":8285,"Ġclimbs":8286,"welf":8287,"Ġmr":8288,"Ġndis":8289,"Ġrig":8290,"udes":8291,"Ġcopper":8292,"Ġtrawler":8293,"Ġtrend":8294,"Ġfirearm":8295,"Ġ2011":8296,"Ġdengue":8297,"strata":8298,"Ġopportunity":8299,"Ġkoala":8300,"Ġsweet":8301,"Ġnarrow":8302,"Ġlucas":8303,"tributes":8304,"Ġnewspaper":8305,"Ġsens":8306,"Ġsound":8307,"Ġpedestrian":8308,"usaders":8309,"Ġconvention":8310,"Ġshines":8311,"bourne":8312,"combe":8313,"Ġhardie":8314,"Ġadvertising":8315,"severe":8316,"cri":8317,"zes":8318,"Ġcass":8319,"Ġwells":8320,"Ġrequ":8321,"iment":8322,"ived":8323,"Ġscen":8324,"Ġneil":8325,"Ġpaying":8326,"Ġdrain":8327,"Ġshootings":8328,"Ġsearching":8329,"Ġadopt":8330,"Ġconnect":8331,"Ġfrustrated":8332,"Ġmeningococcal":8333,"griff":8334,"welfare":8335,"370":8336,"djokovic":8337,"iod":8338,"uber":8339,"onia":8340,"online":8341,"Ġwif":8342,"olds":8343,"amine":8344,"Ġjason":8345,"Ġbligh":8346,"Ġdrun":8347,"indee":8348,"duce":8349,"etti":8350,"Ġcoles":8351,"Ġadviser":8352,"Ġtreaty":8353,"Ġcatches":8354,"Ġimportant":8355,"Ġdisappearance":8356,"18":8357,"40":8358,"mck":8359,"Ġpill":8360,"Ġdumps":8361,"Ġtool":8362,"Ġgps":8363,"ete":8364,"Ġrid":8365,"ques":8366,"tegr":8367,"ahu":8368,"Ġcriticise":8369,"Ġrestored":8370,"Ġzero":8371,"Ġpromised":8372,"Ġpanic":8373,"tourists":8374,"Ġsamoa":8375,"Ġmarshall":8376,"Ġarabia":8377,"Ġreshuffle":8378,"Ġreign":8379,"Ġunity":8380,"Ġabused":8381,"Ġbuses":8382,"Ġopened":8383,"Ġbailey":8384,"Ġmayoral":8385,"Ġlimbo":8386,"demons":8387,"Ġinvolvement":8388,"Ġdubai":8389,"covid":8390,"iott":8391,"mos":8392,"nuclear":8393,"Ġdpp":8394,"Ġlyn":8395,"Ġjer":8396,"agl":8397,"ache":8398,"Ġconfr":8399,"Ġbushrangers":8400,"Ġsalmon":8401,"Ġbeaten":8402,"Ġsignals":8403,"Ġsavings":8404,"Ġignoring":8405,"Ġfavourite":8406,"Ġmistake":8407,"fifa":8408,"fmeu":8409,"bc":8410,"zc":8411,"Ġbows":8412,"isons":8413,"Ġothers":8414,"Ġgordon":8415,"Ġnato":8416,"ths":8417,"Ġministry":8418,"Ġdetect":8419,"Ġtropical":8420,"Ġteenage":8421,"Ġbags":8422,"buds":8423,"Ġaudio":8424,"consumer":8425,"Ġoyster":8426,"ener":8427,"Ġastr":8428,"Ġpell":8429,"Ġmart":8430,"icip":8431,"Ġlng":8432,"gee":8433,"coln":8434,"Ġtoilet":8435,"Ġancient":8436,"flying":8437,"gate":8438,"pir":8439,"samo":8440,"enary":8441,"ita":8442,"Ġgut":8443,"Ġshooter":8444,"utional":8445,"Ġblair":8446,"Ġdrunk":8447,"odes":8448,"Ġbrew":8449,"Ġsmashes":8450,"Ġrefinery":8451,"Ġescapee":8452,"guard":8453,"Ġextradited":8454,"Ġscotland":8455,"titans":8456,"hack":8457,"haz":8458,"mg":8459,"Ġsid":8460,"isc":8461,"Ġshots":8462,"Ġplague":8463,"Ġblind":8464,"ipoli":8465,"Ġwarner":8466,"Ġexpands":8467,"coon":8468,"Ġinterstate":8469,"ixon":8470,"burma":8471,"Ġtackles":8472,"load":8473,"american":8474,"football":8475,"Ġexposed":8476,"locals":8477,"refugee":8478,"epp":8479,"google":8480,"nd":8481,"wollongong":8482,"Ġet":8483,"Ġcad":8484,"Ġcertain":8485,"Ġbrian":8486,"Ġmi":8487,"chem":8488,"Ġoffshore":8489,"Ġalb":8490,"ismore":8491,"draft":8492,"Ġmyanmar":8493,"woolworths":8494,"Ġslammed":8495,"joyce":8496,"Ġmaintenance":8497,"Ġweighs":8498,"Ġresolve":8499,"hurricane":8500,"heart":8501,"hing":8502,"inate":8503,"Ġpicks":8504,"isf":8505,"urt":8506,"Ġkph":8507,"aka":8508,"quate":8509,"earson":8510,"Ġaircraft":8511,"Ġmovement":8512,"Ġsignificant":8513,"Ġpainting":8514,"Ġretailers":8515,"Ġpatrols":8516,"Ġinfluence":8517,"Ġcrucial":8518,"poor":8519,"inho":8520,"Ġcable":8521,"Ġdutton":8522,"Ġwish":8523,"ras":8524,"Ġspect":8525,"Ġcomfort":8526,"Ġtram":8527,"Ġanx":8528,"Ġcontroll":8529,"inside":8530,"barnaby":8531,"Ġtowers":8532,"Ġsquee":8533,"Ġstatue":8534,"Ġhangs":8535,"Ġbureau":8536,"Ġtravellers":8537,"Ġprincipal":8538,"convicted":8539,"div":8540,"kie":8541,"keeper":8542,"Ġtong":8543,"Ġcinem":8544,"Ġhook":8545,"Ġhearings":8546,"Ġblackout":8547,"launceston":8548,"Ġstronger":8549,"diam":8550,"secution":8551,"Ġbaiting":8552,"Ġprovides":8553,"Ġliquid":8554,"Ġbronze":8555,"figures":8556,"katherine":8557,"Ġul":8558,"Ġcongo":8559,"Ġshipping":8560,"Ġscholar":8561,"Ġconsumers":8562,"Ġmedals":8563,"Ġshoots":8564,"ologists":8565,"Ġdestr":8566,"Ġfifa":8567,"Ġwimmera":8568,"Ġnegotiations":8569,"celona":8570,"Ġvulnerable":8571,"journal":8572,"putin":8573,"vill":8574,"Ġmut":8575,"Ġlion":8576,"Ġstakes":8577,"Ġjar":8578,"Ġunivers":8579,"Ġcox":8580,"Ġscor":8581,"prim":8582,"intage":8583,"Ġhere":8584,"mariners":8585,"Ġmorris":8586,"Ġerosion":8587,"Ġsporting":8588,"Ġtroubled":8589,"salv":8590,"fij":8591,"huge":8592,"little":8593,"sat":8594,"sand":8595,"sudan":8596,"vot":8597,"Ġtie":8598,"Ġfighter":8599,"Ġbub":8600,"Ġinnings":8601,"igue":8602,"Ġjew":8603,"Ġrogers":8604,"Ġboth":8605,"Ġconfusion":8606,"boomers":8607,"canada":8608,"Ġcountries":8609,"isbanes":8610,"Ġbattling":8611,"known":8612,"Ġombuds":8613,"kel":8614,"past":8615,"tin":8616,"wes":8617,"Ġpie":8618,"stock":8619,"Ġshown":8620,"Ġshakes":8621,"abul":8622,"Ġbeating":8623,"Ġrodeo":8624,"minent":8625,"Ġgrab":8626,"winds":8627,"Ġemb":8628,"Ġshortages":8629,"Ġbench":8630,"Ġreopening":8631,"Ġnormal":8632,"sky":8633,"Ġcorporate":8634,"Ġgardens":8635,"music":8636,"female":8637,"greek":8638,"kids":8639,"mitchell":8640,"Ġwing":8641,"Ġgot":8642,"Ġstrain":8643,"Ġeat":8644,"Ġkashmir":8645,"Ġnoise":8646,"Ġmeetings":8647,"Ġcolin":8648,"Ġfracking":8649,"burg":8650,"Ġexperi":8651,"Ġexecution":8652,"Ġsinking":8653,"Ġwarrant":8654,"economic":8655,"volunteers":8656,"auc":8657,"bah":8658,"cool":8659,"gian":8660,"govts":8661,"po":8662,"Ġats":8663,"Ġbites":8664,"Ġtobac":8665,"shoot":8666,"Ġcarers":8667,"Ġcorby":8668,"phot":8669,"Ġgraffiti":8670,"medic":8671,"Ġpromote":8672,"Ġlabelling":8673,"Ġobject":8674,"Ġbelow":8675,"Ġmagpies":8676,"Ġsatellite":8677,"doubts":8678,"kangaroo":8679,"Ġdifferent":8680,"Ġessendon":8681,"Ġtemperatures":8682,"bom":8683,"jud":8684,"las":8685,"tamworth":8686,"inity":8687,"Ġdal":8688,"osen":8689,"Ġseafood":8690,"essed":8691,"ugal":8692,"Ġprint":8693,"bega":8694,"Ġcontinued":8695,"Ġinterim":8696,"umbai":8697,"Ġstret":8698,"Ġprofessor":8699,"Ġpakistani":8700,"ughters":8701,"craig":8702,"Ġtomic":8703,"special":8704,"Ġecstasy":8705,"earthquake":8706,"Ġrecruitment":8707,"Ġseparate":8708,"nbl":8709,"Ġcry":8710,"rev":8711,"Ġmush":8712,"Ġhaving":8713,"Ġchicken":8714,"aching":8715,"elaides":8716,"Ġheaded":8717,"ferguson":8718,"Ġstaffing":8719,"Ġtargeting":8720,"Ġimproved":8721,"Ġvoluntary":8722,"Ġballot":8723,"Ġwalking":8724,"Ġestab":8725,"Ġcasual":8726,"Ġconnection":8727,"60":8728,"lot":8729,"Ġib":8730,"Ġtickets":8731,"eton":8732,"Ġranks":8733,"Ġstosur":8734,"amas":8735,"oses":8736,"ago":8737,"Ġimpl":8738,"Ġcorner":8739,"alex":8740,"Ġmarina":8741,"Ġmodern":8742,"Ġmilan":8743,"Ġ75":8744,"teenage":8745,"committ":8746,"Ġemployee":8747,"citrus":8748,"Ġtobacco":8749,"hmann":8750,"mum":8751,"sadd":8752,"wreck":8753,"Ġens":8754,"inion":8755,"alds":8756,"Ġhu":8757,"staff":8758,"Ġgate":8759,"ewells":8760,"Ġspying":8761,"Ġunderground":8762,"Ġboosted":8763,"okie":8764,"Ġrelie":8765,"atorium":8766,"Ġteaching":8767,"Ġlabelled":8768,"malaysian":8769,"Ġsacks":8770,"Ġsilent":8771,"snowy":8772,"200":8773,"candid":8774,"tafe":8775,"Ġpad":8776,"iculture":8777,"Ġnazi":8778,"Ġeasing":8779,"Ġbeyond":8780,"Ġwors":8781,"Ġresource":8782,"Ġbrink":8783,"Ġenjoy":8784,"Ġamnesty":8785,"Ġbrakes":8786,"Ġmills":8787,"glory":8788,"azz":8789,"Ġrelay":8790,"hamas":8791,"Ġprincess":8792,"zuk":8793,"Ġding":8794,"Ġhair":8795,"Ġocc":8796,"Ġstir":8797,"athy":8798,"Ġcamel":8799,"Ġprawn":8800,"soft":8801,"Ġcsiro":8802,"Ġcompromise":8803,"memor":8804,"alas":8805,"Ġcomb":8806,"bern":8807,"cony":8808,"Ġscg":8809,"Ġmargaret":8810,"Ġbetting":8811,"standing":8812,"Ġkennedy":8813,"Ġsuburb":8814,"Ġscreening":8815,"tomic":8816,"Ġgriffith":8817,"arthy":8818,"ciliation":8819,"addafi":8820,"dal":8821,"iner":8822,"Ġcambodia":8823,"Ġbark":8824,"Ġinmates":8825,"Ġratt":8826,"Ġchile":8827,"Ġplat":8828,"Ġroy":8829,"aily":8830,"Ġbarra":8831,"Ġvictorias":8832,"Ġsubmarine":8833,"Ġeffects":8834,"hockeyroos":8835,"Ġrumours":8836,"academic":8837,"mov":8838,"inction":8839,"Ġsource":8840,"Ġpies":8841,"ede":8842,"Ġhast":8843,"Ġbecoming":8844,"opard":8845,"Ġspent":8846,"mpians":8847,"ossible":8848,"Ġbravery":8849,"Ġrelax":8850,"Ġimpacts":8851,"Ġqlds":8852,"Ġcompete":8853,"Ġstuns":8854,"Ġadvocates":8855,"Ġpostponed":8856,"Ġsustainable":8857,"pherd":8858,"mah":8859,"paedophile":8860,"vandals":8861,"Ġmakers":8862,"Ġtokyo":8863,"stoner":8864,"Ġlunch":8865,"Ġkilda":8866,"Ġshocks":8867,"qual":8868,"clp":8869,"Ġphones":8870,"Ġassange":8871,"venile":8872,"Ġinfo":8873,"Ġimprovement":8874,"Ġathens":8875,"Ġnorman":8876,"Ġachie":8877,"Ġcemetery":8878,"fitz":8879,"ique":8880,"rates":8881,"uan":8882,"week":8883,"Ġtear":8884,"ready":8885,"icated":8886,"unemployment":8887,"adf":8888,"Ġvo":8889,"agle":8890,"armstrong":8891,"Ġscar":8892,"Ġtruce":8893,"althouse":8894,"Ġcorrespond":8895,"blast":8896,"Ġperiod":8897,"spain":8898,"Ġmiller":8899,"onaldo":8900,"Ġ199":8901,"Ġsinger":8902,"ulsory":8903,"bath":8904,"born":8905,"Ġsewer":8906,"itis":8907,"Ġhoon":8908,"Ġrspca":8909,"Ġstumps":8910,"chamber":8911,"Ġrome":8912,"berrans":8913,"Ġyellow":8914,"Ġagencies":8915,"renew":8916,"Ġreprieve":8917,"Ġdarfur":8918,"lightning":8919,"Ġbuyback":8920,"Ġbikies":8921,"injury":8922,"Ġsailors":8923,"Ġlyon":8924,"massive":8925,"Ġricky":8926,"civ":8927,"dun":8928,"luc":8929,"alia":8930,"estyle":8931,"usselton":8932,"Ġstricken":8933,"Ġpresence":8934,"Ġemotional":8935,"Ġraping":8936,"Ġdevastated":8937,"Ġtherapy":8938,"Ġlincoln":8939,"lack":8940,"Ġdere":8941,"Ġjay":8942,"ava":8943,"Ġadded":8944,"Ġbrought":8945,"Ġtexas":8946,"Ġtrainer":8947,"Ġturkish":8948,"oppn":8949,"Ġtracking":8950,"solomon":8951,"Ġberth":8952,"Ġfastest":8953,"Ġstephens":8954,"Ġkiwis":8955,"Ġdistrict":8956,"hamilton":8957,"ratha":8958,"upper":8959,"wife":8960,"orship":8961,"Ġfet":8962,"itude":8963,"irish":8964,"Ġvie":8965,"ighth":8966,"Ġsuu":8967,"toowoomba":8968,"Ġcommand":8969,"Ġminute":8970,"Ġslips":8971,"ichelle":8972,"Ġpresent":8973,"Ġfarewells":8974,"Ġolder":8975,"Ġvisitor":8976,"Ġtrucks":8977,"Ġlockyer":8978,"Ġtwice":8979,"Ġoscar":8980,"Ġinclude":8981,"Ġideas":8982,"Ġguinea":8983,"Ġstopped":8984,"boo":8985,"fc":8986,"tree":8987,"Ġtamp":8988,"Ġbids":8989,"Ġmale":8990,"robert":8991,"Ġeffic":8992,"Ġsevens":8993,"abs":8994,"Ġraising":8995,"Ġword":8996,"waratahs":8997,"where":8998,"Ġcolomb":8999,"Ġforests":9000,"Ġdominates":9001,"Ġintroduce":9002,"Ġeggs":9003,"mobile":9004,"oalhaven":9005,"bri":9006,"bart":9007,"arrell":9008,"Ġhij":9009,"illawarra":9010,"manus":9011,"Ġworsen":9012,"Ġattorney":9013,"aird":9014,"phic":9015,"Ġ2010":9016,"Ġjudges":9017,"Ġbuilds":9018,"Ġhaiti":9019,"Ġforgotten":9020,"santos":9021,"Ġponders":9022,"aug":9023,"fake":9024,"hr":9025,"vo":9026,"Ġfij":9027,"iled":9028,"racing":9029,"Ġnich":9030,"Ġles":9031,"omer":9032,"Ġjordan":9033,"onski":9034,"Ġparad":9035,"Ġdemocr":9036,"Ġadvantage":9037,"Ġresearcher":9038,"Ġpalestinians":9039,"holden":9040,"rescuers":9041,"professor":9042,"hand":9043,"lus":9044,"icc":9045,"chip":9046,"Ġvice":9047,"Ġclo":9048,"agric":9049,"Ġexpensive":9050,"Ġcrocs":9051,"Ġeven":9052,"mystery":9053,"Ġemployees":9054,"Ġombudsman":9055,"penter":9056,"pedestrian":9057,"sons":9058,"tual":9059,"Ġsas":9060,"Ġsize":9061,"Ġports":9062,"Ġwounds":9063,"acons":9064,"aszc":9065,"Ġry":9066,"Ġcherry":9067,"Ġunch":9068,"Ġgrounds":9069,"Ġparamedics":9070,"icho":9071,"Ġbarry":9072,"Ġdams":9073,"Ġearn":9074,"Ġrobinson":9075,"Ġrecovered":9076,"Ġlimited":9077,"Ġfixed":9078,"Ġshepparton":9079,"Ġdawn":9080,"Ġmulls":9081,"Ġsmuggler":9082,"Ġpermit":9083,"Ġsituation":9084,"Ġtactics":9085,"mort":9086,"nic":9087,"Ġtall":9088,"Ġstroke":9089,"iano":9090,"Ġuncon":9091,"ardo":9092,"beyan":9093,"activ":9094,"Ġslash":9095,"Ġswap":9096,"Ġdramatic":9097,"Ġpapers":9098,"garrett":9099,"empts":9100,"Ġfifo":9101,"turkish":9102,"troops":9103,"Ġderailment":9104,"aun":9105,"maker":9106,"nell":9107,"nock":9108,"Ġsaga":9109,"atican":9110,"Ġhes":9111,"oles":9112,"Ġnobel":9113,"acity":9114,"unami":9115,"Ġknew":9116,"emark":9117,"Ġrot":9118,"Ġroger":9119,"ellor":9120,"clark":9121,"Ġcorners":9122,"peach":9123,"prote":9124,"prosecut":9125,"Ġburst":9126,"Ġsurfers":9127,"controvers":9128,"Ġautism":9129,"Ġmaxwell":9130,"Ġexplosives":9131,"nis":9132,"pig":9133,"anning":9134,"Ġpit":9135,"Ġox":9136,"Ġriding":9137,"Ġshadow":9138,"Ġblank":9139,"Ġscale":9140,"undi":9141,"banking":9142,"sports":9143,"ized":9144,"Ġfatality":9145,"Ġjunior":9146,"Ġsuffering":9147,"harvey":9148,"Ġmotorists":9149,"Ġdiggers":9150,"Ġrecognise":9151,"Ġaffordability":9152,"Ġbabys":9153,"Ġportrait":9154,"aszczuk":9155,"gang":9156,"try":9157,"was":9158,"Ġsad":9159,"ewen":9160,"tsunami":9161,"Ġyard":9162,"Ġprotected":9163,"glas":9164,"Ġglob":9165,"Ġpressures":9166,"Ġmuslims":9167,"Ġ89":9168,"Ġferr":9169,"Ġxenophon":9170,"iranian":9171,"Ġweapon":9172,"Ġintensifies":9173,"Ġfederation":9174,"dna":9175,"gard":9176,"master":9177,"pra":9178,"Ġfum":9179,"ulate":9180,"Ġjac":9181,"Ġminimum":9182,"Ġslows":9183,"Ġrefuse":9184,"uckland":9185,"Ġsoars":9186,"Ġlifes":9187,"opher":9188,"Ġpotter":9189,"Ġsecrets":9190,"Ġformula":9191,"Ġmotorbike":9192,"double":9193,"Ġpigs":9194,"lights":9195,"xon":9196,"Ġpa":9197,"Ġinput":9198,"Ġhob":9199,"Ġgym":9200,"olls":9201,"Ġneck":9202,"Ġslug":9203,"whel":9204,"umbs":9205,"Ġrevival":9206,"Ġmagn":9207,"developer":9208,"Ġboundary":9209,"Ġrehabil":9210,"Ġproducts":9211,"terrorism":9212,"Ġdetainee":9213,"eor":9214,"rence":9215,"anbeyan":9216,"Ġbos":9217,"itland":9218,"istics":9219,"enderson":9220,"Ġfloor":9221,"ogue":9222,"Ġtruth":9223,"appeal":9224,"Ġdecades":9225,"Ġcentrelink":9226,"azon":9227,"Ġcyclists":9228,"Ġicc":9229,"Ġmccarthy":9230,"anche":9231,"Ġaiming":9232,"Ġacademic":9233,"Ġcarrying":9234,"Ġhikes":9235,"Ġdredging":9236,"bid":9237,"but":9238,"nament":9239,"Ġmah":9240,"idays":9241,"chopper":9242,"Ġdean":9243,"Ġshops":9244,"manly":9245,"ishing":9246,"Ġdisrup":9247,"active":9248,"Ġslater":9249,"Ġconsp":9250,"Ġsmelter":9251,"Ġearnings":9252,"pread":9253,"cyclists":9254,"idespread":9255,"Ġencounter":9256,"Ġhayne":9257,"Ġkidnap":9258,"traditional":9259,"Ġaffordable":9260,"stanhope":9261,"Ġdrunken":9262,"boll":9263,"jun":9264,"md":9265,"rat":9266,"sum":9267,"uana":9268,"Ġti":9269,"geelong":9270,"Ġconvers":9271,"Ġcluster":9272,"show":9273,"conne":9274,"Ġbreed":9275,"Ġholden":9276,"Ġrespect":9277,"Ġrebound":9278,"myanmar":9279,"Ġdevil":9280,"Ġdaughters":9281,"Ġaffecting":9282,"Ġencouraged":9283,"Ġunsure":9284,"Ġbelieved":9285,"cut":9286,"goulburn":9287,"arf":9288,"Ġgears":9289,"Ġforesh":9290,"olly":9291,"Ġlou":9292,"Ġdeployment":9293,"Ġbeazley":9294,"Ġclock":9295,"psey":9296,"Ġfirefighter":9297,"Ġexpanded":9298,"Ġpharm":9299,"aii":9300,"ritor":9301,"heritage":9302,"Ġiranian":9303,"magpies":9304,"deadline":9305,"millions":9306,"Ġmums":9307,"nursing":9308,"Ġhampers":9309,"Ġrampage":9310,"traders":9311,"fairfax":9312,"inosaur":9313,"Ġknocked":9314,"cooper":9315,"Ġfry":9316,"Ġfinger":9317,"Ġrips":9318,"Ġvine":9319,"Ġmayors":9320,"izes":9321,"Ġoperating":9322,"morrow":9323,"Ġestim":9324,"Ġbalcony":9325,"growing":9326,"girls":9327,"Ġhoax":9328,"Ġsniffing":9329,"Ġravaged":9330,"hu":9331,"kir":9332,"infl":9333,"Ġoz":9334,"Ġric":9335,"Ġongoing":9336,"aba":9337,"derness":9338,"ems":9339,"nepal":9340,"Ġalready":9341,"Ġsett":9342,"ileaks":9343,"Ġvisas":9344,"Ġpatel":9345,"Ġmorgan":9346,"Ġseniors":9347,"Ġemerge":9348,"Ġmergers":9349,"Ġcurr":9350,"Ġrenewed":9351,"drugs":9352,"Ġdetermined":9353,"Ġrepublican":9354,"film":9355,"committee":9356,"proteas":9357,"hai":9358,"pi":9359,"sport":9360,"inner":9361,"Ġpray":9362,"ouston":9363,"Ġwickets":9364,"Ġhatch":9365,"leys":9366,"landers":9367,"Ġcarlton":9368,"Ġwaits":9369,"Ġtournament":9370,"onesias":9371,"Ġbega":9372,"Ġreligious":9373,"Ġadvent":9374,"bushfires":9375,"Ġentry":9376,"Ġdirectors":9377,"Ġtwins":9378,"Ġcreditors":9379,"Ġcrushed":9380,"Ġfeedback":9381,"Ġisolation":9382,"Ġdowngraded":9383,"iop":9384,"Ġpod":9385,"Ġintegr":9386,"Ġlying":9387,"Ġrez":9388,"Ġshape":9389,"Ġspeaking":9390,"winter":9391,"Ġstriking":9392,"Ġcollingwood":9393,"Ġroyalties":9394,"Ġpengu":9395,"fishers":9396,"Ġwheatbelt":9397,"suspicious":9398,"Ġbottom":9399,"hotel":9400,"tropical":9401,"Ġinnovation":9402,"dollar":9403,"lu":9404,"pow":9405,"pap":9406,"Ġtook":9407,"illance":9408,"Ġspurs":9409,"Ġunknown":9410,"Ġabol":9411,"oda":9412,"Ġcommod":9413,"Ġminutes":9414,"Ġsettles":9415,"ministers":9416,"ological":9417,"ylan":9418,"Ġapart":9419,"Ġupsets":9420,"Ġminerals":9421,"Ġmortgage":9422,"keepers":9423,"Ġsewage":9424,"Ġembarrass":9425,"een":9426,"mike":9427,"sor":9428,"eries":9429,"Ġccc":9430,"icultural":9431,"Ġhq":9432,"ila":9433,"owan":9434,"Ġvale":9435,"Ġconver":9436,"Ġspokes":9437,"Ġcontained":9438,"Ġcalling":9439,"Ġterry":9440,"Ġprotester":9441,"Ġdecider":9442,"Ġcapacity":9443,"Ġdemon":9444,"Ġcosting":9445,"Ġlandmark":9446,"Ġsalary":9447,"Ġstaffer":9448,"Ġvalues":9449,"highway":9450,"arraf":9451,"Ġdevice":9452,"Ġlicences":9453,"woodside":9454,"violence":9455,"Ġconfront":9456,"21":9457,"greece":9458,"Ġcia":9459,"Ġreally":9460,"unun":9461,"Ġros":9462,"Ġcole":9463,"Ġradar":9464,"Ġattempts":9465,"Ġfirefighting":9466,"Ġpresidency":9467,"Ġdiscip":9468,"oked":9469,"Ġbutter":9470,"Ġtitles":9471,"Ġsixth":9472,"Ġburnett":9473,"Ġfigure":9474,"Ġcoffee":9475,"muslim":9476,"embly":9477,"Ġinitiative":9478,"stephen":9479,"buck":9480,"kelly":9481,"mail":9482,"nap":9483,"Ġcough":9484,"Ġcope":9485,"Ġhell":9486,"Ġgymp":9487,"abilities":9488,"Ġpricing":9489,"Ġwarne":9490,"Ġcarol":9491,"Ġbacked":9492,"swine":9493,"Ġphase":9494,"Ġsuperannuation":9495,"Ġstandard":9496,"golden":9497,"Ġblocked":9498,"Ġbatting":9499,"Ġlogan":9500,"speed":9501,"beaten":9502,"ujah":9503,"Ġdereg":9504,"fly":9505,"rets":9506,"atters":9507,"Ġparent":9508,"grant":9509,"ikileaks":9510,"Ġleaked":9511,"Ġgenerations":9512,"Ġcycle":9513,"Ġscraps":9514,"Ġadoption":9515,"Ġprospects":9516,"soldiers":9517,"jericho":9518,"Ġbackflip":9519,"Ġgympie":9520,"nato":9521,"rise":9522,"take":9523,"uz":9524,"inds":9525,"Ġpoo":9526,"Ġol":9527,"rose":9528,"Ġreacts":9529,"Ġrand":9530,"Ġrsl":9531,"Ġflames":9532,"coni":9533,"Ġschu":9534,"Ġcentenary":9535,"Ġtalent":9536,"Ġeconomist":9537,"Ġsubst":9538,"broad":9539,"Ġstaying":9540,"Ġdisputes":9541,"Ġ250":9542,"Ġinflux":9543,"Ġarmidale":9544,"bunbury":9545,"Ġfrog":9546,"Ġdip":9547,"Ġmun":9548,"roddick":9549,"elps":9550,"Ġconcess":9551,"Ġplaced":9552,"outube":9553,"Ġclay":9554,"endul":9555,"Ġbrush":9556,"Ġsculpt":9557,"Ġacts":9558,"Ġmilitant":9559,"Ġshipment":9560,"Ġfinished":9561,"Ġsurprises":9562,"Ġrecruits":9563,"Ġelectorate":9564,"officer":9565,"Ġfranklin":9566,"Ġintroduces":9567,"Ġ666":9568,"aconsfield":9569,"feld":9570,"kookaburras":9571,"Ġborders":9572,"Ġwaves":9573,"Ġgoogle":9574,"Ġrip":9575,"adic":9576,"Ġshell":9577,"Ġleaks":9578,"beckham":9579,"hey":9580,"Ġparramatta":9581,"Ġactions":9582,"adequate":9583,"Ġsalt":9584,"worker":9585,"Ġrichards":9586,"fremantle":9587,"springborg":9588,"Ġentitlements":9589,"sail":9590,"inals":9591,"anthony":9592,"ingu":9593,"Ġtomorrow":9594,"rians":9595,"Ġovercrow":9596,"Ġoutage":9597,"Ġwarren":9598,"resources":9599,"Ġphys":9600,"Ġpresidents":9601,"ughan":9602,"grey":9603,"Ġinfection":9604,"ruddock":9605,"charge":9606,"Ġbowling":9607,"Ġepid":9608,"evans":9609,"Ġwetlands":9610,"Ġcooperation":9611,"Ġhappened":9612,"Ġmultiple":9613,"bos":9614,"cross":9615,"gium":9616,"ls":9617,"nat":9618,"rith":9619,"Ġtibet":9620,"Ġsigning":9621,"Ġfields":9622,"Ġwre":9623,"uranium":9624,"etri":9625,"Ġconst":9626,"Ġpride":9627,"itsch":9628,"Ġtrue":9629,"Ġwaterfront":9630,"blood":9631,"Ġsuspend":9632,"spanish":9633,"Ġcontractors":9634,"Ġepa":9635,"crocs":9636,"Ġjetty":9637,"shorten":9638,"hit":9639,"prom":9640,"arn":9641,"aron":9642,"Ġmate":9643,"uncertain":9644,"adows":9645,"umble":9646,"Ġwhistleblower":9647,"Ġslumps":9648,"inkler":9649,"Ġbillions":9650,"Ġgene":9651,"Ġlisted":9652,"Ġsanct":9653,"arctica":9654,"uxury":9655,"Ġphotographer":9656,"Ġbelieve":9657,"cameron":9658,"Ġwifes":9659,"Ġcinema":9660,"emarket":9661,"bod":9662,"jay":9663,"lucky":9664,"scor":9665,"zu":9666,"onent":9667,"Ġpin":9668,"illy":9669,"Ġselect":9670,"iana":9671,"Ġtrauma":9672,"axter":9673,"Ġupgraded":9674,"charity":9675,"Ġpipe":9676,"Ġgrip":9677,"Ġpsychiat":9678,"Ġwheelchair":9679,"Ġgriffin":9680,"Ġunclear":9681,"Ġpurchase":9682,"griffith":9683,"Ġcorrespondent":9684,"fton":9685,"Ġtick":9686,"Ġmourn":9687,"Ġwire":9688,"Ġtoy":9689,"Ġga":9690,"anghai":9691,"Ġcompass":9692,"Ġsteven":9693,"Ġbrave":9694,"callum":9695,"Ġtranspar":9696,"Ġholidays":9697,"Ġswimmers":9698,"belinda":9699,"Ġmessages":9700,"Ġmeatworks":9701,"henry":9702,"Ġstalls":9703,"Ġtweet":9704,"Ġrankings":9705,"decision":9706,"Ġnigeria":9707,"ihad":9708,"proposed":9709,"mack":9710,"aled":9711,"Ġpatt":9712,"Ġdial":9713,"oucest":9714,"Ġforrest":9715,"Ġriders":9716,"Ġabu":9717,"Ġali":9718,"Ġbyron":9719,"Ġattention":9720,"banana":9721,"Ġrunner":9722,"Ġending":9723,"glen":9724,"Ġeditor":9725,"Ġturnout":9726,"Ġhollywood":9727,"Ġbosses":9728,"Ġsprint":9729,"Ġshepherd":9730,"Ġallowance":9731,"Ġexpectations":9732,"lockyer":9733,"bowen":9734,"Ġcontractor":9735,"pear":9736,"anne":9737,"Ġfurn":9738,"iliser":9739,"Ġnest":9740,"Ġthose":9741,"aky":9742,"Ġmanchester":9743,"brid":9744,"ottest":9745,"grace":9746,"Ġfunded":9747,"Ġdelhi":9748,"byron":9749,"Ġsafer":9750,"Ġtaxes":9751,"Ġknown":9752,"Ġinsists":9753,"Ġfilms":9754,"Ġanglican":9755,"Ġrollover":9756,"internet":9757,"Ġmetro":9758,"Ġratings":9759,"Ġoutrage":9760,"webber":9761,"Ġunchanged":9762,"feral":9763,"makers":9764,"rfs":9765,"Ġscept":9766,"anner":9767,"Ġfury":9768,"Ġfoods":9769,"elves":9770,"Ġlung":9771,"igation":9772,"uly":9773,"Ġovercome":9774,"Ġrecovers":9775,"Ġgoals":9776,"Ġextinction":9777,"Ġedwards":9778,"tasmanians":9779,"steven":9780,"Ġpotato":9781,"magistrate":9782,"Ġbaseball":9783,"Ġhabit":9784,"Ġdeclaration":9785,"josh":9786,"Ġpist":9787,"Ġhate":9788,"Ġhart":9789,"Ġthump":9790,"Ġproud":9791,"conference":9792,"secre":9793,"Ġenrol":9794,"Ġtea":9795,"Ġimpeach":9796,"Ġreached":9797,"denberg":9798,"burst":9799,"Ġreportedly":9800,"Ġrelocation":9801,"Ġsubsidies":9802,"Ġcouples":9803,"Ġsqueeze":9804,"500":9805,"battle":9806,"cbh":9807,"gs":9808,"zar":9809,"Ġtab":9810,"Ġcert":9811,"itarian":9812,"Ġkakadu":9813,"umacher":9814,"Ġbees":9815,"agree":9816,"Ġslight":9817,"Ġ32":9818,"Ġdamaging":9819,"ijuana":9820,"Ġwatching":9821,"Ġlicens":9822,"Ġfoley":9823,"Ġcruises":9824,"Ġnominations":9825,"Ġplunges":9826,"eltic":9827,"Ġsmugglers":9828,"Ġgreyhound":9829,"gibbon":9830,"livestock":9831,"endulkar":9832,"easter":9833,"Ġpork":9834,"Ġdow":9835,"rop":9836,"oly":9837,"Ġnut":9838,"Ġlash":9839,"viation":9840,"Ġapply":9841,"Ġreminder":9842,"Ġtalking":9843,"lls":9844,"Ġsearches":9845,"Ġrobot":9846,"Ġdevelopers":9847,"Ġemerges":9848,"Ġelim":9849,"Ġinfect":9850,"Ġdismissal":9851,"Ġgallipoli":9852,"protests":9853,"Ġexamines":9854,"Ġshrugs":9855,"Ġuncovers":9856,"Ġqualifying":9857,"Ġassassination":9858,"ununurra":9859,"Ġtonga":9860,"Ġsab":9861,"Ġcult":9862,"enh":9863,"Ġdaily":9864,"itime":9865,"Ġrann":9866,"ably":9867,"Ġunearth":9868,"award":9869,"Ġdefy":9870,"Ġsurrender":9871,"Ġslipper":9872,"itters":9873,"Ġpushed":9874,"Ġrejection":9875,"Ġdarren":9876,"Ġpolicing":9877,"moil":9878,"morrison":9879,"slow":9880,"prisoner":9881,"helicopter":9882,"Ġempty":9883,"Ġpioneer":9884,"zuela":9885,"sar":9886,"tonga":9887,"wel":9888,"wach":9889,"Ġted":9890,"Ġpac":9891,"Ġwear":9892,"Ġwanderers":9893,"urban":9894,"asty":9895,"achlan":9896,"Ġguy":9897,"Ġsweeps":9898,"ombuds":9899,"Ġgram":9900,"enna":9901,"Ġgreenhouse":9902,"Ġbelt":9903,"Ġclinch":9904,"Ġwright":9905,"pakistani":9906,"Ġmedicine":9907,"Ġabandon":9908,"afghanistan":9909,"Ġcirc":9910,"Ġburglary":9911,"jetstar":9912,"Ġdestruction":9913,"cfa":9914,"qch":9915,"incre":9916,"Ġpic":9917,"Ġpink":9918,"amous":9919,"agh":9920,"Ġbrit":9921,"ffa":9922,"Ġservant":9923,"Ġamend":9924,"Ġbilliton":9925,"Ġterrorists":9926,"Ġstarting":9927,"Ġfrontbench":9928,"Ġdeclare":9929,"burke":9930,"Ġfollows":9931,"Ġcounts":9932,"Ġpermits":9933,"Ġchoose":9934,"Ġcampaigns":9935,"oucester":9936,"lop":9937,"Ġtennant":9938,"Ġhire":9939,"alled":9940,"Ġprosecution":9941,"quit":9942,"awe":9943,"Ġadf":9944,"assi":9945,"wait":9946,"Ġintercept":9947,"Ġplantation":9948,"Ġwindow":9949,"childcare":9950,"oultry":9951,"Ġcommittal":9952,"Ġcancel":9953,"donalds":9954,"Ġtorres":9955,"Ġmckenzie":9956,"Ġincentives":9957,"Ġsurveillance":9958,"Ġrelieved":9959,"jan":9960,"killer":9961,"vaile":9962,"Ġsending":9963,"esperance":9964,"rex":9965,"Ġlady":9966,"chin":9967,"geoff":9968,"Ġclp":9969,"odonga":9970,"industrial":9971,"Ġregrets":9972,"cannia":9973,"gladstone":9974,"Ġexplodes":9975,"Ġbribery":9976,"debate":9977,"Ġadvisory":9978,"fro":9979,"fox":9980,"has":9981,"Ġtam":9982,"Ġcells":9983,"Ġbias":9984,"Ġmyer":9985,"Ġinner":9986,"Ġstewart":9987,"shops":9988,"Ġabusing":9989,"ccc":9990,"Ġbloom":9991,"Ġmini":9992,"Ġhopman":9993,"Ġdecisions":9994,"Ġpassed":9995,"Ġaffects":9996,"Ġexporters":9997,"feed":9998,"Ġexcited":9999,"footage":10000,"eremy":10001,"Ġalexander":10002,"Ġreconciliation":10003,"customs":10004,"Ġfossil":10005,"memorial":10006,"cub":10007,"jason":10008,"lost":10009,"analyst":10010,"Ġpact":10011,"Ġrou":10012,"rien":10013,"Ġunif":10014,"uding":10015,"Ġrespite":10016,"typhoon":10017,"Ġdefies":10018,"Ġiraqis":10019,"Ġbrothel":10020,"Ġpreparations":10021,"Ġregulator":10022,"panthers":10023,"Ġpicture":10024,"Ġresidential":10025,"Ġembrace":10026,"Ġaddiction":10027,"Ġelephant":10028,"Ġepidemic":10029,"hs":10030,"origin":10031,"alan":10032,"Ġwield":10033,"stre":10034,"asi":10035,"Ġranges":10036,"andy":10037,"irt":10038,"Ġkh":10039,"uto":10040,"emont":10041,"inehart":10042,"Ġcoord":10043,"ieu":10044,"angle":10045,"Ġcompulsory":10046,"appro":10047,"paris":10048,"Ġballoon":10049,"Ġswimmer":10050,"Ġeverest":10051,"Ġdetermine":10052,"Ġmcgowan":10053,"parties":10054,"Ġreplaces":10055,"Ġtemporary":10056,"Ġghost":10057,"bathurst":10058,"cope":10059,"hind":10060,"Ġwy":10061,"Ġgag":10062,"Ġlpga":10063,"Ġchef":10064,"Ġplum":10065,"plate":10066,"Ġcrashing":10067,"bris":10068,"Ġbarca":10069,"Ġcounting":10070,"Ġeden":10071,"Ġrobbers":10072,"Ġtransplant":10073,"task":10074,"Ġdiving":10075,"Ġpublish":10076,"Ġtightens":10077,"Ġrecalled":10078,"politicians":10079,"Ġdeported":10080,"Ġrepeat":10081,"veteran":10082,"mexico":10083,"ombudsman":10084,"cmc":10085,"lane":10086,"mh":10087,"names":10088,"ui":10089,"Ġpets":10090,"Ġbour":10091,"Ġhind":10092,"aculture":10093,"Ġvoices":10094,"celebr":10095,"Ġjen":10096,"Ġprisons":10097,"Ġmaroons":10098,"heim":10099,"prise":10100,"Ġgoat":10101,"Ġdiesel":10102,"flash":10103,"when":10104,"Ġcampaigner":10105,"Ġmoratorium":10106,"letics":10107,"cessary":10108,"palm":10109,"Ġgreatest":10110,"Ġorganic":10111,"suspended":10112,"retailers":10113,"ciardo":10114,"grove":10115,"Ġbangkok":10116,"Ġdirty":10117,"Ġsewerage":10118,"inflation":10119,"jon":10120,"went":10121,"anic":10122,"ania":10123,"english":10124,"Ġbah":10125,"Ġinadequate":10126,"Ġheist":10127,"Ġfinances":10128,"Ġflown":10129,"Ġtext":10130,"Ġimminent":10131,"zech":10132,"uca":10133,"Ġpresenter":10134,"Ġelders":10135,"Ġgrandstand":10136,"critic":10137,"fisherman":10138,"ietersen":10139,"cassidy":10140,"hon":10141,"yon":10142,"Ġmira":10143,"stabb":10144,"Ġnasa":10145,"Ġreason":10146,"igines":10147,"umn":10148,"Ġspared":10149,"Ġoffices":10150,"ffield":10151,"Ġmissed":10152,"Ġchildhood":10153,"Ġreporters":10154,"Ġdealer":10155,"Ġprese":10156,"colomb":10157,"Ġangel":10158,"urah":10159,"Ġcancell":10160,"Ġspecialist":10161,"maccallum":10162,"keeping":10163,"Ġbureauc":10164,"Ġhodg":10165,"witnesses":10166,"Ġfiery":10167,"Ġbrutal":10168,"could":10169,"dire":10170,"fds":10171,"mouth":10172,"Ġtwin":10173,"roberts":10174,"Ġrecons":10175,"Ġyarra":10176,"Ġagents":10177,"itsub":10178,"cery":10179,"Ġboating":10180,"crean":10181,"drone":10182,"Ġasset":10183,"Ġinsiders":10184,"brexit":10185,"murdoch":10186,"Ġlobbies":10187,"csg":10188,"Ġnomination":10189,"Ġramps":10190,"Ġhazard":10191,"Ġsurrounds":10192,"Ġcronulla":10193,"danger":10194,"lord":10195,"tv":10196,"Ġauckland":10197,"Ġmath":10198,"Ġmumbai":10199,"Ġhorn":10200,"Ġforms":10201,"Ġnature":10202,"Ġlan":10203,"connor":10204,"Ġbushland":10205,"Ġbarnaby":10206,"Ġreviewed":10207,"Ġskilled":10208,"Ġfocused":10209,"Ġcastle":10210,"Ġpubs":10211,"Ġcaptaincy":10212,"Ġencourage":10213,"Ġexplainer":10214,"gallop":10215,"deputy":10216,"Ġconspiracy":10217,"iency":10218,"mun":10219,"mart":10220,"Ġpile":10221,"rays":10222,"Ġgonski":10223,"urgent":10224,"Ġchosen":10225,"Ġvandals":10226,"Ġindust":10227,"ishi":10228,"awb":10229,"aware":10230,"Ġopinion":10231,"Ġworkforce":10232,"brumby":10233,"Ġturtles":10234,"Ġcheaper":10235,"cycling":10236,"Ġlowest":10237,"udgee":10238,"incup":10239,"Ġdrowned":10240,"contract":10241,"Ġdistur":10242,"Ġgrazing":10243,"Ġintroduced":10244,"large":10245,"Ġdeparture":10246,"military":10247,"Ġtornado":10248,"Ġdolphin":10249,"Ġdefeats":10250,"Ġatsic":10251,"lusconi":10252,"Ġpreseason":10253,"talking":10254,"uay":10255,"Ġtuck":10256,"Ġcath":10257,"Ġfaster":10258,"Ġfewer":10259,"Ġbones":10260,"angry":10261,"ardon":10262,"keys":10263,"bla":10264,"Ġregime":10265,"Ġlaugh":10266,"Ġearlier":10267,"Ġbuilders":10268,"Ġpreparing":10269,"Ġwalsh":10270,"Ġvaccination":10271,"Ġblockade":10272,"Ġcreating":10273,"Ġboundaries":10274,"Ġsynd":10275,"decided":10276,"Ġacademy":10277,"Ġallocation":10278,"Ġprinces":10279,"doc":10280,"rum":10281,"Ġaur":10282,"Ġmud":10283,"Ġine":10284,"Ġinaug":10285,"Ġstats":10286,"amnesty":10287,"Ġjewell":10288,"Ġshaw":10289,"Ġundecided":10290,"ensen":10291,"shots":10292,"icted":10293,"Ġtrap":10294,"after":10295,"oola":10296,"attack":10297,"enced":10298,"Ġremarks":10299,"victims":10300,"Ġturmoil":10301,"Ġrevised":10302,"Ġqatar":10303,"broke":10304,"radio":10305,"Ġroadside":10306,"Ġmajority":10307,"emicals":10308,"Ġkenya":10309,"Ġfisheries":10310,"Ġjeopard":10311,"Ġnye":10312,"Ġpromotion":10313,"Ġresistance":10314,"Ġgeorgia":10315,"Ġscenes":10316,"chemical":10317,"lian":10318,"Ġsitting":10319,"arsenal":10320,"Ġaviation":10321,"Ġinland":10322,"Ġthur":10323,"champ":10324,"Ġchain":10325,"Ġvers":10326,"oston":10327,"Ġexpo":10328,"Ġtestifies":10329,"Ġheroes":10330,"Ġload":10331,"Ġcollins":10332,"Ġaval":10333,"cru":10334,"Ġimproves":10335,"Ġquarry":10336,"Ġmetal":10337,"stitution":10338,"Ġtoddlers":10339,"macquarie":10340,"Ġdistrib":10341,"Ġdiplomatic":10342,"orius":10343,"Ġdocumentary":10344,"Ġdeposit":10345,"hingya":10346,"etriou":10347,"Ġsyndrome":10348,"fans":10349,"kg":10350,"Ġsi":10351,"Ġcul":10352,"arab":10353,"Ġmd":10354,"roc":10355,"chool":10356,"chetti":10357,"Ġji":10358,"Ġplains":10359,"Ġspell":10360,"ogan":10361,"Ġmex":10362,"Ġpleas":10363,"Ġboomers":10364,"Ġsimpson":10365,"Ġfairfax":10366,"Ġrecycled":10367,"cad":10368,"lc":10369,"making":10370,"xenophon":10371,"order":10372,"Ġpon":10373,"Ġmouth":10374,"Ġolive":10375,"usalem":10376,"asons":10377,"Ġvari":10378,"Ġjockey":10379,"essional":10380,"Ġabduct":10381,"reef":10382,"Ġpred":10383,"Ġretrial":10384,"pex":10385,"Ġrecorded":10386,"Ġdivor":10387,"Ġsparked":10388,"Ġsharp":10389,"Ġmembership":10390,"Ġaware":10391,"history":10392,"friends":10393,"Ġadministrator":10394,"Ġvenue":10395,"Ġunsafe":10396,"Ġhyp":10397,"julie":10398,"Ġinspector":10399,"Ġjamie":10400,"cook":10401,"fle":10402,"gart":10403,"Ġsisters":10404,"Ġcows":10405,"Ġpel":10406,"isition":10407,"Ġford":10408,"Ġchick":10409,"Ġvaris":10410,"istans":10411,"Ġroma":10412,"Ġcontent":10413,"Ġwharf":10414,"Ġserena":10415,"brance":10416,"Ġfallujah":10417,"Ġfeud":10418,"Ġacting":10419,"Ġhostel":10420,"pregn":10421,"gunmen":10422,"Ġmoscow":10423,"Ġslowdown":10424,"sexual":10425,"Ġviral":10426,"Ġphilip":10427,"Ġcompletion":10428,"Ġventure":10429,"iciary":10430,"saddam":10431,"Ġrehabilitation":10432,"Ġestimates":10433,"Ġmexican":10434,"Ġvarischetti":10435,"cot":10436,"mit":10437,"Ġthing":10438,"Ġcoma":10439,"athlon":10440,"Ġadelaides":10441,"Ġusd":10442,"Ġaccord":10443,"toxic":10444,"Ġworkshop":10445,"Ġserve":10446,"Ġwealth":10447,"Ġsword":10448,"Ġ33":10449,"drunk":10450,"Ġtimeline":10451,"Ġknocks":10452,"Ġhurdle":10453,"Ġ800":10454,"Ġcontrols":10455,"Ġ2004":10456,"fourth":10457,"Ġvegas":10458,"Ġgarrett":10459,"Ġtreasury":10460,"Ġjuvenile":10461,"Ġpregnancy":10462,"Ġexploitation":10463,"micro":10464,"uq":10465,"Ġah":10466,"Ġbrow":10467,"Ġoak":10468,"Ġgiro":10469,"Ġlater":10470,"Ġloy":10471,"choices":10472,"Ġjane":10473,"Ġthems":10474,"Ġoverwhel":10475,"Ġbea":10476,"ryd":10477,"Ġcontention":10478,"beijing":10479,"Ġslashed":10480,"Ġdealers":10481,"parts":10482,"izza":10483,"Ġassembly":10484,"Ġskate":10485,"Ġpressured":10486,"centrel":10487,"Ġmusical":10488,"Ġeradic":10489,"Ġadmit":10490,"Ġarrival":10491,"goldfields":10492,"addin":10493,"greenpeace":10494,"closure":10495,"Ġdiplomat":10496,"Ġkerry":10497,"molik":10498,"cabinet":10499,"centrelink":10500,"fill":10501,"mr":10502,"wins":10503,"Ġts":10504,"Ġdistan":10505,"Ġrudds":10506,"oper":10507,"arkine":10508,"Ġwhich":10509,"Ġinsulation":10510,"Ġelder":10511,"Ġpalace":10512,"Ġitself":10513,"Ġlockout":10514,"Ġwrite":10515,"Ġmosul":10516,"Ġreferee":10517,"Ġfatigue":10518,"Ġtumble":10519,"Ġmomentum":10520,"folk":10521,"Ġdisappointing":10522,"Ġslaughter":10523,"Ġbubble":10524,"Ġparadise":10525,"bodalla":10526,"Ġthemselves":10527,"cob":10528,"gaza":10529,"here":10530,"wag":10531,"Ġwash":10532,"ilds":10533,"Ġgod":10534,"Ġlending":10535,"omy":10536,"thunder":10537,"imid":10538,"owen":10539,"ossa":10540,"Ġkind":10541,"Ġclive":10542,"Ġflower":10543,"Ġdisadv":10544,"Ġplanet":10545,"clijsters":10546,"dev":10547,"oulder":10548,"grass":10549,"Ġpolling":10550,"Ġbulk":10551,"Ġhume":10552,"boris":10553,"surv":10554,"mature":10555,"venth":10556,"Ġequal":10557,"Ġsufferers":10558,"homes":10559,"Ġapplauds":10560,"shooting":10561,"Ġdemocratic":10562,"Ġschubert":10563,"eys":10564,"hendra":10565,"lennon":10566,"path":10567,"Ġtears":10568,"ano":10569,"Ġdil":10570,"itals":10571,"rooms":10572,"acle":10573,"Ġlength":10574,"riers":10575,"alling":10576,"akos":10577,"Ġvene":10578,"Ġvintage":10579,"Ġshires":10580,"Ġunaware":10581,"Ġupholds":10582,"awell":10583,"odus":10584,"Ġcannot":10585,"Ġjohns":10586,"efin":10587,"gymp":10588,"Ġacid":10589,"priate":10590,"windies":10591,"Ġhailed":10592,"Ġhaneef":10593,"Ġestablish":10594,"Ġoccup":10595,"Ġrezoning":10596,"itsubishi":10597,"dles":10598,"hole":10599,"lant":10600,"Ġtent":10601,"Ġfell":10602,"Ġmates":10603,"rogers":10604,"raction":10605,"Ġna":10606,"Ġreunited":10607,"verton":10608,"pple":10609,"Ġasic":10610,"enden":10611,"Ġsued":10612,"Ġgrim":10613,"brit":10614,"Ġslides":10615,"phoenix":10616,"webb":10617,"Ġdealing":10618,"eye":10619,"working":10620,"Ġcleans":10621,"Ġabbotts":10622,"Ġbreaching":10623,"Ġletters":10624,"Ġradical":10625,"Ġpornography":10626,"Ġequality":10627,"Ġthrowing":10628,"ooping":10629,"Ġrequests":10630,"Ġpopularity":10631,"Ġsleeping":10632,"Ġfirearms":10633,"gies":10634,"hanson":10635,"jar":10636,"aring":10637,"Ġdup":10638,"edish":10639,"Ġwip":10640,"Ġwaca":10641,"Ġgig":10642,"Ġrevive":10643,"Ġshanghai":10644,"open":10645,"Ġandy":10646,"Ġdrench":10647,"Ġcrunch":10648,"toy":10649,"Ġprev":10650,"Ġdefiant":10651,"Ġmarijuana":10652,"Ġbarcelona":10653,"Ġpassion":10654,"Ġstanding":10655,"Ġmenindee":10656,"Ġhistor":10657,"Ġelective":10658,"clubs":10659,"Ġthomson":10660,"Ġallocations":10661,"fishermen":10662,"Ġflawed":10663,"Ġmiami":10664,"Ġwielding":10665,"pok":10666,"tis":10667,"wyn":10668,"Ġets":10669,"Ġack":10670,"Ġasth":10671,"Ġmaul":10672,"roger":10673,"Ġeas":10674,"teria":10675,"akh":10676,"about":10677,"Ġproceed":10678,"Ġheights":10679,"Ġcrashed":10680,"Ġweeds":10681,"Ġhealthcare":10682,"Ġservo":10683,"abbie":10684,"Ġbilling":10685,"curry":10686,"ukush":10687,"Ġshouldnt":10688,"Ġhawaii":10689,"Ġcolleagues":10690,"Ġaxing":10691,"Ġwarrnambool":10692,"Ġisolated":10693,"iggs":10694,"Ġarnhem":10695,"Ġsanctuary":10696,"divers":10697,"gom":10698,"Ġcate":10699,"Ġpier":10700,"Ġwong":10701,"Ġinmate":10702,"elift":10703,"Ġnin":10704,"Ġeased":10705,"Ġoffence":10706,"Ġwhits":10707,"Ġhighlands":10708,"Ġsetting":10709,"Ġbroke":10710,"Ġemails":10711,"Ġloom":10712,"Ġantarctica":10713,"ecog":10714,"demand":10715,"Ġpredictions":10716,"rocket":10717,"milk":10718,"Ġbellamy":10719,"footy":10720,"sharapova":10721,"Ġranking":10722,"Ġpirates":10723,"Ġfrost":10724,"Ġapprentices":10725,"gympie":10726,"bure":10727,"cambodia":10728,"golf":10729,"sent":10730,"tong":10731,"into":10732,"Ġfis":10733,"Ġded":10734,"Ġms":10735,"Ġjess":10736,"uting":10737,"utation":10738,"Ġwinery":10739,"Ġalbury":10740,"pse":10741,"Ġwhether":10742,"Ġgren":10743,"Ġmurphy":10744,"Ġislanders":10745,"Ġfluorid":10746,"colle":10747,"surge":10748,"funeral":10749,"Ġpremium":10750,"Ġhappen":10751,"Ġkoalas":10752,"Ġcommunication":10753,"Ġoverturns":10754,"Ġworsens":10755,"Ġfrydenberg":10756,"Ġdemonstr":10757,"Ġindustries":10758,"bia":10759,"coc":10760,"gary":10761,"lower":10762,"zai":10763,"Ġdug":10764,"Ġmugabe":10765,"Ġranger":10766,"allow":10767,"Ġleve":10768,"Ġexodus":10769,"endan":10770,"antarctic":10771,"Ġquot":10772,"ipans":10773,"conds":10774,"insurance":10775,"Ġfiring":10776,"Ġgraves":10777,"Ġgrampians":10778,"Ġstevens":10779,"Ġrestoration":10780,"Ġtimet":10781,"scope":10782,"Ġrobbie":10783,"Ġshoulder":10784,"cedent":10785,"traffic":10786,"Ġlocation":10787,"kiwis":10788,"Ġgrounded":10789,"Ġsurgeon":10790,"Ġoptimism":10791,"uttall":10792,"simon":10793,"labors":10794,"controversial":10795,"beek":10796,"cuss":10797,"gulf":10798,"hman":10799,"mens":10800,"sacked":10801,"writ":10802,"Ġnino":10803,"Ġnaval":10804,"imble":10805,"oty":10806,"ceeds":10807,"Ġspik":10808,"ensic":10809,"inee":10810,"shell":10811,"Ġsurfer":10812,"Ġguit":10813,"Ġlaur":10814,"Ġplayed":10815,"Ġbarr":10816,"ificial":10817,"Ġtransition":10818,"Ġ600":10819,"angaratta":10820,"Ġdevils":10821,"Ġdivide":10822,"Ġapproaches":10823,"idelined":10824,"audio":10825,"Ġelliott":10826,"Ġbattery":10827,"better":10828,"Ġpearce":10829,"ais":10830,"dust":10831,"jik":10832,"pip":10833,"rsl":10834,"Ġtied":10835,"Ġtanks":10836,"anie":10837,"engers":10838,"ingers":10839,"imp":10840,"opals":10841,"ithgow":10842,"Ġunits":10843,"Ġdisabilities":10844,"Ġdrones":10845,"Ġanth":10846,"Ġbackpackers":10847,"Ġisnt":10848,"nedah":10849,"Ġdebates":10850,"Ġrunway":10851,"Ġcollide":10852,"ophie":10853,"Ġ2007":10854,"Ġ2009":10855,"guards":10856,"Ġdiet":10857,"Ġincidents":10858,"Ġseizure":10859,"Ġsatisf":10860,"patel":10861,"Ġhappens":10862,"thomas":10863,"Ġfolau":10864,"lobby":10865,"Ġmentally":10866,"graziers":10867,"cliffe":10868,"wimmera":10869,"prosecutors":10870,"ecoglou":10871,"bys":10872,"san":10873,"Ġtassie":10874,"Ġfbi":10875,"Ġbry":10876,"Ġdre":10877,"Ġjersey":10878,"manchester":10879,"shaw":10880,"Ġindic":10881,"Ġbrig":10882,"icker":10883,"bruce":10884,"Ġretreat":10885,"Ġmarg":10886,"coa":10887,"Ġcritically":10888,"ferr":10889,"Ġdonor":10890,"Ġ2006":10891,"Ġboarding":10892,"Ġclasses":10893,"Ġevacuate":10894,"ception":10895,"Ġraped":10896,"president":10897,"Ġoscars":10898,"Ġseveral":10899,"Ġapplications":10900,"Ġconstitutional":10901,"locust":10902,"Ġwebber":10903,"ocolate":10904,"Ġliteracy":10905,"bott":10906,"crown":10907,"dish":10908,"kle":10909,"max":10910,"nurse":10911,"taylor":10912,"wwi":10913,"xstrata":10914,"Ġmic":10915,"Ġtoads":10916,"Ġtomat":10917,"Ġhouston":10918,"Ġthri":10919,"Ġku":10920,"Ġseconds":10921,"agforce":10922,"Ġquota":10923,"african":10924,"Ġbrumby":10925,"Ġgrid":10926,"aires":10927,"Ġmineral":10928,"techn":10929,"Ġendorses":10930,"Ġrepay":10931,"Ġintimid":10932,"governments":10933,"Ġrecognises":10934,"Ġreferred":10935,"Ġcivilian":10936,"Ġcitizen":10937,"Ġcontainer":10938,"crocodile":10939,"Ġcigarette":10940,"Ġensure":10941,"summer":10942,"Ġspokesman":10943,"cotton":10944,"eg":10945,"fold":10946,"kh":10947,"kos":10948,"mare":10949,"Ġsin":10950,"Ġfew":10951,"Ġwidespread":10952,"Ġgiles":10953,"Ġnerv":10954,"ocide":10955,"Ġusa":10956,"Ġaccuse":10957,"attoo":10958,"Ġcoronial":10959,"bourke":10960,"Ġslashes":10961,"prin":10962,"Ġswiss":10963,"Ġambush":10964,"Ġpatrick":10965,"victorias":10966,"holder":10967,"Ġdiscussion":10968,"Ġsystems":10969,"Ġpose":10970,"truckie":10971,"richmond":10972,"Ġsighting":10973,"Ġtemplate":10974,"Ġsyndic":10975,"Ġumpire":10976,"ukushima":10977,"eing":10978,"gon":10979,"wr":10980,"Ġcure":10981,"Ġfairy":10982,"Ġpitt":10983,"Ġbud":10984,"Ġbere":10985,"Ġwat":10986,"Ġhottest":10987,"Ġoats":10988,"Ġgary":10989,"etnames":10990,"eston":10991,"Ġanz":10992,"Ġweir":10993,"Ġbushwalker":10994,"Ġbilly":10995,"Ġtiming":10996,"Ġapprove":10997,"Ġhurricanes":10998,"Ġinvited":10999,"ellyfish":11000,"engine":11001,"Ġignore":11002,"Ġbandits":11003,"Ġattendance":11004,"Ġpractices":11005,"marshall":11006,"Ġaccusations":11007,"credit":11008,"cruise":11009,"etnamese":11010,"cba":11011,"ius":11012,"tweed":11013,"Ġsidelined":11014,"Ġcore":11015,"encer":11016,"Ġdat":11017,"Ġtoler":11018,"Ġintr":11019,"Ġgoods":11020,"Ġrides":11021,"imf":11022,"agger":11023,"awood":11024,"Ġdrinks":11025,"dept":11026,"actu":11027,"Ġevan":11028,"Ġbusinessman":11029,"Ġstores":11030,"amedic":11031,"scientist":11032,"letcher":11033,"Ġmachete":11034,"Ġrushed":11035,"Ġcensus":11036,"dpi":11037,"Ġfundraiser":11038,"Ġredundancies":11039,"Ġpunishment":11040,"date":11041,"moon":11042,"Ġfile":11043,"Ġbit":11044,"Ġdiversity":11045,"Ġoconnor":11046,"roe":11047,"stat":11048,"Ġstack":11049,"adys":11050,"Ġdeploy":11051,"owa":11052,"Ġunbeaten":11053,"Ġtractor":11054,"ffy":11055,"Ġbooze":11056,"Ġdoom":11057,"stranded":11058,"Ġdrawn":11059,"Ġtrained":11060,"Ġmerge":11061,"ribed":11062,"Ġiconic":11063,"Ġsnubs":11064,"Ġmistakes":11065,"hussey":11066,"Ġiii":11067,"Ġastrona":11068,"Ġ891":11069,"Ġasthma":11070,"lamb":11071,"pine":11072,"zing":11073,"Ġtilt":11074,"argentina":11075,"arvon":11076,"enko":11077,"still":11078,"Ġgor":11079,"Ġloo":11080,"Ġchemicals":11081,"Ġsham":11082,"astron":11083,"cker":11084,"Ġexcess":11085,"Ġdress":11086,"Ġrecre":11087,"Ġimmed":11088,"Ġperu":11089,"Ġfailures":11090,"Ġcolour":11091,"Ġcheer":11092,"Ġ65":11093,"Ġpalaszczuk":11094,"Ġhalves":11095,"Ġinters":11096,"itzer":11097,"harbour":11098,"Ġhawthorn":11099,"Ġsharapova":11100,"egyptian":11101,"explos":11102,"Ġbuffalo":11103,"jeff":11104,"Ġfertiliser":11105,"Ġovercrowding":11106,"kewell":11107,"mul":11108,"pic":11109,"uer":11110,"vff":11111,"Ġlama":11112,"Ġlisa":11113,"Ġrift":11114,"thal":11115,"ewater":11116,"Ġshore":11117,"mango":11118,"emakers":11119,"Ġcoon":11120,"agram":11121,"Ġoutcome":11122,"Ġcarjack":11123,"Ġcontempt":11124,"Ġboots":11125,"encia":11126,"ibi":11127,"Ġgras":11128,"Ġhillary":11129,"Ġplanting":11130,"mayors":11131,"istration":11132,"Ġ2008":11133,"mcgrath":11134,"passengers":11135,"Ġeyeing":11136,"Ġegyptian":11137,"Ġmask":11138,"Ġneighbours":11139,"Ġhorticulture":11140,"Ġfundraising":11141,"Ġbumper":11142,"intoff":11143,"jiklian":11144,"ture":11145,"warm":11146,"Ġsands":11147,"esco":11148,"isi":11149,"Ġgum":11150,"chers":11151,"Ġkm":11152,"Ġbrisbanes":11153,"umption":11154,"Ġunderage":11155,"Ġparental":11156,"Ġ34":11157,"Ġstripped":11158,"Ġbankrupt":11159,"Ġbailed":11160,"Ġsenators":11161,"Ġlabel":11162,"Ġjustin":11163,"Ġmeteor":11164,"Ġauditor":11165,"Ġbringing":11166,"Ġdescri":11167,"Ġtweed":11168,"Ġdesalination":11169,"Ġvegetable":11170,"Ġprosecutor":11171,"violent":11172,"Ġwreckage":11173,"Ġexemption":11174,"Ġjerusalem":11175,"bollah":11176,"secret":11177,"dangerous":11178,"Ġthurston":11179,"cock":11180,"dream":11181,"pub":11182,"uire":11183,"yemen":11184,"escap":11185,"Ġfare":11186,"Ġbudd":11187,"edition":11188,"Ġmir":11189,"itect":11190,"ilder":11191,"stown":11192,"rabbitohs":11193,"Ġstole":11194,"terra":11195,"manufact":11196,"essendon":11197,"Ġhey":11198,"Ġbrun":11199,"brough":11200,"philippine":11201,"Ġswamp":11202,"ahan":11203,"curious":11204,"ancient":11205,"ylie":11206,"Ġ198":11207,"Ġsigned":11208,"Ġevacuations":11209,"Ġrapid":11210,"christian":11211,"Ġnominated":11212,"Ġcapsizes":11213,"Ġfitzroy":11214,"Ġbarty":11215,"Ġwonder":11216,"Ġamalgamation":11217,"Ġuluru":11218,"Ġpadley":11219,"Ġimpeachment":11220,"cousins":11221,"wire":11222,"want":11223,"Ġtension":11224,"Ġcri":11225,"Ġwicket":11226,"this":11227,"Ġvia":11228,"Ġairstri":11229,"Ġstudies":11230,"Ġinvestigations":11231,"Ġsteals":11232,"Ġallen":11233,"Ġlandcare":11234,"Ġportugal":11235,"maroons":11236,"frank":11237,"soccer":11238,"Ġbooming":11239,"Ġshuttle":11240,"Ġsplash":11241,"Ġarchbishop":11242,"Ġcarnarvon":11243,"Ġproductivity":11244,"tougher":11245,"iggins":11246,"Ġdeliberately":11247,"Ġdivorce":11248,"bodies":11249,"dc":11250,"dfat":11251,"gust":11252,"ios":11253,"erved":11254,"around":11255,"aloo":11256,"republic":11257,"shires":11258,"conio":11259,"Ġrecip":11260,"Ġfringe":11261,"Ġprotocol":11262,"Ġguides":11263,"Ġperry":11264,"Ġcosta":11265,"Ġtasmanians":11266,"Ġweatherill":11267,"Ġmakeover":11268,"Ġpassport":11269,"Ġwallaby":11270,"Ġposes":11271,"Ġtighten":11272,"Ġblowout":11273,"prisoners":11274,"Ġpursue":11275,"Ġadopts":11276,"Ġencourages":11277,"Ġreduces":11278,"Ġdemolished":11279,"Ġvehicles":11280,"Ġmaterial":11281,"rific":11282,"Ġvegetation":11283,"Ġhungry":11284,"Ġkembla":11285,"Ġtransparency":11286,"aa":11287,"burns":11288,"gam":11289,"iar":11290,"mys":11291,"self":11292,"vor":11293,"zbollah":11294,"Ġcame":11295,"oride":11296,"Ġacl":11297,"Ġped":11298,"Ġmood":11299,"itable":11300,"Ġhiding":11301,"amps":11302,"chy":11303,"asts":11304,"Ġroe":11305,"Ġindefin":11306,"Ġcrane":11307,"season":11308,"Ġcorrid":11309,"project":11310,"Ġpowerful":11311,"Ġcanberras":11312,"Ġchallenged":11313,"door":11314,"Ġfrees":11315,"Ġlatrobe":11316,"Ġwilderness":11317,"Ġgathering":11318,"walkers":11319,"plea":11320,"julia":11321,"Ġtemple":11322,"Ġreverse":11323,"cour":11324,"mod":11325,"Ġtale":11326,"Ġsense":11327,"Ġpyne":11328,"Ġbil":11329,"Ġbells":11330,"enton":11331,"Ġchanc":11332,"Ġdeer":11333,"Ġkal":11334,"Ġrams":11335,"Ġyields":11336,"artist":11337,"conn":11338,"Ġdaylight":11339,"grape":11340,"coyne":11341,"flight":11342,"Ġoneill":11343,"Ġcostings":11344,"affe":11345,"sydneys":11346,"oppy":11347,"Ġclubhouse":11348,"Ġfilmed":11349,"Ġcustoms":11350,"attered":11351,"william":11352,"Ġberlin":11353,"Ġassistant":11354,"Ġspreading":11355,"california":11356,"costa":11357,"consumers":11358,"Ġhanging":11359,"Ġtweets":11360,"officials":11361,"soldier":11362,"commissioner":11363,"Ġamericans":11364,"activists":11365,"uncertainty":11366,"fern":11367,"hydro":11368,"living":11369,"museum":11370,"rard":11371,"rors":11372,"yach":11373,"Ġfut":11374,"Ġdor":11375,"Ġreun":11376,"Ġreasons":11377,"asia":11378,"Ġseeds":11379,"Ġbehead":11380,"Ġbeckham":11381,"essions":11382,"Ġaftermath":11383,"aph":11384,"landholders":11385,"Ġindex":11386,"veston":11387,"tons":11388,"Ġdriven":11389,"wayne":11390,"cannabis":11391,"womans":11392,"Ġeduc":11393,"opsy":11394,"Ġsolutions":11395,"Ġgenocide":11396,"Ġhandover":11397,"Ġentr":11398,"Ġshipwreck":11399,"Ġhumanitarian":11400,"Ġlodges":11401,"Ġswept":11402,"hayden":11403,"Ġqualifier":11404,"Ġdodgy":11405,"Ġcertainty":11406,"hospitals":11407,"mush":11408,"rub":11409,"Ġsounds":11410,"Ġcumm":11411,"Ġfoul":11412,"Ġbears":11413,"Ġnuke":11414,"thon":11415,"adani":11416,"imir":11417,"riot":11418,"Ġkate":11419,"akistans":11420,"oples":11421,"Ġaccounts":11422,"Ġcommuters":11423,"Ġattacking":11424,"Ġparrot":11425,"apper":11426,"Ġlaunder":11427,"Ġrescuers":11428,"Ġmcgrath":11429,"rossi":11430,"Ġpilgr":11431,"Ġ10000":11432,"Ġpossession":11433,"Ġconvictions":11434,"migrants":11435,"Ġangered":11436,"Ġspringboks":11437,"sharon":11438,"Ġdawe":11439,"baghdad":11440,"Ġmasks":11441,"Ġfrozen":11442,"volunteer":11443,"alemate":11444,"Ġalbum":11445,"powell":11446,"stabbing":11447,"Ġacknow":11448,"Ġnervous":11449,"het":11450,"hiv":11451,"hail":11452,"los":11453,"oid":11454,"oks":11455,"Ġtug":11456,"Ġsus":11457,"Ġdinner":11458,"Ġhann":11459,"Ġlovers":11460,"ework":11461,"Ġkabul":11462,"Ġshear":11463,"abuse":11464,"quad":11465,"uggling":11466,"cci":11467,"Ġadult":11468,"Ġfacelift":11469,"Ġbrands":11470,"formed":11471,"Ġmissiles":11472,"ysis":11473,"Ġboosting":11474,"Ġbuoy":11475,"Ġdeadlock":11476,"Ġfeeding":11477,"Ġ48":11478,"nrma":11479,"Ġrocky":11480,"holiday":11481,"Ġescaped":11482,"joys":11483,"palestinians":11484,"guilty":11485,"Ġmemories":11486,"knife":11487,"Ġoversh":11488,"investors":11489,"aviar":11490,"Ġmachines":11491,"birth":11492,"Ġjudiciary":11493,"service":11494,"party":11495,"Ġkerr":11496,"Ġexposure":11497,"Ġgibson":11498,"pastoral":11499,"Ġslightly":11500,"22":11501,"hy":11502,"host":11503,"japans":11504,"Ġsides":11505,"Ġfib":11506,"Ġfelt":11507,"Ġbitten":11508,"Ġdave":11509,"stated":11510,"leville":11511,"Ġnam":11512,"Ġluck":11513,"Ġkok":11514,"Ġjin":11515,"Ġjihad":11516,"Ġconvoy":11517,"eares":11518,"Ġcomedy":11519,"issa":11520,"anglican":11521,"Ġalight":11522,"Ġnegl":11523,"Ġcorrect":11524,"Ġjoke":11525,"phill":11526,"Ġinvestigators":11527,"Ġgrace":11528,"Ġburg":11529,"ettel":11530,"Ġchristchurch":11531,"crim":11532,"Ġpullout":11533,"Ġinspired":11534,"migrant":11535,"Ġkarratha":11536,"Ġabandons":11537,"Ġcontaminated":11538,"Ġprovider":11539,"Ġcartwright":11540,"Ġcuba":11541,"Ġdelegation":11542,"Ġtampering":11543,"Ġintegrity":11544,"scores":11545,"Ġjewellery":11546,"aire":11547,"aerial":11548,"nut":11549,"Ġfiona":11550,"Ġwashes":11551,"Ġformal":11552,"acing":11553,"Ġlie":11554,"Ġrex":11555,"Ġdebris":11556,"Ġcongest":11557,"Ġresur":11558,"Ġware":11559,"Ġsuic":11560,"Ġpremature":11561,"Ġenjoys":11562,"Ġsetback":11563,"Ġnoosa":11564,"Ġmonitors":11565,"Ġrestart":11566,"Ġgunmen":11567,"Ġmemory":11568,"Ġhotels":11569,"kerry":11570,"Ġdivision":11571,"Ġsurface":11572,"slater":11573,"Ġepic":11574,"ynolds":11575,"players":11576,"Ġcrushes":11577,"Ġbuilder":11578,"adamia":11579,"Ġaquaculture":11580,"Ġdiagnosis":11581,"Ġtimetable":11582,"cahill":11583,"jac":11584,"zard":11585,"zheim":11586,"Ġcahill":11587,"Ġmaps":11588,"Ġproced":11589,"Ġasio":11590,"enses":11591,"Ġraaf":11592,"agement":11593,"ogp":11594,"Ġanu":11595,"uefa":11596,"waugh":11597,"spir":11598,"Ġdebbie":11599,"Ġ38":11600,"Ġreputation":11601,"Ġglitch":11602,"Ġ55":11603,"Ġdevelopments":11604,"mening":11605,"Ġcleary":11606,"Ġmuster":11607,"Ġjunk":11608,"Ġbadly":11609,"Ġsomalia":11610,"Ġoverdose":11611,"bond":11612,"gree":11613,"sale":11614,"tennis":11615,"yu":11616,"Ġcatal":11617,"Ġffa":11618,"Ġpup":11619,"atia":11620,"Ġww":11621,"Ġwashed":11622,"eling":11623,"Ġluxury":11624,"asio":11625,"Ġrfs":11626,"idi":11627,"Ġthen":11628,"Ġchat":11629,"Ġvide":11630,"emaker":11631,"Ġroman":11632,"Ġyoutube":11633,"angel":11634,"Ġindy":11635,"afat":11636,"Ġscram":11637,"Ġtrent":11638,"Ġremind":11639,"Ġsweden":11640,"whats":11641,"Ġknight":11642,"Ġclinches":11643,"Ġburnie":11644,"harry":11645,"Ġsmaller":11646,"Ġstatistics":11647,"Ġlacking":11648,"priest":11649,"Ġbolt":11650,"Ġphillips":11651,"polls":11652,"further":11653,"umsfeld":11654,"escope":11655,"Ġcleric":11656,"Ġsyndicate":11657,"bog":11658,"cong":11659,"jak":11660,"sir":11661,"sup":11662,"upp":11663,"whe":11664,"yen":11665,"Ġcoo":11666,"onterra":11667,"Ġaerial":11668,"Ġdv":11669,"Ġhood":11670,"Ġobe":11671,"Ġnav":11672,"uri":11673,"igel":11674,"abase":11675,"abalone":11676,"Ġunpaid":11677,"emes":11678,"Ġrages":11679,"Ġattackers":11680,"Ġguest":11681,"Ġhasler":11682,"Ġsubject":11683,"Ġhotline":11684,"Ġmotiv":11685,"Ġtackling":11686,"breakers":11687,"tests":11688,"Ġicon":11689,"Ġfootballer":11690,"Ġdevastating":11691,"Ġyachts":11692,"Ġpreferences":11693,"journalist":11694,"pregnant":11695,"Ġbeauty":11696,"gomery":11697,"cry":11698,"py":11699,"uador":11700,"Ġfab":11701,"Ġdaly":11702,"Ġgates":11703,"Ġrevel":11704,"Ġrust":11705,"Ġthank":11706,"Ġvess":11707,"ppel":11708,"Ġsheens":11709,"undays":11710,"Ġmural":11711,"bean":11712,"Ġslain":11713,"iteau":11714,"Ġdelight":11715,"Ġgrapes":11716,"Ġpoppy":11717,"oyster":11718,"azing":11719,"Ġglut":11720,"tasmanias":11721,"crabb":11722,"offs":11723,"held":11724,"Ġsarah":11725,"mourners":11726,"Ġreconsider":11727,"Ġberejiklian":11728,"bot":11729,"cambodian":11730,"eon":11731,"game":11732,"tennant":11733,"Ġbinge":11734,"Ġdinosaur":11735,"Ġnude":11736,"Ġlon":11737,"uran":11738,"Ġrort":11739,"Ġjose":11740,"opt":11741,"Ġrom":11742,"Ġrookie":11743,"elli":11744,"Ġprank":11745,"anging":11746,"plot":11747,"airline":11748,"Ġboards":11749,"brand":11750,"ernan":11751,"Ġserving":11752,"Ġparticip":11753,"Ġtaxpayers":11754,"carlton":11755,"breast":11756,"Ġdonates":11757,"smoking":11758,"Ġreception":11759,"charged":11760,"Ġclinics":11761,"Ġuber":11762,"Ġdrags":11763,"Ġcriminals":11764,"wildcats":11765,"overseas":11766,"investigations":11767,"Ġcatastro":11768,"Ġwidow":11769,"escue":11770,"veterans":11771,"conservationists":11772,"salvos":11773,"Ġexperiences":11774,"Ġhijack":11775,"zheimers":11776,"mines":11777,"nn":11778,"number":11779,"veway":11780,"Ġcousins":11781,"Ġaide":11782,"cha":11783,"Ġunpre":11784,"ugitive":11785,"Ġheight":11786,"Ġalbanese":11787,"Ġdisorder":11788,"asse":11789,"Ġguts":11790,"Ġrefusing":11791,"Ġpayroll":11792,"inta":11793,"Ġsteam":11794,"nox":11795,"Ġqueenslanders":11796,"Ġlongreach":11797,"smoke":11798,"Ġscottish":11799,"Ġshared":11800,"wildlife":11801,"Ġgangs":11802,"politics":11803,"matthewson":11804,"etherlands":11805,"Ġuncovered":11806,"urgents":11807,"elector":11808,"samoa":11809,"Ġcurrency":11810,"Ġlaundering":11811,"aver":11812,"bennett":11813,"mind":11814,"person":11815,"won":11816,"waste":11817,"Ġsach":11818,"Ġcaviar":11819,"analysis":11820,"Ġmog":11821,"Ġmla":11822,"Ġholl":11823,"sty":11824,"Ġgorge":11825,"Ġnats":11826,"imat":11827,"imony":11828,"Ġshi":11829,"Ġmarines":11830,"prus":11831,"Ġrefund":11832,"bye":11833,"paramedics":11834,"Ġlandfill":11835,"Ġblackmail":11836,"Ġmoran":11837,"Ġtracked":11838,"Ġvalu":11839,"Ġgallop":11840,"Ġflex":11841,"Ġflees":11842,"Ġsuburban":11843,"Ġsightings":11844,"Ġreplaced":11845,"Ġbondi":11846,"Ġpirie":11847,"Ġbounces":11848,"nigerian":11849,"diamonds":11850,"civil":11851,"agriculture":11852,"Ġcongestion":11853,"bast":11854,"mugabe":11855,"nie":11856,"ration":11857,"rina":11858,"toll":11859,"onto":11860,"Ġfathers":11861,"enst":11862,"Ġboulder":11863,"stuart":11864,"Ġlismore":11865,"Ġstom":11866,"Ġshifts":11867,"coach":11868,"Ġbuyer":11869,"Ġfeet":11870,"margaret":11871,"Ġratepayers":11872,"Ġnightmare":11873,"Ġcurrent":11874,"Ġcricketers":11875,"ladimir":11876,"Ġstraw":11877,"vanstone":11878,"Ġladies":11879,"Ġglassing":11880,"Ġloyal":11881,"dad":11882,"ean":11883,"mese":11884,"vet":11885,"inz":11886,"oncurry":11887,"Ġpearson":11888,"isan":11889,"accept":11890,"Ġstopping":11891,"Ġonce":11892,"oto":11893,"allis":11894,"Ġkatter":11895,"Ġspends":11896,"emin":11897,"ovco":11898,"Ġcarter":11899,"Ġmanaging":11900,"Ġwilling":11901,"Ġtestify":11902,"liver":11903,"groups":11904,"Ġphilippine":11905,"Ġfinalised":11906,"paralymp":11907,"Ġdouglas":11908,"ettes":11909,"Ġstarted":11910,"serial":11911,"colin":11912,"Ġobrien":11913,"Ġelects":11914,"Ġdirection":11915,"Ġtune":11916,"Ġageing":11917,"Ġvirtual":11918,"Ġhussey":11919,"Ġspirits":11920,"Ġivory":11921,"Ġremembrance":11922,"latest":11923,"chanan":11924,"Ġoverturned":11925,"division":11926,"cfmeu":11927,"gbt":11928,"katter":11929,"rally":11930,"tassie":11931,"aran":11932,"arthur":11933,"enport":11934,"Ġbury":11935,"Ġhmas":11936,"leans":11937,"olas":11938,"Ġnaked":11939,"Ġstalemate":11940,"Ġspat":11941,"Ġrott":11942,"Ġblunder":11943,"ipswich":11944,"Ġcarer":11945,"Ġdisgrace":11946,"Ġrecount":11947,"Ġprelim":11948,"atton":11949,"Ġairports":11950,"Ġeviction":11951,"canberrans":11952,"Ġdemise":11953,"Ġvictorians":11954,"Ġ44":11955,"Ġpenrith":11956,"Ġyouths":11957,"healthy":11958,"Ġagreements":11959,"higher":11960,"regions":11961,"Ġfurious":11962,"snake":11963,"crowds":11964,"Ġalpine":11965,"investigators":11966,"henin":11967,"Ġnegotiate":11968,"Ġinspectors":11969,"Ġinnoc":11970,"Ġwriter":11971,"Ġbacklog":11972,"Ġsustainability":11973,"Ġmicroscope":11974,"Ġamericas":11975,"boost":11976,"Ġtiwi":11977,"Ġconverge":11978,"Ġsculpture":11979,"Ġsceptical":11980,"Ġinfections":11981,"lain":11982,"luke":11983,"mu":11984,"money":11985,"rd":11986,"side":11987,"Ġbaird":11988,"lebanon":11989,"Ġlakos":11990,"uns":11991,"irut":11992,"Ġkel":11993,"akery":11994,"Ġplater":11995,"shane":11996,"Ġdisqual":11997,"arma":11998,"Ġremark":11999,"Ġswift":12000,"Ġregain":12001,"ricul":12002,"Ġmorcombe":12003,"Ġframe":12004,"Ġfilming":12005,"hero":12006,"Ġflagged":12007,"ramundi":12008,"Ġwithdrawn":12009,"Ġkidney":12010,"Ġblueprint":12011,"Ġcivic":12012,"Ġbriefed":12013,"Ġcorporation":12014,"Ġmandela":12015,"Ġfavourites":12016,"Ġundergoes":12017,"Ġinglis":12018,"Ġoutraged":12019,"lobster":12020,"Ġdingo":12021,"bian":12022,"jess":12023,"lides":12024,"nathan":12025,"tensions":12026,"wong":12027,"Ġil":12028,"Ġcfa":12029,"anagan":12030,"Ġwider":12031,"Ġhaven":12032,"roo":12033,"Ġsticks":12034,"Ġthro":12035,"Ġchases":12036,"illieu":12037,"sher":12038,"Ġraf":12039,"Ġanne":12040,"Ġcoron":12041,"tex":12042,"Ġdole":12043,"Ġorleans":12044,"Ġbreakers":12045,"science":12046,"Ġseasonal":12047,"Ġdeveloping":12048,"Ġcrowned":12049,"Ġ85":12050,"Ġabcs":12051,"mingham":12052,"disabled":12053,"Ġverge":12054,"Ġcondemned":12055,"Ġmccain":12056,"Ġdesigner":12057,"husband":12058,"Ġprosecutors":12059,"festival":12060,"Ġhorta":12061,"Ġgraduates":12062,"Ġefficiency":12063,"Ġbourke":12064,"Ġdatabase":12065,"Ġchancellor":12066,"km":12067,"lished":12068,"mi":12069,"Ġtian":12070,"Ġfract":12071,"stars":12072,"akar":12073,"Ġjapans":12074,"ume":12075,"utto":12076,"Ġyang":12077,"Ġresett":12078,"Ġable":12079,"Ġalepp":12080,"Ġslur":12081,"akesh":12082,"Ġlawrence":12083,"gram":12084,"grave":12085,"Ġblackouts":12086,"Ġmcdonald":12087,"Ġlegion":12088,"Ġdepot":12089,"Ġinterested":12090,"Ġmagaz":12091,"bbc":12092,"Ġhorsham":12093,"Ġdistance":12094,"Ġkarl":12095,"weekend":12096,"dow":12097,"fbi":12098,"pension":12099,"xton":12100,"alers":12101,"Ġhip":12102,"Ġot":12103,"Ġlu":12104,"etime":12105,"Ġshoppers":12106,"Ġato":12107,"orte":12108,"endangered":12109,"Ġreserv":12110,"Ġcargo":12111,"odi":12112,"Ġcrazy":12113,"Ġopal":12114,"Ġpreference":12115,"yson":12116,"price":12117,"Ġworldwide":12118,"grounds":12119,"Ġpeoples":12120,"Ġendorse":12121,"Ġthrilling":12122,"ething":12123,"Ġborrow":12124,"Ġbullet":12125,"Ġbullets":12126,"border":12127,"Ġaxes":12128,"davis":12129,"koala":12130,"Ġhayden":12131,"Ġmandurah":12132,"Ġlodged":12133,"Ġwidens":12134,"Ġpromotes":12135,"Ġpuzz":12136,"claren":12137,"Ġdiagnosed":12138,"antha":12139,"hackett":12140,"Ġlooph":12141,"Ġaleppo":12142,"cfs":12143,"nies":12144,"your":12145,"ered":12146,"Ġbaf":12147,"Ġmam":12148,"Ġmundine":12149,"icial":12150,"stop":12151,"Ġreading":12152,"idley":12153,"Ġseventh":12154,"Ġleap":12155,"Ġadani":12156,"Ġmanagers":12157,"Ġworkchoices":12158,"Ġenforce":12159,"avez":12160,"Ġdeserve":12161,"izon":12162,"Ġdiscount":12163,"carpenter":12164,"Ġqueenslands":12165,"barack":12166,"Ġturner":12167,"Ġ73":12168,"radbroke":12169,"Ġrussell":12170,"Ġashley":12171,"arrabri":12172,"gunman":12173,"passenger":12174,"Ġradiation":12175,"ographer":12176,"Ġfleeing":12177,"Ġreducing":12178,"Ġbacteria":12179,"Ġforeshore":12180,"Ġreminded":12181,"govern":12182,"rumb":12183,"Ġels":12184,"Ġtamil":12185,"Ġfamil":12186,"rape":12187,"Ġshap":12188,"Ġafoot":12189,"athing":12190,"Ġ120":12191,"Ġalways":12192,"Ġcrusaders":12193,"Ġrecent":12194,"Ġexpenses":12195,"ullivan":12196,"actor":12197,"Ġinvestor":12198,"Ġwaugh":12199,"spect":12200,"Ġdetected":12201,"Ġ37":12202,"Ġglenn":12203,"Ġkoreas":12204,"amba":12205,"anyahu":12206,"Ġapy":12207,"Ġfluffy":12208,"Ġsignal":12209,"Ġmotogp":12210,"Ġdivid":12211,"Ġbreached":12212,"worksafe":12213,"Ġunique":12214,"Ġwoolworths":12215,"Ġcrean":12216,"Ġethics":12217,"Ġvenues":12218,"Ġmaryborough":12219,"Ġstrengthen":12220,"Ġstanley":12221,"Ġtriumphs":12222,"Ġdescribe":12223,"riculum":12224,"ped":12225,"wellington":12226,"Ġaven":12227,"Ġbenn":12228,"Ġbaxter":12229,"Ġwrest":12230,"Ġwitch":12231,"ilia":12232,"lectors":12233,"Ġgaming":12234,"chile":12235,"ewold":12236,"Ġkununurra":12237,"ounty":12238,"Ġseeding":12239,"ateur":12240,"Ġspear":12241,"ocaust":12242,"Ġorph":12243,"export":12244,"Ġcamping":12245,"Ġcampers":12246,"Ġ42":12247,"Ġskies":12248,"Ġtransgender":12249,"annan":12250,"hollywood":12251,"Ġhalted":12252,"Ġdonate":12253,"Ġvoted":12254,"smart":12255,"Ġsheffield":12256,"Ġcourses":12257,"Ġescapees":12258,"Ġawaiting":12259,"Ġarsonist":12260,"Ġmelt":12261,"Ġrebuilding":12262,"Ġdowngrade":12263,"Ġnigerian":12264,"Ġrayney":12265,"voters":12266,"Ġhabitat":12267,"Ġintercepted":12268,"Ġcateg":12269,"Ġguitar":12270,"Ġcorridor":12271,"aqu":12272,"bug":12273,"din":12274,"fail":12275,"gp":12276,"nov":12277,"vote":12278,"Ġtill":12279,"Ġpock":12280,"Ġpizza":12281,"Ġbou":12282,"Ġwnbl":12283,"Ġhyd":12284,"Ġgdp":12285,"Ġreunion":12286,"astics":12287,"Ġspoil":12288,"ifying":12289,"ighton":12290,"Ġrecounts":12291,"Ġdefended":12292,"Ġamazon":12293,"Ġsmok":12294,"Ġdecides":12295,"barnes":12296,"Ġgenetic":12297,"Ġturb":12298,"teenagers":12299,"Ġmaitland":12300,"Ġpositions":12301,"Ġmaguire":12302,"Ġmatildas":12303,"Ġscrapping":12304,"Ġcartoon":12305,"training":12306,"Ġdifference":12307,"boxing":12308,"organic":12309,"Ġorchest":12310,"agreement":12311,"Ġwarehouse":12312,"iels":12313,"lion":12314,"maine":12315,"nff":12316,"oi":12317,"pg":12318,"pms":12319,"Ġipl":12320,"Ġtighter":12321,"Ġtarkine":12322,"Ġpoultry":12323,"Ġbore":12324,"Ġgave":12325,"Ġlies":12326,"Ġkiss":12327,"Ġkitch":12328,"Ġvics":12329,"Ġjellyfish":12330,"Ġarte":12331,"Ġblake":12332,"Ġ2000":12333,"vious":12334,"Ġhep":12335,"Ġagm":12336,"ample":12337,"Ġterritor":12338,"Ġintervene":12339,"corby":12340,"Ġassurance":12341,"Ġburial":12342,"scot":12343,"trou":12344,"Ġstabbings":12345,"Ġ77":12346,"Ġgoodes":12347,"ophob":12348,"moore":12349,"Ġrecommended":12350,"freight":12351,"Ġpokie":12352,"Ġpastoralists":12353,"Ġoverdue":12354,"Ġbernard":12355,"electricity":12356,"Ġtelescope":12357,"candidates":12358,"Ġricciardo":12359,"acceptable":12360,"bage":12361,"bee":12362,"kas":12363,"main":12364,"eney":12365,"Ġdish":12366,"rooney":12367,"Ġstawell":12368,"ounger":12369,"Ġvid":12370,"Ġspate":12371,"ensus":12372,"uguay":12373,"Ġquell":12374,"awa":12375,"close":12376,"Ġbrough":12377,"team":12378,"Ġdriveway":12379,"Ġsuppli":12380,"Ġstrang":12381,"flinders":12382,"Ġexplan":12383,"downpour":12384,"brothers":12385,"Ġquestioning":12386,"Ġpeaceful":12387,"Ġprocessor":12388,"Ġeffective":12389,"Ġstunned":12390,"Ġmeasles":12391,"pauline":12392,"Ġstalled":12393,"Ġmangoes":12394,"gener":12395,"explosion":12396,"triple":12397,"Ġredundancy":12398,"Ġpowell":12399,"Ġugly":12400,"Ġtariffs":12401,"Ġfluoridation":12402,"Ġsatisfied":12403,"imatum":12404,"hurst":12405,"mess":12406,"pin":12407,"qr":12408,"arl":12409,"Ġbald":12410,"Ġdrown":12411,"Ġdancing":12412,"icle":12413,"Ġgallen":12414,"Ġchest":12415,"Ġchocolate":12416,"osph":12417,"quarters":12418,"Ġleon":12419,"aws":12420,"Ġmaria":12421,"Ġshowcase":12422,"spots":12423,"warner":12424,"does":12425,"Ġlongest":12426,"Ġmetre":12427,"Ġlesson":12428,"Ġprobably":12429,"Ġreopened":12430,"Ġshelves":12431,"Ġtradition":12432,"horsham":12433,"Ġlambie":12434,"Ġdiamonds":12435,"brazilian":12436,"quito":12437,"Ġrouge":12438,"Ġavalanche":12439,"spirit":12440,"akeshott":12441,"mundine":12442,"tun":12443,"vit":12444,"Ġsidelines":12445,"aru":12446,"Ġpt":12447,"Ġpav":12448,"Ġbaker":12449,"Ġbbc":12450,"Ġhutch":12451,"Ġhenderson":12452,"ilroy":12453,"Ġrings":12454,"andrews":12455,"Ġeagle":12456,"Ġchilds":12457,"Ġrohingya":12458,"Ġwarwick":12459,"Ġankle":12460,"Ġscient":12461,"Ġdefer":12462,"licens":12463,"Ġhousehold":12464,"Ġheadquarters":12465,"Ġreply":12466,"Ġplease":12467,"ukun":12468,"Ġministerial":12469,"Ġlosers":12470,"azeera":12471,"Ġturf":12472,"firm":12473,"Ġinsult":12474,"Ġinsider":12475,"Ġrisky":12476,"Ġmcle":12477,"Ġcurriculum":12478,"Ġbelgium":12479,"Ġgroundwater":12480,"Ġberry":12481,"Ġvilla":12482,"help":12483,"collingwood":12484,"Ġnaplan":12485,"warrnambool":12486,"Ġcassidy":12487,"Ġlevee":12488,"michelle":12489,"oyd":12490,"Ġske":12491,"reports":12492,"eddie":12493,"Ġwag":12494,"rage":12495,"Ġlen":12496,"Ġvets":12497,"Ġunle":12498,"uda":12499,"Ġmaritime":12500,"graham":12501,"atsic":12502,"istanbul":12503,"illeg":12504,"iker":12505,"Ġrelatives":12506,"anced":12507,"Ġvalent":12508,"brett":12509,"Ġbelieves":12510,"Ġjulian":12511,"borne":12512,"Ġcomplain":12513,"Ġiemma":12514,"Ġtechnical":12515,"Ġmodest":12516,"haneef":12517,"ourage":12518,"patients":12519,"Ġmachinery":12520,"middle":12521,"Ġclarence":12522,"daughter":12523,"Ġdiplomats":12524,"Ġultimatum":12525,"camel":12526,"mexican":12527,"Ġjacob":12528,"greyhound":12529,"manufacturing":12530,"enstam":12531,"dump":12532,"lara":12533,"malthouse":12534,"ronaldo":12535,"summ":12536,"inates":12537,"instein":12538,"erts":12539,"Ġtide":12540,"Ġbund":12541,"Ġmcl":12542,"Ġwipe":12543,"start":12544,"Ġgav":12545,"elty":12546,"Ġran":12547,"Ġthumbs":12548,"ching":12549,"Ġjazeera":12550,"Ġlets":12551,"Ġund":12552,"Ġarrow":12553,"Ġheath":12554,"Ġdisasters":12555,"Ġneut":12556,"Ġschoolgirl":12557,"Ġairlift":12558,"Ġsnaps":12559,"Ġexplore":12560,"Ġportland":12561,"ennan":12562,"mallee":12563,"scheme":12564,"Ġ2005":12565,"Ġcalf":12566,"harvest":12567,"Ġhawke":12568,"Ġcredits":12569,"Ġorganisation":12570,"Ġimportance":12571,"Ġjetstar":12572,"Ġdevastation":12573,"Ġfuelled":12574,"Ġpuppy":12575,"hodge":12576,"Ġsanta":12577,"korean":12578,"Ġlicensing":12579,"Ġimmediate":12580,"ewoldt":12581,"possible":12582,"Ġmile":12583,"Ġtoward":12584,"Ġhird":12585,"elders":12586,"olves":12587,"neg":12588,"Ġtrash":12589,"Ġwhats":12590,"Ġtestimony":12591,"Ġbuswell":12592,"Ġregistration":12593,"Ġprescri":12594,"venus":12595,"Ġcleaning":12596,"communities":12597,"mcewen":12598,"Ġxmas":12599,"Ġinspire":12600,"Ġhawk":12601,"gentine":12602,"Ġreactor":12603,"Ġarchitect":12604,"Ġhopefuls":12605,"Ġgrove":12606,"Ġconservative":12607,"rescued":12608,"graincorp":12609,"Ġthinking":12610,"parliamentary":12611,"wanted":12612,"Ġburgess":12613,"electoral":12614,"bp":12615,"mis":12616,"tab":12617,"wen":12618,"Ġsne":12619,"aroo":12620,"Ġpunt":12621,"Ġmoss":12622,"Ġhil":12623,"Ġoliver":12624,"stroke":12625,"raaf":12626,"Ġlays":12627,"aman":12628,"thine":12629,"chel":12630,"terry":12631,"terte":12632,"Ġprostitution":12633,"uments":12634,"dsay":12635,"Ġleaking":12636,"Ġroddick":12637,"Ġcoag":12638,"neighbour":12639,"ovo":12640,"Ġtraps":12641,"afford":12642,"ocock":12643,"Ġbackbench":12644,"Ġschemes":12645,"attempt":12646,"Ġinterference":12647,"appell":12648,"Ġgrains":12649,"corruption":12650,"Ġbarriers":12651,"struggling":12652,"Ġsolo":12653,"Ġcelebrated":12654,"Ġarrivals":12655,"researcher":12656,"Ġoversee":12657,"Ġwhyalla":12658,"Ġcreated":12659,"bluescope":12660,"aja":12661,"motorists":12662,"Ġengineers":12663,"Ġresolved":12664,"acqui":12665,"kidn":12666,"Ġfetches":12667,"Ġdialysis":12668,"surviv":12669,"Ġintersection":12670,"fty":12671,"ression":12672,"onna":12673,"Ġpaedoph":12674,"Ġwound":12675,"icy":12676,"Ġhale":12677,"Ġgos":12678,"Ġstash":12679,"thes":12680,"Ġclients":12681,"Ġrah":12682,"ellacqu":12683,"Ġalbert":12684,"Ġflare":12685,"Ġcarney":12686,"Ġdisruption":12687,"asha":12688,"ibald":12689,"backpacker":12690,"Ġ43":12691,"Ġpromising":12692,"Ġbutt":12693,"anya":12694,"Ġhandle":12695,"Ġelig":12696,"crusaders":12697,"Ġbashir":12698,"Ġobst":12699,"Ġrolling":12700,"businessman":12701,"Ġcompetitive":12702,"Ġfoi":12703,"Ġhalls":12704,"patrick":12705,"salmon":12706,"umphries":12707,"Ġincluded":12708,"Ġdemolish":12709,"Ġivf":12710,"Ġthorpe":12711,"basin":12712,"Ġdolphins":12713,"Ġinjection":12714,"medicare":12715,"Ġcolombia":12716,"Ġabducted":12717,"Ġexplanation":12718,"23":12719,"fewer":12720,"iver":12721,"jakarta":12722,"langer":12723,"you":12724,"arre":12725,"rea":12726,"Ġmouse":12727,"ington":12728,"isloe":12729,"Ġgaddafi":12730,"Ġchronic":12731,"Ġvatican":12732,"Ġshearing":12733,"opoul":12734,"many":12735,"Ġlehmann":12736,"Ġraw":12737,"anton":12738,"Ġrecapt":12739,"Ġgreste":12740,"attled":12741,"Ġhighs":12742,"umpback":12743,"gett":12744,"princip":12745,"Ġgrown":12746,"Ġcaul":12747,"Ġpowered":12748,"Ġsubmission":12749,"kenya":12750,"Ġemerald":12751,"Ġaccidental":12752,"Ġelite":12753,"communic":12754,"Ġreceivers":12755,"symonds":12756,"lawful":12757,"mothers":12758,"Ġharvesting":12759,"Ġinspir":12760,"Ġcatchment":12761,"Ġroutes":12762,"americ":12763,"Ġspringborg":12764,"Ġbait":12765,"Ġenterprise":12766,"Ġcircle":12767,"Ġcontribution":12768,"Ġowned":12769,"Ġanxiety":12770,"Ġpsychiatric":12771,"street":12772,"cussion":12773,"24":12774,"ked":12775,"map":12776,"Ġfog":12777,"Ġaaron":12778,"Ġpicking":12779,"Ġboston":12780,"Ġmich":12781,"eler":12782,"Ġnfl":12783,"irc":12784,"tery":12785,"Ġchal":12786,"otal":12787,"Ġjeremy":12788,"acki":12789,"Ġshaun":12790,"abattoir":12791,"Ġplain":12792,"iful":12793,"Ġresil":12794,"Ġoutline":12795,"rylls":12796,"Ġindias":12797,"Ġdrill":12798,"Ġusual":12799,"indias":12800,"Ġapplies":12801,"comment":12802,"Ġconsc":12803,"Ġgrafton":12804,"Ġsym":12805,"Ġbreakdown":12806,"Ġstream":12807,"Ġturnaround":12808,"Ġhomicide":12809,"Ġpassing":12810,"Ġrevol":12811,"Ġtooth":12812,"Ġsixers":12813,"Ġpngs":12814,"falling":12815,"buy":12816,"floodwaters":12817,"Ġathlete":12818,"contact":12819,"Ġexecutives":12820,"Ġbrazilian":12821,"edestrians":12822,"detention":12823,"tribunal":12824,"Ġabsence":12825,"thompson":12826,"Ġdirt":12827,"rahim":12828,"Ġarnold":12829,"Ġparalympics":12830,"Ġjewish":12831,"ellacqua":12832,"hort":12833,"hmas":12834,"hughes":12835,"lang":12836,"mla":12837,"wich":12838,"Ġcun":12839,"Ġbone":12840,"Ġdating":12841,"Ġwodonga":12842,"Ġgov":12843,"Ġgws":12844,"Ġgearing":12845,"Ġgathers":12846,"Ġforget":12847,"verrender":12848,"owler":12849,"Ġatlant":12850,"Ġlev":12851,"Ġrogue":12852,"Ġoutburst":12853,"Ġtragic":12854,"Ġcarpet":12855,"plastic":12856,"attan":12857,"ullion":12858,"atsb":12859,"Ġstrand":12860,"whits":12861,"Ġglas":12862,"Ġexplor":12863,"Ġburden":12864,"Ġ49":12865,"annon":12866,"Ġfares":12867,"Ġavoc":12868,"Ġcomplac":12869,"Ġbikes":12870,"rogen":12871,"heatwave":12872,"Ġpowder":12873,"arrests":12874,"Ġanxious":12875,"Ġconcessions":12876,"sailor":12877,"Ġdreams":12878,"Ġmagazine":12879,"bash":12880,"gps":12881,"hone":12882,"uder":12883,"Ġilleg":12884,"Ġcabbie":12885,"Ġbes":12886,"Ġdy":12887,"Ġdob":12888,"acon":12889,"Ġlud":12890,"Ġstero":12891,"Ġeach":12892,"Ġkit":12893,"iah":12894,"Ġplag":12895,"enson":12896,"apec":12897,"aghan":12898,"Ġflares":12899,"Ġadams":12900,"ickers":12901,"Ġwaterways":12902,"Ġpoly":12903,"prot":12904,"Ġdecided":12905,"warren":12906,"parramatta":12907,"whincup":12908,"Ġparkes":12909,"barry":12910,"Ġskull":12911,"Ġimplement":12912,"ambers":12913,"Ġsalinity":12914,"Ġmotel":12915,"Ġdonors":12916,"Ġraided":12917,"Ġpreparation":12918,"retired":12919,"Ġharden":12920,"charles":12921,"wellbrook":12922,"supermarket":12923,"Ġopposed":12924,"Ġathletics":12925,"libya":12926,"Ġfrustration":12927,"shepparton":12928,"infrastructure":12929,"windsor":12930,"Ġdisrupts":12931,"Ġuniform":12932,"egg":12933,"fal":12934,"facts":12935,"lay":12936,"ndis":12937,"tendulkar":12938,"villa":12939,"zone":12940,"Ġia":12941,"Ġtattoo":12942,"Ġcmc":12943,"onest":12944,"Ġpul":12945,"Ġpound":12946,"Ġbiting":12947,"Ġdips":12948,"Ġnose":12949,"usual":12950,"Ġstokes":12951,"chef":12952,"Ġkhan":12953,"Ġvoy":12954,"Ġjur":12955,"oops":12956,"Ġunacceptable":12957,"Ġarr":12958,"ipart":12959,"Ġalum":12960,"odiles":12961,"assault":12962,"Ġmonkey":12963,"uresmo":12964,"Ġparker":12965,"Ġsupporting":12966,"Ġalleges":12967,"aulk":12968,"Ġprofessional":12969,"Ġpostal":12970,"Ġpostecoglou":12971,"Ġartwork":12972,"Ġhotspot":12973,"Ġholmes":12974,"Ġoffering":12975,"Ġcelebration":12976,"Ġfluoride":12977,"Ġamidst":12978,"schumacher":12979,"highlights":12980,"Ġimprovements":12981,"Ġallegation":12982,"ofarrell":12983,"Ġignores":12984,"Ġsailing":12985,"Ġtrailer":12986,"Ġaltern":12987,"panel":12988,"Ġvenus":12989,"vaughan":12990,"Ġpostpones":12991,"Ġtelevision":12992,"justin":12993,"Ġvoter":12994,"papua":12995,"Ġvideos":12996,"foster":12997,"kay":12998,"talk":12999,"incent":13000,"orke":13001,"Ġfamous":13002,"Ġdocks":13003,"edge":13004,"Ġinev":13005,"icul":13006,"Ġstalking":13007,"Ġeco":13008,"Ġeager":13009,"Ġjol":13010,"Ġplight":13011,"inees":13012,"Ġcodes":13013,"ivid":13014,"aved":13015,"Ġtrades":13016,"Ġgrilled":13017,"icketer":13018,"Ġdefect":13019,"Ġdownpour":13020,"commer":13021,"Ġbucks":13022,"Ġinternal":13023,"Ġdenmark":13024,"Ġplayground":13025,"Ġshooters":13026,"Ġfarah":13027,"Ġrevellers":13028,"Ġdeclines":13029,"Ġsingh":13030,"Ġsharemarket":13031,"Ġscratch":13032,"Ġclarify":13033,"Ġpoisoned":13034,"audit":13035,"auditor":13036,"niacki":13037,"bradley":13038,"gainville":13039,"half":13040,"Ġrequire":13041,"Ġplatform":13042,"bartlett":13043,"Ġdilemma":13044,"itzerland":13045,"Ġentrance":13046,"opoulos":13047,"dist":13048,"dark":13049,"fear":13050,"gah":13051,"kyrgios":13052,"pulp":13053,"tenders":13054,"arily":13055,"Ġpts":13056,"Ġmitch":13057,"Ġwearing":13058,"ingham":13059,"Ġhide":13060,"roxon":13061,"stic":13062,"acia":13063,"Ġloot":13064,"Ġlgbt":13065,"unes":13066,"unga":13067,"Ġstages":13068,"thouse":13069,"Ġvar":13070,"Ġleases":13071,"Ġcooma":13072,"anglers":13073,"achers":13074,"axy":13075,"cole":13076,"Ġords":13077,"Ġportfol":13078,"Ġdeveloped":13079,"Ġmerc":13080,"unta":13081,"suu":13082,"netball":13083,"crack":13084,"Ġmotorway":13085,"tersh":13086,"longreach":13087,"ajee":13088,"freed":13089,"Ġfoxes":13090,"irrigation":13091,"Ġguarantees":13092,"Ġellis":13093,"swimming":13094,"confusion":13095,"Ġeasier":13096,"Ġportfolio":13097,"57":13098,"days":13099,"ioc":13100,"ril":13101,"ridge":13102,"yp":13103,"Ġinappro":13104,"stream":13105,"elg":13106,"Ġreck":13107,"oman":13108,"Ġrans":13109,"tham":13110,"threat":13111,"thetic":13112,"alli":13113,"Ġwines":13114,"bek":13115,"Ġmarkle":13116,"Ġcorre":13117,"blind":13118,"compet":13119,"graced":13120,"Ġperforms":13121,"Ġsouths":13122,"Ġgraeme":13123,"creen":13124,"Ġpayne":13125,"Ġdetective":13126,"Ġextingu":13127,"Ġbrook":13128,"string":13129,"Ġactive":13130,"Ġgloom":13131,"farming":13132,"Ġhurdles":13133,"Ġaccidentally":13134,"Ġroyalty":13135,"prem":13136,"Ġangels":13137,"Ġwildcats":13138,"Ġ911":13139,"mcg":13140,"Ġsackings":13141,"love":13142,"Ġdevon":13143,"guns":13144,"Ġmetals":13145,"Ġdragged":13146,"Ġrethinks":13147,"finance":13148,"speeding":13149,"Ġqueanbeyan":13150,"Ġpunched":13151,"Ġclarifies":13152,"endumu":13153,"Ġpriorities":13154,"Ġexposes":13155,"Ġfloat":13156,"lifes":13157,"Ġuniversities":13158,"Ġgymn":13159,"Ġpenguin":13160,"Ġdisciplin":13161,"Ġmarginal":13162,"gden":13163,"jordan":13164,"mok":13165,"tob":13166,"Ġcambodian":13167,"Ġwikileaks":13168,"ingle":13169,"isy":13170,"icum":13171,"ilee":13172,"Ġron":13173,"Ġcher":13174,"Ġunlawful":13175,"Ġarcher":13176,"ipino":13177,"ocking":13178,"ockeys":13179,"Ġimf":13180,"liqu":13181,"Ġmediation":13182,"Ġgreet":13183,"Ġ39":13184,"Ġmilne":13185,"barca":13186,"Ġbutcher":13187,"Ġesc":13188,"hips":13189,"ralight":13190,"Ġpossibility":13191,"Ġpeacekeepers":13192,"harris":13193,"Ġderails":13194,"Ġremoves":13195,"Ġgallagher":13196,"Ġtroubles":13197,"Ġreinstated":13198,"Ġrepeal":13199,"Ġnabs":13200,"rington":13201,"Ġstampede":13202,"Ġrobertson":13203,"diggers":13204,"Ġdaley":13205,"Ġvigilant":13206,"Ġpaddock":13207,"Ġargument":13208,"somali":13209,"Ġferrari":13210,"Ġbahrain":13211,"Ġacknowled":13212,"Ġromney":13213,"gerald":13214,"pred":13215,"wanderers":13216,"Ġpiracy":13217,"Ġbout":13218,"Ġbusselton":13219,"reward":13220,"Ġwade":13221,"Ġwyn":13222,"Ġinaction":13223,"iced":13224,"sthor":13225,"Ġgol":13226,"Ġrinehart":13227,"Ġchip":13228,"riage":13229,"aki":13230,"georg":13231,"Ġexist":13232,"Ġtraum":13233,"Ġcarcass":13234,"Ġindonesias":13235,"placed":13236,"Ġmanning":13237,"Ġpret":13238,"bron":13239,"bring":13240,"Ġanna":13241,"onda":13242,"Ġhervey":13243,"captain":13244,"Ġenthus":13245,"Ġwallace":13246,"Ġproposals":13247,"naut":13248,"Ġrowing":13249,"disaster":13250,"Ġburned":13251,"Ġexperiment":13252,"Ġdigs":13253,"hawaja":13254,"Ġhacked":13255,"Ġtiny":13256,"Ġfatally":13257,"Ġessential":13258,"department":13259,"Ġcomfortable":13260,"bernard":13261,"Ġderegulation":13262,"tongan":13263,"Ġinevitable":13264,"gahlin":13265,"Ġptsd":13266,"sthorpe":13267,"bab":13268,"busselton":13269,"dham":13270,"fred":13271,"games":13272,"mural":13273,"temp":13274,"Ġsour":13275,"Ġcfmeu":13276,"arama":13277,"Ġwu":13278,"Ġobl":13279,"robb":13280,"Ġnaming":13281,"Ġnaj":13282,"acter":13283,"etric":13284,"Ġstradbroke":13285,"Ġsection":13286,"Ġtheory":13287,"Ġshame":13288,"Ġshoalhaven":13289,"Ġasada":13290,"Ġplough":13291,"Ġardern":13292,"Ġtraveston":13293,"Ġcharter":13294,"Ġalps":13295,"Ġcarrier":13296,"beaconsfield":13297,"Ġunderwater":13298,"Ġshowc":13299,"Ġdetains":13300,"Ġbarrett":13301,"Ġstriker":13302,"Ġexplores":13303,"Ġrocked":13304,"Ġlifetime":13305,"Ġmercy":13306,"Ġinvent":13307,"Ġpetro":13308,"cron":13309,"denmark":13310,"Ġpacking":13311,"Ġpanama":13312,"desal":13313,"Ġbatters":13314,"Ġpools":13315,"pressed":13316,"swimmers":13317,"Ġcompleted":13318,"Ġechuca":13319,"Ġamalgam":13320,"junior":13321,"Ġpodcast":13322,"Ġcancellation":13323,"Ġtomato":13324,"Ġkokoda":13325,"Ġthroat":13326,"Ġcategory":13327,"kill":13328,"mills":13329,"Ġpf":13330,"Ġhinder":13331,"lehmann":13332,"igma":13333,"ompe":13334,"Ġrib":13335,"Ġchoir":13336,"ctic":13337,"Ġkor":13338,"queens":13339,"Ġbec":13340,"Ġplug":13341,"Ġspencer":13342,"odiversity":13343,"Ġnotes":13344,"pitt":13345,"Ġboyd":13346,"Ġhighlanders":13347,"swiss":13348,"Ġunderpay":13349,"ibly":13350,"produc":13351,"Ġcairo":13352,"Ġbargain":13353,"Ġitems":13354,"heads":13355,"Ġ5000":13356,"Ġsubdivision":13357,"ferry":13358,"Ġartificial":13359,"buswell":13360,"Ġintent":13361,"johns":13362,"Ġangus":13363,"Ġobamas":13364,"Ġhumans":13365,"Ġ100000":13366,"Ġclassroom":13367,"Ġmotorcyclist":13368,"Ġdragon":13369,"Ġruddock":13370,"crowd":13371,"Ġballet":13372,"Ġequity":13373,"patient":13374,"patitis":13375,"Ġsmashed":13376,"billy":13377,"Ġlibyan":13378,"Ġmatters":13379,"Ġdeepens":13380,"ustainable":13381,"delay":13382,"Ġfloating":13383,"Ġseparat":13384,"expected":13385,"environmentalists":13386,"Ġchickens":13387,"bureau":13388,"Ġbankruptcy":13389,"Ġloophole":13390,"fli":13391,"nba":13392,"ogh":13393,"torn":13394,"vics":13395,"vcat":13396,"wid":13397,"Ġczech":13398,"onen":13399,"esing":13400,"Ġfi":13401,"Ġpatch":13402,"atri":13403,"icago":13404,"elin":13405,"usa":13406,"andan":13407,"Ġdegree":13408,"oscar":13409,"Ġkr":13410,"Ġatp":13411,"shoalhaven":13412,"Ġalzheimers":13413,"Ġago":13414,"Ġfaced":13415,"Ġscalp":13416,"seafood":13417,"Ġapples":13418,"dekin":13419,"Ġexpuls":13420,"Ġjoh":13421,"Ġconsol":13422,"Ġgoats":13423,"Ġroadworks":13424,"Ġpoker":13425,"Ġbutler":13426,"Ġcoalitions":13427,"Ġtroy":13428,"Ġchristopher":13429,"Ġ700":13430,"laura":13431,"Ġintensive":13432,"Ġboris":13433,"Ġtruckies":13434,"Ġelectronic":13435,"retire":13436,"Ġeurovision":13437,"Ġmisery":13438,"builder":13439,"Ġformally":13440,"Ġmetres":13441,"Ġsharon":13442,"Ġaudience":13443,"Ġeverton":13444,"Ġwoodchip":13445,"Ġjumping":13446,"Ġtyre":13447,"salt":13448,"Ġmulticultural":13449,"Ġgrazier":13450,"jailed":13451,"Ġpensioners":13452,"militants":13453,"Ġbotched":13454,"coastal":13455,"tiwi":13456,"silver":13457,"Ġryder":13458,"Ġcommodity":13459,"musharraf":13460,"Ġartefacts":13461,"bands":13462,"nib":13463,"nik":13464,"oys":13465,"rin":13466,"rous":13467,"round":13468,"year":13469,"Ġcage":13470,"arrow":13471,"Ġai":13472,"Ġaer":13473,"Ġpc":13474,"Ġbm":13475,"Ġbitter":13476,"Ġbounty":13477,"Ġmit":13478,"acular":13479,"Ġlover":13480,"Ġreynolds":13481,"iveness":13482,"neil":13483,"Ġoutlaw":13484,"indi":13485,"Ġsurrog":13486,"onso":13487,"ibo":13488,"Ġswoop":13489,"leyton":13490,"Ġgoers":13491,"firefighter":13492,"Ġinvestigator":13493,"Ġdesk":13494,"ippers":13495,"Ġdennis":13496,"Ġpresents":13497,"Ġdebts":13498,"Ġstrikers":13499,"Ġgloucester":13500,"carthur":13501,"Ġthrones":13502,"myer":13503,"Ġcoaches":13504,"Ġinfant":13505,"aux":13506,"ramos":13507,"Ġturnbulls":13508,"Ġwilcannia":13509,"Ġmedicinal":13510,"Ġproponent":13511,"citiz":13512,"Ġliquidation":13513,"Ġeradication":13514,"Ġcripp":13515,"Ġkitchen":13516,"Ġairlifted":13517,"cwa":13518,"ez":13519,"fine":13520,"fmg":13521,"nich":13522,"ringe":13523,"toms":13524,"zi":13525,"zak":13526,"Ġdim":13527,"Ġdylan":13528,"lead":13529,"ols":13530,"entials":13531,"Ġchains":13532,"geant":13533,"opera":13534,"Ġabuses":13535,"ogil":13536,"owner":13537,"Ġwhip":13538,"newsp":13539,"Ġslowing":13540,"therland":13541,"izarre":13542,"vensthorpe":13543,"marathon":13544,"Ġgenia":13545,"goat":13546,"Ġholy":13547,"breaking":13548,"Ġcrosses":13549,"Ġdisputed":13550,"Ġdoubtful":13551,"rieving":13552,"Ġpersonnel":13553,"icopters":13554,"Ġmourning":13555,"Ġfloyd":13556,"Ġwrites":13557,"Ġwriters":13558,"Ġvandalised":13559,"Ġstanhope":13560,"Ġtouches":13561,"Ġtravelling":13562,"Ġcigarettes":13563,"licensed":13564,"producers":13565,"aired":13566,"iks":13567,"ocean":13568,"rh":13569,"table":13570,"wat":13571,"inator":13572,"erm":13573,"Ġcree":13574,"Ġcott":13575,"Ġinver":13576,"iler":13577,"leaked":13578,"Ġstalk":13579,"Ġdeans":13580,"allas":13581,"Ġkl":13582,"iang":13583,"ivia":13584,"shopping":13585,"ounces":13586,"Ġflanagan":13587,"Ġattends":13588,"Ġcanal":13589,"Ġneill":13590,"Ġbananas":13591,"encore":13592,"Ġmonster":13593,"abbas":13594,"Ġharam":13595,"Ġirc":13596,"aults":13597,"Ġsupermarkets":13598,"victorians":13599,"Ġtreating":13600,"Ġreaching":13601,"Ġinfest":13602,"Ġvolat":13603,"darling":13604,"Ġdigger":13605,"Ġcowan":13606,"jobless":13607,"Ġpicked":13608,"Ġethiop":13609,"Ġladder":13610,"Ġrestaurants":13611,"springboks":13612,"treasury":13613,"refugees":13614,"Ġsnatches":13615,"Ġbarker":13616,"Ġrelaxed":13617,"Ġlifesaving":13618,"Ġbrushes":13619,"Ġmiracle":13620,"Ġponder":13621,"uqiri":13622,"toyota":13623,"Ġvessel":13624,"governor":13625,"gment":13626,"uch":13627,"Ġtyr":13628,"Ġsutton":13629,"Ġfy":13630,"Ġfellow":13631,"rele":13632,"Ġdict":13633,"Ġdash":13634,"Ġdual":13635,"Ġgy":13636,"Ġstal":13637,"Ġshir":13638,"ooth":13639,"outrage":13640,"Ġarctic":13641,"lyon":13642,"Ġheal":13643,"aches":13644,"Ġsuing":13645,"deans":13646,"Ġtriathlon":13647,"Ġwestpac":13648,"Ġsteer":13649,"Ġpreschool":13650,"Ġactress":13651,"ikh":13652,"Ġrecording":13653,"Ġeddie":13654,"affir":13655,"umba":13656,"Ġmoreton":13657,"Ġweekly":13658,"rainian":13659,"Ġholland":13660,"Ġqr":13661,"Ġdonated":13662,"andalwood":13663,"Ġjulie":13664,"yrs":13665,"magn":13666,"Ġtreasure":13667,"Ġcrushing":13668,"Ġsanders":13669,"farlane":13670,"Ġerupt":13671,"Ġkicked":13672,"fifth":13673,"Ġinstagram":13674,"Ġtenants":13675,"Ġbrandis":13676,"bolt":13677,"gilchrist":13678,"digital":13679,"Ġpreferred":13680,"Ġsacred":13681,"Ġrattles":13682,"renewed":13683,"Ġlengthy":13684,"Ġgrenade":13685,"cedented":13686,"Ġillegally":13687,"cup":13688,"dick":13689,"downs":13690,"gaddafi":13691,"kan":13692,"lismore":13693,"rition":13694,"tail":13695,"tamil":13696,"uels":13697,"waff":13698,"Ġceltic":13699,"ouds":13700,"itives":13701,"Ġreaffir":13702,"Ġstability":13703,"Ġkewell":13704,"Ġva":13705,"abortion":13706,"opoly":13707,"utan":13708,"athletes":13709,"Ġcharities":13710,"oga":13711,"Ġdisgust":13712,"insp":13713,"insons":13714,"Ġunderstand":13715,"phys":13716,"phelps":13717,"Ġsweat":13718,"leyball":13719,"Ġpreserve":13720,"Ġrobin":13721,"ennifer":13722,"Ġmenu":13723,"mona":13724,"Ġmalaria":13725,"suns":13726,"Ġ1500":13727,"succ":13728,"discover":13729,"falls":13730,"Ġboxer":13731,"cherry":13732,"Ġsplits":13733,"Ġlobbying":13734,"Ġtonnes":13735,"Ġmeasure":13736,"Ġgrooming":13737,"Ġgamble":13738,"Ġmortem":13739,"wilkie":13740,"hillary":13741,"Ġwriting":13742,"Ġresistant":13743,"Ġbartlett":13744,"Ġdepartments":13745,"Ġbowls":13746,"latrobe":13747,"Ġsawmill":13748,"Ġdocklands":13749,"wimbledon":13750,"korea":13751,"Ġsponsorship":13752,"pentagon":13753,"wesfarmers":13754,"Ġhastings":13755,"Ġnicholls":13756,"Ġsubstance":13757,"wheel":13758,"Ġhardenne":13759,"alliative":13760,"dok":13761,"pearson":13762,"ww":13763,"erive":13764,"Ġfully":13765,"rep":13766,"Ġdj":13767,"Ġmason":13768,"Ġmardi":13769,"iture":13770,"ickey":13771,"Ġnas":13772,"Ġeighth":13773,"adeye":13774,"quality":13775,"Ġbeet":13776,"Ġbeirut":13777,"Ġunne":13778,"agen":13779,"agassi":13780,"Ġrabbit":13781,"Ġbyr":13782,"afia":13783,"Ġtru":13784,"Ġrematch":13785,"phils":13786,"lich":13787,"ooker":13788,"flower":13789,"glass":13790,"Ġfishery":13791,"allenby":13792,"mars":13793,"Ġrevives":13794,"monaro":13795,"Ġpeters":13796,"loyd":13797,"Ġdisappoints":13798,"Ġtonight":13799,"Ġautom":13800,"Ġstunning":13801,"Ġmistaken":13802,"economist":13803,"Ġinspections":13804,"Ġcircus":13805,"fortescue":13806,"Ġsomali":13807,"Ġpensioner":13808,"Ġfitzgibbon":13809,"Ġ457":13810,"Ġcockat":13811,"Ġrivalry":13812,"Ġescalates":13813,"dunlop":13814,"Ġenrolments":13815,"Ġexcessive":13816,"Ġfutures":13817,"Ġdevonport":13818,"hed":13819,"iac":13820,"kur":13821,"nets":13822,"wans":13823,"wenger":13824,"zuel":13825,"Ġ:":13826,"Ġtenders":13827,"arus":13828,"Ġpam":13829,"Ġmend":13830,"icester":13831,"Ġhans":13832,"Ġoh":13833,"etics":13834,"Ġrents":13835,"Ġbeck":13836,"Ġrooney":13837,"Ġcove":13838,"ictions":13839,"Ġagri":13840,"Ġtres":13841,"Ġretention":13842,"Ġmeghan":13843,"Ġwebb":13844,"Ġsupplier":13845,"Ġstructure":13846,"Ġdeserves":13847,"Ġpeaks":13848,"Ġextortion":13849,"Ġbarrel":13850,"Ġbarossa":13851,"Ġharrison":13852,"Ġirwin":13853,"ukes":13854,"caster":13855,"Ġrobs":13856,"Ġrobots":13857,"Ġeconomics":13858,"goers":13859,"Ġinsurgents":13860,"Ġspeeds":13861,"istrates":13862,"Ġpackaging":13863,"loads":13864,"Ġveg":13865,"Ġidentifies":13866,"Ġ130":13867,"Ġgarbage":13868,"Ġrubber":13869,"Ġeruption":13870,"thurston":13871,"Ġkyoto":13872,"innon":13873,"Ġmatthews":13874,"Ġkiwi":13875,"Ġpests":13876,"bikies":13877,"Ġfanning":13878,"Ġfaulty":13879,"Ġsurround":13880,"ratepayers":13881,"Ġkirk":13882,"claremont":13883,"spotlight":13884,"Ġcommunications":13885,"Ġwentworth":13886,"Ġcontrolled":13887,"Ġfumes":13888,"Ġconversation":13889,"troubled":13890,"Ġcaulfield":13891,"dj":13892,"dolph":13893,"Ġtpp":13894,"Ġcess":13895,"Ġfade":13896,"Ġpenny":13897,"edon":13898,"Ġhemp":13899,"Ġlanger":13900,"Ġrejo":13901,"iga":13902,"terbury":13903,"upid":13904,"berlusconi":13905,"ifle":13906,"Ġyounger":13907,"Ġfinch":13908,"ocus":13909,"armidale":13910,"Ġcricketer":13911,"Ġopts":13912,"Ġscams":13913,"unda":13914,"airn":13915,"beck":13916,"swifts":13917,"Ġcorrupt":13918,"Ġcontinuing":13919,"coral":13920,"Ġhouseholds":13921,"Ġrunners":13922,"Ġharder":13923,"Ġsnares":13924,"Ġhearts":13925,"trumps":13926,"Ġcampaigners":13927,"Ġchallenging":13928,"Ġlifting":13929,"Ġlifestyle":13930,"Ġdelaying":13931,"Ġboyfriend":13932,"Ġfrontline":13933,"childrens":13934,"Ġcurtis":13935,"Ġ110":13936,"Ġtributes":13937,"computer":13938,"developers":13939,"Ġgrief":13940,"Ġkenyan":13941,"Ġexecutions":13942,"Ġclarkson":13943,"Ġpearl":13944,"Ġmontgomery":13945,"Ġousted":13946,"Ġpaintings":13947,"Ġsacrif":13948,"Ġscholarship":13949,"Ġadventure":13950,"sarah":13951,"Ġsuicides":13952,"scotland":13953,"flix":13954,"90":13955,"did":13956,"fury":13957,"giants":13958,"sas":13959,"sad":13960,"safe":13961,"sleep":13962,"tch":13963,"Ġcites":13964,"Ġfencing":13965,"Ġdope":13966,"Ġduff":13967,"inglis":13968,"stal":13969,"Ġlloyd":13970,"asc":13971,"etahs":13972,"Ġronaldo":13973,"Ġecl":13974,"Ġthwart":13975,"channel":13976,"Ġsecur":13977,"Ġnewton":13978,"Ġblessing":13979,"roma":13980,"Ġalarmed":13981,"Ġfacts":13982,"Ġscuffle":13983,"Ġscooter":13984,"Ġscathing":13985,"Ġnotch":13986,"Ġcommun":13987,"ussels":13988,"being":13989,"Ġcorn":13990,"Ġparamedic":13991,"Ġregular":13992,"Ġharness":13993,"Ġrestrain":13994,"Ġsnakes":13995,"Ġ46":13996,"Ġemot":13997,"Ġdropping":13998,"kenyan":13999,"Ġlighting":14000,"Ġmcdonalds":14001,"struct":14002,"ecd":14003,"Ġenglands":14004,"canberras":14005,"guire":14006,"Ġaborigines":14007,"Ġpacker":14008,"Ġinspection":14009,"morning":14010,"Ġblocking":14011,"christchurch":14012,"Ġorganised":14013,"relief":14014,"Ġfleming":14015,"Ġprovince":14016,"biosecurity":14017,"appleby":14018,"Ġexpresses":14019,"Ġwhitlam":14020,"eppoon":14021,"Ġsettled":14022,"Ġninety":14023,"aulkner":14024,"Ġexpulsion":14025,"35":14026,"hams":14027,"iat":14028,"jc":14029,"jel":14030,"wc":14031,"Ġtah":14032,"Ġsizz":14033,"orious":14034,"Ġfred":14035,"enka":14036,"Ġbought":14037,"station":14038,"Ġchol":14039,"Ġovercomes":14040,"Ġspills":14041,"arko":14042,"ively":14043,"obe":14044,"owndes":14045,"inding":14046,"dean":14047,"Ġmoree":14048,"coin":14049,"cooma":14050,"Ġmok":14051,"Ġsteers":14052,"Ġpoaching":14053,"Ġhunts":14054,"Ġimperson":14055,"Ġdeclining":14056,"guantanamo":14057,"Ġstrategic":14058,"Ġmuds":14059,"companies":14060,"Ġcapsize":14061,"eurobodalla":14062,"Ġdelivered":14063,"fraud":14064,"Ġcooking":14065,"Ġpriests":14066,"fifo":14067,"Ġsoftware":14068,"Ġowen":14069,"iddings":14070,"Ġlaser":14071,"grazier":14072,"connex":14073,"Ġrandom":14074,"Ġvenezuela":14075,"optus":14076,"Ġpocket":14077,"Ġorchestra":14078,"ogilvy":14079,"gos":14080,"meth":14081,"rudds":14082,"saw":14083,"wig":14084,"wear":14085,"Ġistanbul":14086,"anmen":14087,"orong":14088,"orica":14089,"Ġbast":14090,"reith":14091,"rebel":14092,"Ġdpi":14093,"Ġmug":14094,"Ġmalthouse":14095,"Ġwta":14096,"Ġlind":14097,"idis":14098,"Ġtheme":14099,"Ġleeds":14100,"Ġspider":14101,"aganda":14102,"endy":14103,"Ġtrace":14104,"Ġdischarged":14105,"Ġcrab":14106,"Ġteeth":14107,"Ġairways":14108,"Ġbuchanan":14109,"resource":14110,"flintoff":14111,"Ġfinalists":14112,"Ġbarley":14113,"izona":14114,"Ġhasnt":14115,"barr":14116,"Ġpatience":14117,"Ġcollie":14118,"Ġmilitia":14119,"Ġinfected":14120,"Ġflynn":14121,"Ġrolled":14122,"Ġjoining":14123,"Ġreceived":14124,"breakthrough":14125,"Ġ140":14126,"flooded":14127,"Ġbribe":14128,
[...]
